<unk>	0
<s>	0
</s>	0
<0x00>	0
<0x01>	0
<0x02>	0
<0x03>	0
<0x04>	0
<0x05>	0
<0x06>	0
<0x07>	0
<0x08>	0
<0x09>	0
<0x0A>	0
<0x0B>	0
<0x0C>	0
<0x0D>	0
<0x0E>	0
<0x0F>	0
<0x10>	0
<0x11>	0
<0x12>	0
<0x13>	0
<0x14>	0
<0x15>	0
<0x16>	0
<0x17>	0
<0x18>	0
<0x19>	0
<0x1A>	0
<0x1B>	0
<0x1C>	0
<0x1D>	0
<0x1E>	0
<0x1F>	0
<0x20>	0
<0x21>	0
<0x22>	0
<0x23>	0
<0x24>	0
<0x25>	0
<0x26>	0
<0x27>	0
<0x28>	0
<0x29>	0
<0x2A>	0
<0x2B>	0
<0x2C>	0
<0x2D>	0
<0x2E>	0
<0x2F>	0
<0x30>	0
<0x31>	0
<0x32>	0
<0x33>	0
<0x34>	0
<0x35>	0
<0x36>	0
<0x37>	0
<0x38>	0
<0x39>	0
<0x3A>	0
<0x3B>	0
<0x3C>	0
<0x3D>	0
<0x3E>	0
<0x3F>	0
<0x40>	0
<0x41>	0
<0x42>	0
<0x43>	0
<0x44>	0
<0x45>	0
<0x46>	0
<0x47>	0
<0x48>	0
<0x49>	0
<0x4A>	0
<0x4B>	0
<0x4C>	0
<0x4D>	0
<0x4E>	0
<0x4F>	0
<0x50>	0
<0x51>	0
<0x52>	0
<0x53>	0
<0x54>	0
<0x55>	0
<0x56>	0
<0x57>	0
<0x58>	0
<0x59>	0
<0x5A>	0
<0x5B>	0
<0x5C>	0
<0x5D>	0
<0x5E>	0
<0x5F>	0
<0x60>	0
<0x61>	0
<0x62>	0
<0x63>	0
<0x64>	0
<0x65>	0
<0x66>	0
<0x67>	0
<0x68>	0
<0x69>	0
<0x6A>	0
<0x6B>	0
<0x6C>	0
<0x6D>	0
<0x6E>	0
<0x6F>	0
<0x70>	0
<0x71>	0
<0x72>	0
<0x73>	0
<0x74>	0
<0x75>	0
<0x76>	0
<0x77>	0
<0x78>	0
<0x79>	0
<0x7A>	0
<0x7B>	0
<0x7C>	0
<0x7D>	0
<0x7E>	0
<0x7F>	0
<0x80>	0
<0x81>	0
<0x82>	0
<0x83>	0
<0x84>	0
<0x85>	0
<0x86>	0
<0x87>	0
<0x88>	0
<0x89>	0
<0x8A>	0
<0x8B>	0
<0x8C>	0
<0x8D>	0
<0x8E>	0
<0x8F>	0
<0x90>	0
<0x91>	0
<0x92>	0
<0x93>	0
<0x94>	0
<0x95>	0
<0x96>	0
<0x97>	0
<0x98>	0
<0x99>	0
<0x9A>	0
<0x9B>	0
<0x9C>	0
<0x9D>	0
<0x9E>	0
<0x9F>	0
<0xA0>	0
<0xA1>	0
<0xA2>	0
<0xA3>	0
<0xA4>	0
<0xA5>	0
<0xA6>	0
<0xA7>	0
<0xA8>	0
<0xA9>	0
<0xAA>	0
<0xAB>	0
<0xAC>	0
<0xAD>	0
<0xAE>	0
<0xAF>	0
<0xB0>	0
<0xB1>	0
<0xB2>	0
<0xB3>	0
<0xB4>	0
<0xB5>	0
<0xB6>	0
<0xB7>	0
<0xB8>	0
<0xB9>	0
<0xBA>	0
<0xBB>	0
<0xBC>	0
<0xBD>	0
<0xBE>	0
<0xBF>	0
<0xC0>	0
<0xC1>	0
<0xC2>	0
<0xC3>	0
<0xC4>	0
<0xC5>	0
<0xC6>	0
<0xC7>	0
<0xC8>	0
<0xC9>	0
<0xCA>	0
<0xCB>	0
<0xCC>	0
<0xCD>	0
<0xCE>	0
<0xCF>	0
<0xD0>	0
<0xD1>	0
<0xD2>	0
<0xD3>	0
<0xD4>	0
<0xD5>	0
<0xD6>	0
<0xD7>	0
<0xD8>	0
<0xD9>	0
<0xDA>	0
<0xDB>	0
<0xDC>	0
<0xDD>	0
<0xDE>	0
<0xDF>	0
<0xE0>	0
<0xE1>	0
<0xE2>	0
<0xE3>	0
<0xE4>	0
<0xE5>	0
<0xE6>	0
<0xE7>	0
<0xE8>	0
<0xE9>	0
<0xEA>	0
<0xEB>	0
<0xEC>	0
<0xED>	0
<0xEE>	0
<0xEF>	0
<0xF0>	0
<0xF1>	0
<0xF2>	0
<0xF3>	0
<0xF4>	0
<0xF5>	0
<0xF6>	0
<0xF7>	0
<0xF8>	0
<0xF9>	0
<0xFA>	0
<0xFB>	0
<0xFC>	0
<0xFD>	0
<0xFE>	0
<0xFF>	0
:“	-0
。”	-1
..	-2
....	-3
?”	-4
说道	-5
什么	-6
自己	-7
了一	-8
......	-9
令狐	-10
郭靖	-11
!”	-12
杨过	-13
一个	-14
令狐冲	-15
也不	-16
无忌	-17
黄蓉	-18
张无忌	-19
武功	-20
不是	-21
笑道	-22
师父	-23
咱们	-24
这一	-25
不知	-26
心中	-27
一声	-28
听得	-29
弟子	-30
段誉	-31
叫道	-32
出来	-33
他们	-34
心想	-35
如此	-36
如何	-37
二人	-38
姑娘	-39
两人	-40
突然	-41
之中	-42
只见	-43
兄弟	-44
甚么	-45
不能	-46
我们	-47
声道	-48
到了	-49
知道	-50
▁那	-51
少林	-52
不得	-53
便是	-54
不过	-55
的一声	-56
原来	-57
只是	-58
你们	-59
众人	-60
欧阳	-61
不敢	-62
不住	-63
龙女	-64
小龙女	-65
都是	-66
怎么	-67
身子	-68
这时	-69
不可	-70
山派	-71
身上	-72
大师	-73
之间	-74
今日	-75
脸上	-76
帮主	-77
见他	-78
......”	-79
功夫	-80
夫人	-81
这么	-82
”,	-83
萧峰	-84
这里	-85
长剑	-86
见到	-87
之后	-88
爹爹	-89
起来	-90
当下	-91
天下	-92
破天	-93
剑法	-94
石破天	-95
他的	-96
之下	-97
慕容	-98
一人	-99
▁令狐冲	-100
倘若	-101
当真	-102
问道	-103
可是	-104
的一	-105
说话	-106
左手	-107
跟着	-108
正是	-109
婆婆	-110
有人	-111
也是	-112
一笑	-113
性命	-114
内力	-115
伸手	-116
这些	-117
虚竹	-118
声音	-119
两个	-120
登时	-121
喝道	-122
三人	-123
教主	-124
这个	-125
说着	-126
还是	-127
了他	-128
句话	-129
过去	-130
心下	-131
不到	-132
长老	-133
却是	-134
手中	-135
你的	-136
我的	-137
眼见	-138
武林	-139
了几	-140
难道	-141
人家	-142
欧阳锋	-143
地下	-144
出去	-145
右手	-146
双手	-147
哪里	-148
先生	-149
不会	-150
女子	-151
自然	-152
掌门	-153
不由	-154
▁张无忌	-155
大哥	-156
公子	-157
此时	-158
▁郭靖	-159
丐帮	-160
有一	-161
那人	-162
你说	-163
这般	-164
是一	-165
住了	-166
只怕	-167
中的	-168
下来	-169
江湖	-170
英雄	-171
一般	-172
▁杨过	-173
赵敏	-174
这位	-175
当即	-176
虽然	-177
七公	-178
蒙古	-179
哈哈	-180
▁他	-181
和尚	-182
出手	-183
在一	-184
▁黄蓉	-185
人的	-186
乔峰	-187
法王	-188
是我	-189
点头	-190
洪七公	-191
对方	-192
伯通	-193
谢逊	-194
周伯通	-195
想到	-196
上一	-197
厉害	-198
微微	-199
不群	-200
十余	-201
这小	-202
不禁	-203
岳不群	-204
听到	-205
死了	-206
翠山	-207
在他	-208
过来	-209
之时	-210
是谁	-211
过了	-212
上的	-213
有什么	-214
阿紫	-215
张翠山	-216
师兄	-217
不由得	-218
少女	-219
也没	-220
轻轻	-221
明白	-222
上了	-223
一时	-224
盈盈	-225
本来	-226
黄药	-227
身来	-228
说不	-229
只听得	-230
就是	-231
敌人	-232
黄药师	-233
阿朱	-234
摇头	-235
兵刃	-236
之人	-237
前辈	-238
师太	-239
这等	-240
杀了	-241
下去	-242
胸口	-243
那是	-244
少年	-245
是个	-246
甚是	-247
不见	-248
在下	-249
郭襄	-250
将他	-251
:‘	-252
似乎	-253
口气	-254
的大	-255
给他	-256
地道	-257
忽然	-258
这才	-259
十分	-260
莫愁	-261
李莫愁	-262
之事	-263
高手	-264
这样	-265
想起	-266
此刻	-267
第一	-268
武当	-269
立时	-270
之极	-271
大叫	-272
这几	-273
不及	-274
全身	-275
一阵	-276
两位	-277
平之	-278
派的	-279
同时	-280
的是	-281
走到	-282
语嫣	-283
这是	-284
许多	-285
灵珊	-286
女儿	-287
我不	-288
心道	-289
林平之	-290
便即	-291
只听	-292
一惊	-293
出一	-294
当年	-295
果然	-296
岳灵珊	-297
适才	-298
王语嫣	-299
动手	-300
又是	-301
夫妇	-302
少林寺	-303
芷若	-304
但见	-305
不错	-306
不肯	-307
只有	-308
于是	-309
后来	-310
站起	-311
▁段誉	-312
在地下	-313
师妹	-314
只觉	-315
了出来	-316
慕容复	-317
汉子	-318
完颜	-319
穴道	-320
大声	-321
片刻	-322
之上	-323
在这	-324
,“	-325
为了	-326
师弟	-327
孩子	-328
老者	-329
始终	-330
给你	-331
不同	-332
说得	-333
明教	-334
朋友	-335
道人	-336
早已	-337
郭芙	-338
来到	-339
一招	-340
四人	-341
只要	-342
就算	-343
旁人	-344
怎地	-345
处机	-346
你不	-347
大笑	-348
丘处机	-349
之外	-350
段正	-351
全真	-352
向他	-353
你是	-354
听他	-355
为什么	-356
忽听得	-357
数十	-358
上来	-359
周芷若	-360
的人	-361
不好	-362
内功	-363
裘千	-364
你这	-365
到底	-366
只得	-367
我一	-368
之意	-369
没有	-370
低声道	-371
上前	-372
慢慢	-373
却又	-374
年纪	-375
着一	-376
给我	-377
的手	-378
在这里	-379
转身	-380
怒道	-381
更加	-382
儿子	-383
段正淳	-384
之声	-385
说到	-386
第二	-387
因此	-388
不了	-389
了个	-390
又道	-391
他一	-392
此人	-393
那么	-394
大喜	-395
我是	-396
妈妈	-397
师叔	-398
去了	-399
婉清	-400
瞧瞧	-401
木婉清	-402
父亲	-403
难以	-404
不起	-405
半点	-406
大家	-407
否则	-408
若是	-409
一齐	-410
他是	-411
各人	-412
仪琳	-413
哪知	-414
却也	-415
居然	-416
脸色	-417
不动	-418
大理	-419
:”	-420
眼前	-421
随即	-422
神色	-423
这人	-424
伯光	-425
说了	-426
田伯光	-427
缓缓	-428
三个	-429
之处	-430
其实	-431
丝毫	-432
人人	-433
自是	-434
言语	-435
是不是	-436
见她	-437
来的	-438
终于	-439
此事	-440
抓住	-441
立即	-442
哥哥	-443
跟我	-444
不成	-445
’,	-446
头来	-447
无双	-448
了起来	-449
之际	-450
之前	-451
令狐冲道	-452
丈夫	-453
老人家	-454
大的	-455
耶律	-456
件事	-457
暗暗	-458
未必	-459
华山	-460
的话	-461
跟你	-462
并不	-463
怎样	-464
突然间	-465
的小	-466
了我	-467
放在	-468
身后	-469
是以	-470
张三	-471
不出	-472
魔教	-473
了这	-474
口中	-475
已然	-476
肩头	-477
便在	-478
的道	-479
孩儿	-480
手指	-481
回来	-482
清楚	-483
大有	-484
更是	-485
石清	-486
只道	-487
掌力	-488
了一声	-489
鲜血	-490
不少	-491
欧阳克	-492
手臂	-493
见过	-494
武林中	-495
桃花	-496
脚步	-497
一动	-498
声响	-499
不再	-500
点了	-501
其中	-502
华山派	-503
的武功	-504
不用	-505
师哥	-506
鸠摩	-507
眼睛	-508
年来	-509
你一	-510
寻思	-511
童姥	-512
鸠摩智	-513
多半	-514
怎能	-515
手掌	-516
还有	-517
镇恶	-518
公孙	-519
两名	-520
武学	-521
▁萧峰	-522
二十	-523
江湖上	-524
半晌	-525
满脸	-526
柯镇恶	-527
▁石破天	-528
七八	-529
急忙	-530
素素	-531
出了	-532
忍不住	-533
一怔	-534
义父	-535
了得	-536
奇怪	-537
身前	-538
姊姊	-539
竟是	-540
中了	-541
又有	-542
定是	-543
总是	-544
真是	-545
丁不	-546
何况	-547
了口气	-548
陆无双	-549
了一会	-550
便要	-551
受伤	-552
。’	-553
当时	-554
身旁	-555
实在	-556
恒山派	-557
这小子	-558
她的	-559
群雄	-560
殷素素	-561
实是	-562
好了	-563
听了	-564
微笑道	-565
而出	-566
一条	-567
下的	-568
你要	-569
却不	-570
上去	-571
答应	-572
远远	-573
黄蓉道	-574
瞧着	-575
郭靖道	-576
我行	-577
真的	-578
模样	-579
南海	-580
成了	-581
站在	-582
母亲	-583
哈哈大笑	-584
齐声	-585
杨逍	-586
觉得	-587
那个	-588
站起身来	-589
有的	-590
江南	-591
有些	-592
欢喜	-593
见了	-594
一直	-595
名字	-596
三十	-597
好生	-598
不如	-599
回头	-600
再也	-601
再说	-602
几个	-603
五岳	-604
提起	-605
无法	-606
神功	-607
▁这	-608
和他	-609
得很	-610
那少女	-611
古怪	-612
坐在	-613
契丹	-614
任我行	-615
各位	-616
方丈	-617
是你	-618
一名	-619
开了	-620
跟他	-621
功力	-622
向问	-623
无不	-624
那老	-625
向问天	-626
仍是	-627
微微一笑	-628
我也	-629
转头	-630
东西	-631
何必	-632
峨嵋	-633
得罪	-634
须得	-635
不免	-636
指点	-637
大伙	-638
少林派	-639
游坦	-640
看来	-641
进来	-642
叫我	-643
啊哟	-644
只不过	-645
”。	-646
四个	-647
招数	-648
游坦之	-649
这么一	-650
头顶	-651
走了	-652
群豪	-653
摇头道	-654
一面	-655
不料	-656
不相	-657
向来	-658
中原	-659
无人	-660
生死	-661
竟然	-662
了一眼	-663
的声音	-664
了你	-665
可惜	-666
多时	-667
大侠	-668
叹了口气	-669
一灯	-670
怀中	-671
冷笑道	-672
下了	-673
在地	-674
现下	-675
的事	-676
躬身	-677
正要	-678
冷禅	-679
小子	-680
志敬	-681
梅超	-682
左冷禅	-683
那时	-684
人物	-685
手腕	-686
向前	-687
十八	-688
转过	-689
梅超风	-690
我这	-691
背上	-692
鳄神	-693
这一招	-694
重伤	-695
青城	-696
大声道	-697
南海鳄神	-698
着他	-699
知他	-700
大伙儿	-701
不论	-702
赵志敬	-703
只须	-704
渐渐	-705
不愿	-706
何以	-707
叫做	-708
春秋	-709
杨康	-710
良久	-711
隐隐	-712
而去	-713
师伯	-714
我要	-715
金轮	-716
头上	-717
一片	-718
了两	-719
报仇	-720
自己的	-721
好好	-722
显是	-723
确是	-724
杨过道	-725
暗中	-726
钟灵	-727
入了	-728
真气	-729
身边	-730
一步	-731
吃了一	-732
爷爷	-733
倒也	-734
在此	-735
道长	-736
张三丰	-737
▁“	-738
以为	-739
向后	-740
丁春秋	-741
张无忌道	-742
大事	-743
当日	-744
一掌	-745
多谢	-746
便道	-747
丁珰	-748
世上	-749
叹道	-750
多少	-751
庄主	-752
了一个	-753
万剑	-754
子的	-755
手下	-756
日后	-757
是啊	-758
沉吟	-759
▁众人	-760
冷冷	-761
双掌	-762
回去	-763
兀自	-764
料想	-765
老大	-766
很好	-767
杀人	-768
晚辈	-769
包不同	-770
父母	-771
也已	-772
并无	-773
一路	-774
容易	-775
背后	-776
喜欢	-777
在她	-778
除了	-779
一会	-780
不要	-781
岛主	-782
心头	-783
我爹爹	-784
左右	-785
在一起	-786
灭绝	-787
分别	-788
反而	-789
心中一	-790
不在	-791
望着	-792
衣衫	-793
这一下	-794
我便	-795
面前	-796
不必	-797
东方	-798
当然	-799
满了	-800
也不知	-801
大惊	-802
我可	-803
白万剑	-804
就此	-805
得紧	-806
男子	-807
的好	-808
又想	-809
这几句话	-810
不对	-811
小心	-812
西夏	-813
要是	-814
也不敢	-815
裘千仞	-816
妹子	-817
尽数	-818
暗器	-819
我说	-820
纷纷	-821
并非	-822
纵身	-823
轻功	-824
个个	-825
仙道	-826
姑姑	-827
得到	-828
▁虚竹	-829
我师父	-830
一只	-831
将她	-832
星宿	-833
有何	-834
吃了一惊	-835
四下	-836
所在	-837
无比	-838
王爷	-839
真经	-840
▁她	-841
大汗	-842
打得	-843
生怕	-844
那日	-845
第三	-846
来越	-847
神情	-848
掌门人	-849
灭绝师太	-850
但他	-851
答允	-852
越来越	-853
十二	-854
这两	-855
了下来	-856
方证	-857
小师妹	-858
点了点头	-859
从来	-860
忙道	-861
了过去	-862
得了	-863
那也	-864
那就	-865
也不能	-866
门下	-867
得多	-868
我和	-869
本事	-870
刚才	-871
吓得	-872
桃谷	-873
不知道	-874
相救	-875
一股	-876
劲力	-877
嘿嘿	-878
我去	-879
解药	-880
佩服	-881
决计	-882
一位	-883
皇帝	-884
伸出	-885
便如	-886
决不	-887
左掌	-888
师娘	-889
终究	-890
其时	-891
对付	-892
金花	-893
说不定	-894
是他	-895
法子	-896
听说	-897
小人	-898
胡说	-899
叫他	-900
吩咐	-901
是否	-902
然道	-903
尹志	-904
莲舟	-905
一起	-906
下山	-907
光明	-908
前来	-909
好汉	-910
显然	-911
目光	-912
给人	-913
小小	-914
最后	-915
腰间	-916
一个人	-917
说什么	-918
取出	-919
空中	-920
小姐	-921
背心	-922
了出去	-923
桃花岛	-924
为人	-925
成吉	-926
正在	-927
尹志平	-928
全无	-929
受了	-930
先前	-931
可以	-932
从未	-933
那些	-934
▁只听	-935
俞莲舟	-936
完颜洪	-937
段誉道	-938
金轮法王	-939
体内	-940
叫化	-941
小昭	-942
不理	-943
生平	-944
霎时	-945
万万	-946
之力	-947
大吃	-948
感激	-949
沧海	-950
成吉思	-951
说不出	-952
发出	-953
大师哥	-954
尚未	-955
余沧海	-956
成吉思汗	-957
却已	-958
双目	-959
岳夫人	-960
回到	-961
在我	-962
身形	-963
阿碧	-964
▁两人	-965
低声	-966
其余	-967
妻子	-968
时辰	-969
▁这时	-970
大怒	-971
师姊	-972
比武	-973
跃起	-974
你去	-975
得他	-976
是好	-977
此处	-978
聪明	-979
说是	-980
错了	-981
有个	-982
听她	-983
来了	-984
相助	-985
对手	-986
异常	-987
蓉儿	-988
还不	-989
延庆	-990
是什么	-991
重重	-992
为难	-993
雪山派	-994
也好	-995
眼光	-996
而来	-997
地方	-998
奇道	-999
用力	-1000
而已	-1001
走出	-1002
铁木	-1003
露出	-1004
一点	-1005
剑招	-1006
说的	-1007
对他	-1008
寻常	-1009
又惊	-1010
骂道	-1011
全然	-1012
说来	-1013
干什么	-1014
不去	-1015
这番	-1016
朱聪	-1017
这次	-1018
之色	-1019
大吃一惊	-1020
明明	-1021
给她	-1022
进去	-1023
不败	-1024
之情	-1025
若不	-1026
若不是	-1027
大为	-1028
我就	-1029
一剑	-1030
走进	-1031
只好	-1032
叫你	-1033
武士	-1034
闪避	-1035
五人	-1036
定要	-1037
而行	-1038
中间	-1039
你也	-1040
僧人	-1041
抵挡	-1042
绿萼	-1043
说过	-1044
道士	-1045
▁岳不群	-1046
主意	-1047
剑谱	-1048
▁小龙女	-1049
一张	-1050
你可	-1051
保定	-1052
冲虚	-1053
地里	-1054
有了	-1055
石壁	-1056
完颜洪烈	-1057
一见	-1058
剑尖	-1059
▁乔峰	-1060
保定帝	-1061
说到这里	-1062
金花婆婆	-1063
害怕	-1064
岂知	-1065
点头道	-1066
烟客	-1067
若非	-1068
门外	-1069
谢烟客	-1070
主人	-1071
然而	-1072
重阳	-1073
是在	-1074
顽童	-1075
这件事	-1076
一句	-1077
一块	-1078
八道	-1079
对我	-1080
老头	-1081
一眼	-1082
之心	-1083
了三	-1084
纵然	-1085
又惊又	-1086
下手	-1087
大汉	-1088
岂能	-1089
接过	-1090
那姓	-1091
和我	-1092
镖局	-1093
中人	-1094
念慈	-1095
数百	-1096
无礼	-1097
的功夫	-1098
穆念慈	-1099
众位	-1100
待得	-1101
才是	-1102
昆仑	-1103
罢了	-1104
辟邪	-1105
定然	-1106
将军	-1107
神雕	-1108
▁这一	-1109
丁不四	-1110
自行	-1111
起了	-1112
他在	-1113
将我	-1114
尼姑	-1115
房中	-1116
指着	-1117
真人	-1118
不多时	-1119
屠龙	-1120
心念	-1121
走近	-1122
想不到	-1123
铁木真	-1124
早就	-1125
闵柔	-1126
阿绣	-1127
一生	-1128
你别	-1129
时候	-1130
本门	-1131
九阴	-1132
以后	-1133
放心	-1134
乃是	-1135
瑛姑	-1136
生气	-1137
前面	-1138
顷刻	-1139
裘千尺	-1140
谷主	-1141
高僧	-1142
武当派	-1143
跟你说	-1144
这句话	-1145
马夫人	-1146
号令	-1147
害死	-1148
得意	-1149
怎会	-1150
一样	-1151
也就	-1152
回答	-1153
年轻	-1154
那女	-1155
桃谷六	-1156
担心	-1157
磕头	-1158
东方不败	-1159
胡说八道	-1160
了半	-1161
从此	-1162
到他	-1163
悄悄	-1164
当真是	-1165
这些人	-1166
我在	-1167
手上	-1168
的了	-1169
均想	-1170
恒山	-1171
意思	-1172
行事	-1173
全真教	-1174
不但	-1175
已经	-1176
看得	-1177
请你	-1178
还没	-1179
到得	-1180
吃了	-1181
这许多	-1182
何处	-1183
只盼	-1184
行礼	-1185
百姓	-1186
要紧	-1187
言道	-1188
霍都	-1189
一把	-1190
相距	-1191
让他	-1192
黑白	-1193
不久	-1194
不许	-1195
千万	-1196
呼吸	-1197
毒手	-1198
襄阳	-1199
无可	-1200
规矩	-1201
不定	-1202
颇有	-1203
▁赵敏	-1204
但觉	-1205
手足	-1206
正自	-1207
程英	-1208
嵩山派	-1209
▁只听得	-1210
不上	-1211
▁张翠山	-1212
桃谷六仙	-1213
动弹	-1214
十年	-1215
武三	-1216
的情	-1217
似是	-1218
既然	-1219
梨亭	-1220
▁郭襄	-1221
完颜康	-1222
氏兄弟	-1223
而起	-1224
了她	-1225
六人	-1226
朗声	-1227
那小	-1228
哼了一声	-1229
只因	-1230
段延庆	-1231
不绝	-1232
他说	-1233
低头	-1234
变化	-1235
阁下	-1236
殷梨亭	-1237
老顽童	-1238
便有	-1239
到处	-1240
回过	-1241
心意	-1242
手里	-1243
潇湘	-1244
等人	-1245
了下去	-1246
不知如何	-1247
一口	-1248
一言	-1249
小僧	-1250
是不	-1251
该当	-1252
小弟	-1253
相见	-1254
一一	-1255
也有	-1256
连连	-1257
突然之间	-1258
不自	-1259
便将	-1260
做了	-1261
嵩山	-1262
了一阵	-1263
?’	-1264
一指	-1265
三位	-1266
想来	-1267
施展	-1268
要杀	-1269
镖头	-1270
你瞧	-1271
然后	-1272
记得	-1273
银子	-1274
奔到	-1275
明知	-1276
老爷	-1277
青书	-1278
▁只见	-1279
令狐师兄	-1280
不明	-1281
便已	-1282
本派	-1283
祖师	-1284
心里	-1285
快快	-1286
着实	-1287
史婆婆	-1288
颤声道	-1289
他老人家	-1290
伤心	-1291
别说	-1292
接着	-1293
没法	-1294
相貌	-1295
眼中	-1296
万里	-1297
更无	-1298
此后	-1299
逃走	-1300
在一旁	-1301
右掌	-1302
幸好	-1303
永远	-1304
另有	-1305
客气	-1306
公孙止	-1307
”、	-1308
伤了	-1309
在旁	-1310
大半	-1311
恶人	-1312
惊呼	-1313
所以	-1314
故意	-1315
相斗	-1316
五岳剑	-1317
抱着	-1318
洞中	-1319
那便	-1320
那可	-1321
也不会	-1322
出口	-1323
别人	-1324
力气	-1325
周颠	-1326
好笑	-1327
拖雷	-1328
说起	-1329
险些	-1330
一团	-1331
不答	-1332
也都	-1333
六怪	-1334
右臂	-1335
在山	-1336
恩师	-1337
再来	-1338
固然	-1339
微笑	-1340
犹如	-1341
不足	-1342
你又	-1343
乌老大	-1344
段公子	-1345
公主	-1346
冠英	-1347
双眼	-1348
大厅	-1349
子道	-1350
尽皆	-1351
打狗	-1352
桌上	-1353
这老	-1354
▁阿紫	-1355
也不是	-1356
举起	-1357
处一	-1358
岱岩	-1359
干净	-1360
忘了	-1361
胡青	-1362
避开	-1363
耶律齐	-1364
半分	-1365
未免	-1366
身受	-1367
你师父	-1368
上山	-1369
徒儿	-1370
瞧得	-1371
苦头	-1372
要我	-1373
过儿	-1374
面目	-1375
又是一	-1376
情势	-1377
一下	-1378
初时	-1379
头发	-1380
极是	-1381
武艺	-1382
自在	-1383
遇到	-1384
▁周伯通	-1385
一听	-1386
人之	-1387
理会	-1388
脚下	-1389
颇为	-1390
胡青牛	-1391
不便	-1392
不着	-1393
两步	-1394
全是	-1395
定逸	-1396
已有	-1397
范遥	-1398
豪杰	-1399
连虎	-1400
刘正	-1401
匕首	-1402
喝酒	-1403
得知	-1404
掌法	-1405
精神	-1406
脾气	-1407
高强	-1408
刘正风	-1409
宋青书	-1410
一定	-1411
传授	-1412
傻姑	-1413
大石	-1414
待我	-1415
诧异	-1416
你怎么	-1417
彭连虎	-1418
陆冠英	-1419
传来	-1420
凌厉	-1421
到来	-1422
小可	-1423
已是	-1424
令人	-1425
千秋	-1426
双臂	-1427
将来	-1428
是了	-1429
梁子	-1430
疼痛	-1431
俞岱岩	-1432
青城派	-1433
不语	-1434
显得	-1435
衣袖	-1436
解开	-1437
远处	-1438
一番	-1439
一红	-1440
丛中	-1441
数丈	-1442
瞧去	-1443
众弟子	-1444
双足	-1445
夫妻	-1446
淡淡	-1447
老子	-1448
老衲	-1449
却不知	-1450
王夫人	-1451
的一声响	-1452
上乘	-1453
伯伯	-1454
凝神	-1455
十六	-1456
必是	-1457
转念	-1458
打狗棒	-1459
一切	-1460
中年	-1461
大宋	-1462
将这	-1463
心神	-1464
峨嵋派	-1465
向她	-1466
我来	-1467
用意	-1468
他二人	-1469
九阴真经	-1470
上下	-1471
向西	-1472
喜道	-1473
快步	-1474
都已	-1475
但听得	-1476
古墓	-1477
圈子	-1478
的名	-1479
笔翁	-1480
而死	-1481
一场	-1482
与他	-1483
虽是	-1484
非同	-1485
黑衣	-1486
一日	-1487
一根	-1488
不怕	-1489
单刀	-1490
放下	-1491
海石	-1492
光闪	-1493
冷笑	-1494
双方	-1495
抬起	-1496
此言	-1497
破绽	-1498
莫非	-1499
你爹爹	-1500
潇湘子	-1501
何等	-1502
修习	-1503
君子	-1504
在后	-1505
奶奶	-1506
杨铁	-1507
自当	-1508
至于	-1509
有甚么	-1510
韦一笑	-1511
便在此时	-1512
伤口	-1513
嘻嘻	-1514
声中	-1515
她们	-1516
并肩	-1517
拔出	-1518
林中	-1519
脑袋	-1520
决不能	-1521
只见他	-1522
贝海石	-1523
云中	-1524
天鹰	-1525
客店	-1526
正好	-1527
绝技	-1528
谷中	-1529
四名	-1530
太冲	-1531
无数	-1532
设法	-1533
你再	-1534
力道	-1535
反手	-1536
见识	-1537
何太冲	-1538
属下	-1539
当世	-1540
比之	-1541
”、“	-1542
这一掌	-1543
哈哈一笑	-1544
一件	-1545
忽地	-1546
▁欧阳锋	-1547
冷冷地道	-1548
也要	-1549
二娘	-1550
身材	-1551
高明	-1552
朗声道	-1553
你就	-1554
应道	-1555
断了	-1556
本教	-1557
甚为	-1558
识得	-1559
人道	-1560
大了	-1561
岛上	-1562
摇了	-1563
震南	-1564
在自己	-1565
师兄弟	-1566
▁令狐冲道	-1567
又问	-1568
已将	-1569
运气	-1570
却也不	-1571
屠龙刀	-1572
林震南	-1573
英雄好汉	-1574
不懂	-1575
不说	-1576
之地	-1577
伤势	-1578
成昆	-1579
有点	-1580
这话	-1581
王处一	-1582
这一次	-1583
去找	-1584
圣火	-1585
家伙	-1586
山上	-1587
左臂	-1588
摔倒	-1589
日子	-1590
胡子	-1591
清楚楚	-1592
清清楚楚	-1593
不觉	-1594
凶险	-1595
岂不	-1596
衣服	-1597
长乐	-1598
门户	-1599
那少年	-1600
不悔	-1601
之言	-1602
全力	-1603
奔出	-1604
望去	-1605
每一	-1606
毒物	-1607
蛛儿	-1608
风波	-1609
一口气	-1610
原来是	-1611
转头向	-1612
你想	-1613
呼呼	-1614
太过	-1615
好手	-1616
晓芙	-1617
竟会	-1618
武三通	-1619
▁慕容复	-1620
以致	-1621
剧毒	-1622
我又	-1623
数日	-1624
最好	-1625
率领	-1626
相交	-1627
铁掌	-1628
马钰	-1629
天鹰教	-1630
三招	-1631
下马	-1632
不死	-1633
发觉	-1634
尼摩	-1635
敌手	-1636
玄慈	-1637
直到	-1638
练功	-1639
五岳剑派	-1640
几步	-1641
小说	-1642
德诺	-1643
拂尘	-1644
大丈夫	-1645
有余	-1646
有所	-1647
玄难	-1648
长乐帮	-1649
坐下	-1650
得好	-1651
怀里	-1652
是要	-1653
七人	-1654
不断	-1655
年前	-1656
并未	-1657
有时	-1658
而下	-1659
云中鹤	-1660
的弟子	-1661
▁洪七公	-1662
过了一会	-1663
非同小可	-1664
两只	-1665
二哥	-1666
修文	-1667
深厚	-1668
种种	-1669
而且	-1670
自知	-1671
▁盈盈	-1672
使出	-1673
十五	-1674
性子	-1675
旁观	-1676
身穿	-1677
▁忽听得	-1678
待要	-1679
真正	-1680
表哥	-1681
身在	-1682
输了	-1683
门派	-1684
劳德诺	-1685
过不多时	-1686
中有	-1687
之法	-1688
天石	-1689
奈何	-1690
恭敬	-1691
盟主	-1692
自幼	-1693
道理	-1694
门口	-1695
住他	-1696
你快	-1697
凌波	-1698
司马	-1699
大爷	-1700
尚有	-1701
本领	-1702
神剑	-1703
而上	-1704
随手	-1705
高人	-1706
高兴	-1707
危急	-1708
发作	-1709
好人	-1710
手法	-1711
毕竟	-1712
毫不	-1713
男女	-1714
巴天石	-1715
武修文	-1716
▁黄药师	-1717
慕容公子	-1718
也无	-1719
于他	-1720
口道	-1721
女人	-1722
时分	-1723
站着	-1724
远桥	-1725
▁阿朱	-1726
尼摩星	-1727
纪晓芙	-1728
这么说	-1729
那婆婆	-1730
靖哥哥	-1731
不想	-1732
之内	-1733
向外	-1734
念头	-1735
西域	-1736
跟随	-1737
中所	-1738
官兵	-1739
擒拿	-1740
教众	-1741
来啦	-1742
跃上	-1743
王姑娘	-1744
不信	-1745
便可	-1746
便能	-1747
出言	-1748
不易	-1749
俯身	-1750
几句	-1751
出家	-1752
心惊	-1753
忽听	-1754
有如	-1755
的老	-1756
难过	-1757
不出来	-1758
岂不是	-1759
▁王语嫣	-1760
一晃	-1761
你在	-1762
十多	-1763
圆真	-1764
大大	-1765
宝刀	-1766
干吗	-1767
了过来	-1768
另一个	-1769
圣火令	-1770
这两个	-1771
外人	-1772
威力	-1773
海中	-1774
宋远桥	-1775
梁子翁	-1776
接连	-1777
无声	-1778
有脚	-1779
玉女	-1780
留下	-1781
绝情	-1782
从怀中	-1783
大理国	-1784
杨铁心	-1785
朗声说道	-1786
万仇	-1787
不戒	-1788
出神	-1789
着她	-1790
秋水	-1791
经过	-1792
美貌	-1793
九阳	-1794
从前	-1795
出声	-1796
当当	-1797
得住	-1798
找到	-1799
波斯	-1800
竹棒	-1801
脱身	-1802
什么事	-1803
鲁有脚	-1804
摇了摇头	-1805
两声	-1806
却见	-1807
原是	-1808
妙极	-1809
必定	-1810
成为	-1811
抬头	-1812
认得	-1813
这就	-1814
了不起	-1815
之一	-1816
内劲	-1817
剑术	-1818
后心	-1819
四字	-1820
洪基	-1821
的那	-1822
经脉	-1823
走去	-1824
鹿杖	-1825
▁仪琳	-1826
丁不三	-1827
老前辈	-1828
钟万仇	-1829
之士	-1830
书生	-1831
婴儿	-1832
容貌	-1833
左足	-1834
我瞧	-1835
欺侮	-1836
还能	-1837
》,	-1838
丹臣	-1839
以及	-1840
心上	-1841
忽见	-1842
讯息	-1843
话来	-1844
通天	-1845
叶二娘	-1846
不停	-1847
不平	-1848
个人	-1849
丫头	-1850
便向	-1851
便宜	-1852
说不得	-1853
一行	-1854
克西	-1855
再加	-1856
刀法	-1857
哪一	-1858
往往	-1859
救人	-1860
杀我	-1861
顺手	-1862
▁谢逊	-1863
呆呆	-1864
寺中	-1865
牢牢	-1866
疑心	-1867
落地	-1868
尹克西	-1869
朱丹臣	-1870
岳灵珊道	-1871
一柄	-1872
剧痛	-1873
娃娃	-1874
定了	-1875
暗自	-1876
法门	-1877
▁原来	-1878
那女子	-1879
▁那少女	-1880
为他	-1881
华筝	-1882
在你	-1883
在大	-1884
尸身	-1885
推开	-1886
被他	-1887
到哪里	-1888
了去	-1889
仪和	-1890
你还	-1891
小腹	-1892
我没	-1893
无量	-1894
了几下	-1895
从来没	-1896
如何能	-1897
向左	-1898
喀喇	-1899
本帮	-1900
纵马	-1901
身法	-1902
一句话	-1903
风波恶	-1904
鹿杖客	-1905
休息	-1906
凝视	-1907
子柳	-1908
红马	-1909
要他	-1910
那位	-1911
动弹不得	-1912
回过头来	-1913
叫声	-1914
坐着	-1915
察看	-1916
抢上	-1917
料到	-1918
极为	-1919
要你	-1920
要害	-1921
这可	-1922
望了一眼	-1923
伤人	-1924
倒是	-1925
她是	-1926
屋顶	-1927
展开	-1928
惊道	-1929
派人	-1930
离开	-1931
高峰	-1932
武氏兄弟	-1933
不来	-1934
中土	-1935
但若	-1936
双剑	-1937
同门	-1938
天正	-1939
开口	-1940
我想	-1941
诸般	-1942
退开	-1943
朱子柳	-1944
蓦地里	-1945
▁林平之	-1946
心知	-1947
眼下	-1948
陆大有	-1949
一来	-1950
一百	-1951
交给	-1952
修为	-1953
而至	-1954
行走	-1955
李秋水	-1956
殷天正	-1957
的所在	-1958
使的	-1959
大名	-1960
少侠	-1961
不自禁	-1962
伸手去	-1963
的人物	-1964
轻轻一	-1965
一灯大师	-1966
心念一动	-1967
半空	-1968
声大	-1969
带着	-1970
平时	-1971
无耻	-1972
没了	-1973
相互	-1974
眉头	-1975
莫大	-1976
逍遥	-1977
▁石清	-1978
我也不	-1979
老叫化	-1980
亲眼	-1981
家的	-1982
赶到	-1983
但见他	-1984
丹青	-1985
内息	-1986
嗤嗤	-1987
必有	-1988
招式	-1989
毒药	-1990
联手	-1991
足道	-1992
决不会	-1993
这一剑	-1994
砰的一声	-1995
!’	-1996
友谅	-1997
和她	-1998
四大	-1999
尽是	-2000
帮众	-2001
怎生	-2002
无力	-2003
觉远	-2004
跃出	-2005
将出来	-2006
了么	-2007
四位	-2008
师徒	-2009
往他	-2010
打开	-2011
无所	-2012
月光	-2013
汉人	-2014
相对	-2015
二十余	-2016
你自己	-2017
取出一	-2018
的一响	-2019
蒙古兵	-2020
姑苏	-2021
落下	-2022
语气	-2023
踏步	-2024
陈友谅	-2025
黑白子	-2026
一挥	-2027
不下	-2028
之位	-2029
你既	-2030
倚天	-2031
定静	-2032
来得	-2033
转眼	-2034
将下来	-2035
干么	-2036
施主	-2037
王府	-2038
迅捷	-2039
铁杖	-2040
了一顿	-2041
杨不悔	-2042
个字	-2043
使得	-2044
呆了	-2045
喝彩	-2046
委实	-2047
微一	-2048
思索	-2049
拱手	-2050
来历	-2051
然间	-2052
着了	-2053
魔头	-2054
契丹人	-2055
一次	-2056
丹田	-2057
之道	-2058
小莹	-2059
惜弱	-2060
朱长	-2061
物事	-2062
空智	-2063
通红	-2064
光明顶	-2065
两条	-2066
亲自	-2067
仍然	-2068
去向	-2069
各自	-2070
四十	-2071
均是	-2072
开眼	-2073
怒气	-2074
泪水	-2075
这种	-2076
飞出	-2077
朱长龄	-2078
韩小莹	-2079
之物	-2080
但想	-2081
后面	-2082
杀他	-2083
松树	-2084
狼狈	-2085
百川	-2086
竟没	-2087
精妙	-2088
谁都	-2089
追赶	-2090
个时辰	-2091
包惜弱	-2092
祖千秋	-2093
虚竹道	-2094
小龙女道	-2095
今晚	-2096
假装	-2097
另一	-2098
平平	-2099
惭愧	-2100
拍手	-2101
说完	-2102
赵钱	-2103
金国	-2104
出来的	-2105
哪一个	-2106
得罪了	-2107
柔声道	-2108
见到了	-2109
又惊又喜	-2110
耶律洪基	-2111
身受重伤	-2112
转过身来	-2113
一呆	-2114
中毒	-2115
只想	-2116
暗想	-2117
灵鹫	-2118
也未必	-2119
为师	-2120
侧身	-2121
另外	-2122
城中	-2123
大是	-2124
拳法	-2125
挣扎	-2126
数招	-2127
群丐	-2128
跪下	-2129
躲在	-2130
运劲	-2131
钢杖	-2132
赵钱孙	-2133
▁木婉清	-2134
一刀	-2135
仰天	-2136
北方	-2137
得上	-2138
总算	-2139
感到	-2140
眼泪	-2141
跃开	-2142
倒在地	-2143
▁丘处机	-2144
不该	-2145
对她	-2146
将那	-2147
抱拳	-2148
拉着	-2149
挺剑	-2150
的心	-2151
身份	-2152
五岳派	-2153
孙婆婆	-2154
那人道	-2155
▁李莫愁	-2156
于我	-2157
几乎	-2158
出现	-2159
双腿	-2160
向我	-2161
哪有	-2162
布袋	-2163
脱手	-2164
到后来	-2165
没想到	-2166
呼叫	-2167
四周	-2168
长的	-2169
鞑子	-2170
厉声道	-2171
石破天道	-2172
不识	-2173
之辈	-2174
偏偏	-2175
前后	-2176
围攻	-2177
天色	-2178
好处	-2179
宝驹	-2180
山洞	-2181
无异	-2182
看时	-2183
糊涂	-2184
老僧	-2185
见那	-2186
通海	-2187
风声	-2188
丹青生	-2189
木高峰	-2190
韩宝驹	-2191
霎时之间	-2192
几下	-2193
向那	-2194
对你	-2195
日月	-2196
有此	-2197
过得	-2198
连声	-2199
铁链	-2200
在这儿	-2201
沙通天	-2202
又有什么	-2203
六位	-2204
大树	-2205
急道	-2206
打死	-2207
格格	-2208
焦急	-2209
练成	-2210
送了	-2211
逼得	-2212
遇春	-2213
额头	-2214
▁郭芙	-2215
一人道	-2216
倒也不	-2217
白自在	-2218
邓百川	-2219
霎时间	-2220
▁段正淳	-2221
▁黄蓉道	-2222
或许	-2223
火把	-2224
老婆	-2225
让我	-2226
路上	-2227
金刚	-2228
与郭靖	-2229
侯通海	-2230
四下里	-2231
好不好	-2232
抓住了	-2233
片刻间	-2234
说不出的	-2235
之所	-2236
余人	-2237
六脉	-2238
势必	-2239
外面	-2240
救我	-2241
既是	-2242
松溪	-2243
镇南	-2244
太师父	-2245
你我	-2246
刀剑	-2247
刺去	-2248
变色	-2249
听着	-2250
咱俩	-2251
安排	-2252
开来	-2253
得过	-2254
意料	-2255
支持	-2256
无穷	-2257
星河	-2258
生的	-2259
空闻	-2260
续道	-2261
落在	-2262
跟她	-2263
闻到	-2264
常遇春	-2265
慕容博	-2266
决意	-2267
听见	-2268
好啊	-2269
打了	-2270
拾起	-2271
王子	-2272
腿上	-2273
请教	-2274
贫道	-2275
降龙	-2276
黄老	-2277
为甚么	-2278
也不用	-2279
女弟子	-2280
徐长老	-2281
的模样	-2282
他又	-2283
天地	-2284
姊夫	-2285
崆峒	-2286
忽必	-2287
慈恩	-2288
石中	-2289
耳中	-2290
诡计	-2291
达尔	-2292
都大	-2293
一个个	-2294
只见她	-2295
一翁	-2296
一顿	-2297
你来	-2298
姓名	-2299
已在	-2300
待会	-2301
想要	-2302
罗汉	-2303
若有	-2304
要去	-2305
长叹	-2306
门人	-2307
忽必烈	-2308
恭恭敬	-2309
灵鹫宫	-2310
恭恭敬敬	-2311
放在心上	-2312
不发	-2313
便了	-2314
剑柄	-2315
大夫	-2316
已久	-2317
恼怒	-2318
有几	-2319
没人	-2320
菩萨	-2321
见这	-2322
那边	-2323
苏星河	-2324
▁任我行	-2325
定静师太	-2326
不胜	-2327
之势	-2328
事情	-2329
五个	-2330
先行	-2331
好意	-2332
才好	-2333
正中	-2334
狠狠	-2335
筋斗	-2336
不相同	-2337
在哪里	-2338
张松溪	-2339
达尔巴	-2340
不大	-2341
不顾	-2342
之命	-2343
也必	-2344
二来	-2345
人影	-2346
任何	-2347
你怎	-2348
免得	-2349
出招	-2350
抱起	-2351
知她	-2352
领教	-2353
何足道	-2354
不像	-2355
了些	-2356
互相	-2357
你了	-2358
向北	-2359
岩石	-2360
招架	-2361
方能	-2362
火焰	-2363
绝无	-2364
走向	-2365
张教主	-2366
一座	-2367
一派	-2368
一震	-2369
下面	-2370
但这	-2371
便想	-2372
勉强	-2373
对头	-2374
挥出	-2375
晃动	-2376
有意	-2377
殷离	-2378
经书	-2379
星宿派	-2380
三哥	-2381
倒退	-2382
对准	-2383
想是	-2384
摇晃	-2385
暗算	-2386
桃根	-2387
看到	-2388
神态	-2389
骇然	-2390
小姑娘	-2391
那老者	-2392
黄老邪	-2393
六脉神剑	-2394
下一	-2395
侠客	-2396
便去	-2397
其后	-2398
娘子	-2399
室中	-2400
床上	-2401
次日	-2402
而过	-2403
说他	-2404
迟疑	-2405
食指	-2406
岳先生	-2407
樊一翁	-2408
的剑法	-2409
群弟子	-2410
顷刻间	-2411
抬起头来	-2412
匹马	-2413
君宝	-2414
声势	-2415
大法	-2416
扶起	-2417
眼色	-2418
神仙	-2419
肚子	-2420
走上	-2421
慕容氏	-2422
在江湖上	-2423
天下第一	-2424
不行	-2425
临安	-2426
咽喉	-2427
定闲	-2428
就在	-2429
拳脚	-2430
放开	-2431
无论	-2432
服侍	-2433
桃枝	-2434
衡山	-2435
醒转	-2436
青袍	-2437
马蹄	-2438
不敢再	-2439
完颜萍	-2440
对自己	-2441
的内力	-2442
之旁	-2443
你便	-2444
侄儿	-2445
名叫	-2446
呼喝	-2447
有趣	-2448
沉沉	-2449
父子	-2450
相会	-2451
算是	-2452
葫芦	-2453
还手	-2454
还道	-2455
问你	-2456
难得	-2457
了一口	-2458
三字	-2459
不作	-2460
不小	-2461
不管	-2462
取胜	-2463
着地	-2464
舌头	-2465
试试	-2466
遇上	-2467
难当	-2468
丝毫不	-2469
人人都	-2470
可不是	-2471
大小姐	-2472
石中玉	-2473
大声叫道	-2474
方证大师	-2475
不服	-2476
两字	-2477
之徒	-2478
刷刷	-2479
合十	-2480
向东	-2481
妇人	-2482
宁可	-2483
敏君	-2484
紧紧	-2485
自称	-2486
七十二	-2487
他武功	-2488
立时便	-2489
▁周芷若	-2490
打狗棒法	-2491
上官	-2492
中一	-2493
八九	-2494
再好	-2495
出门	-2496
半截	-2497
变成	-2498
打个	-2499
是何	-2500
深深	-2501
笑容	-2502
经文	-2503
脸颊	-2504
说我	-2505
还礼	-2506
星宿老	-2507
鹤笔翁	-2508
辟邪剑法	-2509
上所	-2510
不多	-2511
你若	-2512
反正	-2513
威名	-2514
抱住	-2515
救命	-2516
方位	-2517
犹似	-2518
耳边	-2519
衣襟	-2520
走吧	-2521
阳指	-2522
青年	-2523
飞身	-2524
丁敏君	-2525
倚天剑	-2526
大大的	-2527
,”	-2528
他虽	-2529
但她	-2530
你先	-2531
大王	-2532
慈悲	-2533
拿起	-2534
气息	-2535
热闹	-2536
素来	-2537
纵声	-2538
越是	-2539
飘飘	-2540
天下英雄	-2541
▁张无忌道	-2542
万分	-2543
且慢	-2544
今后	-2545
便知	-2546
喃喃	-2547
心事	-2548
泰山	-2549
翻身	-2550
身手	-2551
不能再	-2552
任教主	-2553
老毒物	-2554
乱跳	-2555
乾坤	-2556
交集	-2557
人众	-2558
以来	-2559
卑鄙	-2560
和你	-2561
坐骑	-2562
未曾	-2563
金刀	-2564
蒙古人	-2565
意料之外	-2566
无论如何	-2567
片刻之间	-2568
辟邪剑谱	-2569
▁又	-2570
一家	-2571
一看	-2572
侠义	-2573
大胆	-2574
忍耐	-2575
拜见	-2576
无意	-2577
明日	-2578
留情	-2579
皇太	-2580
竟不	-2581
答话	-2582
落入	-2583
语音	-2584
诸人	-2585
进了	-2586
迷糊	-2587
鼻子	-2588
十余丈	-2589
张君宝	-2590
脸上一红	-2591
莫大先生	-2592
不解	-2593
二老	-2594
便似	-2595
全冠	-2596
判官	-2597
右足	-2598
张口	-2599
树枝	-2600
死不	-2601
每日	-2602
沉重	-2603
轻响	-2604
高声	-2605
龙头	-2606
了一步	-2607
全冠清	-2608
又不是	-2609
老头子	-2610
黄蓉笑道	-2611
伏在	-2612
忽道	-2613
急奔	-2614
我只	-2615
打架	-2616
故事	-2617
真相	-2618
重大	-2619
数十年	-2620
知道了	-2621
▁便在此时	-2622
之余	-2623
也只	-2624
出于	-2625
去吧	-2626
司空	-2627
声息	-2628
已极	-2629
已知	-2630
时刻	-2631
本已	-2632
毒蛇	-2633
神医	-2634
绝顶	-2635
胡闹	-2636
般的	-2637
船上	-2638
赶来	-2639
过的	-2640
与黄蓉	-2641
大踏步	-2642
心中一凛	-2643
武功高强	-2644
一些	-2645
不休	-2646
他不	-2647
便走	-2648
北斗	-2649
可就	-2650
可说	-2651
尴尬	-2652
恶贼	-2653
情花	-2654
我再	-2655
昨晚	-2656
杂种	-2657
绳索	-2658
胖子	-2659
迅速	-2660
▁过了	-2661
▁那人	-2662
也不过	-2663
对不起	-2664
我不是	-2665
的女子	-2666
的言语	-2667
▁向问天	-2668
不意	-2669
不轻	-2670
五指	-2671
以免	-2672
几次	-2673
可怜	-2674
才道	-2675
死在	-2676
猛地	-2677
畜生	-2678
西毒	-2679
他心中	-2680
的名字	-2681
起身来	-2682
这孩子	-2683
中国	-2684
从他	-2685
他自	-2686
他见	-2687
你没	-2688
四肢	-2689
大门	-2690
太阳	-2691
奔去	-2692
将你	-2693
怔怔	-2694
我若	-2695
才知	-2696
拔剑	-2697
掌心	-2698
甚多	-2699
若无	-2700
不明白	-2701
半空中	-2702
多半是	-2703
怎么办	-2704
黑暗中	-2705
不尽	-2706
举手	-2707
公冶	-2708
好看	-2709
尸体	-2710
左首	-2711
细细	-2712
继续	-2713
走开	-2714
较量	-2715
道上	-2716
全真派	-2717
哪一位	-2718
自然是	-2719
几时	-2720
各处	-2721
壁上	-2722
左肩	-2723
已被	-2724
师门	-2725
强敌	-2726
手持	-2727
暂且	-2728
破了	-2729
站立	-2730
终身	-2731
请问	-2732
下落	-2733
却没	-2734
只剩	-2735
已给	-2736
我先	-2737
手脚	-2738
数里	-2739
男人	-2740
瞧他	-2741
碰到	-2742
离去	-2743
胜败	-2744
走得	-2745
这场	-2746
这门	-2747
面子	-2748
他们的	-2749
在空中	-2750
赵姑娘	-2751
公孙谷主	-2752
一闪	-2753
三分	-2754
不听	-2755
不算	-2756
不通	-2757
今天	-2758
你有	-2759
动静	-2760
十三	-2761
叫人	-2762
她一	-2763
察觉	-2764
文字	-2765
死的	-2766
白衣	-2767
窗外	-2768
老人	-2769
耳朵	-2770
苦苦	-2771
达摩	-2772
还在	-2773
黄钟	-2774
一会儿	-2775
▁鸠摩智	-2776
偷袭	-2777
向上	-2778
向着	-2779
天竺	-2780
女郎	-2781
好啦	-2782
心法	-2783
无色	-2784
段氏	-2785
毙命	-2786
玄冥	-2787
缓步	-2788
随着	-2789
将过来	-2790
老爷子	-2791
一瞥	-2792
不忍	-2793
不致	-2794
人多	-2795
令他	-2796
便欲	-2797
原本	-2798
又怎	-2799
惊惶	-2800
所未	-2801
折断	-2802
招呼	-2803
李四	-2804
治伤	-2805
牙齿	-2806
皱眉	-2807
短剑	-2808
程瑶	-2809
要将	-2810
阴毒	-2811
只可惜	-2812
小王爷	-2813
就是了	-2814
都大锦	-2815
黄钟公	-2816
一个女子	-2817
不妙	-2818
不等	-2819
世间	-2820
为我	-2821
又已	-2822
头颈	-2823
奋力	-2824
学得	-2825
学武	-2826
山峰	-2827
忌惮	-2828
戒律	-2829
抵御	-2830
红棉	-2831
软鞭	-2832
小兄弟	-2833
根手指	-2834
程瑶迦	-2835
自然而	-2836
啪的一声	-2837
一颗	-2838
三名	-2839
上面	-2840
之术	-2841
人所	-2842
加害	-2843
合力	-2844
咳嗽	-2845
喝了	-2846
大出	-2847
学会	-2848
怦怦	-2849
怪异	-2850
情景	-2851
我才	-2852
提防	-2853
救了	-2854
晚上	-2855
朱九	-2856
过招	-2857
还要	-2858
▁当下	-2859
周姑娘	-2860
之气	-2861
事先	-2862
伯父	-2863
匆匆	-2864
商议	-2865
得我	-2866
找寻	-2867
是非	-2868
曾听	-2869
杀的	-2870
极大	-2871
渔网	-2872
的遗	-2873
眉僧	-2874
瞧出	-2875
自尽	-2876
船头	-2877
表妹	-2878
都有	-2879
金兵	-2880
隔了	-2881
▁法王	-2882
可不能	-2883
的性命	-2884
瞧了一眼	-2885
脚步声响	-2886
你如	-2887
哲别	-2888
待他	-2889
快走	-2890
死人	-2891
竟有	-2892
糟糕	-2893
胜过	-2894
观看	-2895
这事	-2896
逝世	-2897
银针	-2898
闪电	-2899
丐帮的	-2900
少林僧	-2901
薛神医	-2902
赵敏道	-2903
自然而然	-2904
依言	-2905
光佐	-2906
内心	-2907
剑士	-2908
十九	-2909
又将	-2910
吐露	-2911
小妹	-2912
干系	-2913
心思	-2914
成亲	-2915
掠过	-2916
掷出	-2917
狮王	-2918
相似	-2919
盼望	-2920
瞧在	-2921
第四	-2922
自主	-2923
长矛	-2924
得多了	-2925
跟我说	-2926
钟夫人	-2927
马光佐	-2928
▁柯镇恶	-2929
顿了一顿	-2930
一出	-2931
一对	-2932
一身	-2933
三僧	-2934
不堪	-2935
二字	-2936
便请	-2937
凌霄	-2938
千里	-2939
司徒	-2940
商量	-2941
尸首	-2942
当先	-2943
得出	-2944
来去	-2945
生了	-2946
禅师	-2947
竭力	-2948
舵主	-2949
辈子	-2950
侠客岛	-2951
王重阳	-2952
。“	-2953
不安	-2954
傻蛋	-2955
内伤	-2956
再无	-2957
冲儿	-2958
几声	-2959
劲风	-2960
各派	-2961
吐蕃	-2962
啪啪	-2963
多年	-2964
大奇	-2965
大通	-2966
就要	-2967
张五	-2968
早知	-2969
玉蜂	-2970
眼里	-2971
稍有	-2972
辽国	-2973
这路	-2974
避过	-2975
里面	-2976
上一步	-2977
又何必	-2978
泰山派	-2979
神雕侠	-2980
阿紫道	-2981
你为什么	-2982
七怪	-2983
不打	-2984
也真	-2985
兵器	-2986
我有	-2987
所授	-2988
拉住	-2989
敦儒	-2990
来势	-2991
桃实	-2992
每人	-2993
深谷	-2994
狠辣	-2995
看了	-2996
着的	-2997
这三	-2998
高高	-2999
到底是	-3000
洪凌波	-3001
萧峰道	-3002
身上的	-3003
郝大通	-3004
令狐公子	-3005
二位	-3006
停步	-3007
六个	-3008
十来	-3009
所学	-3010
抢到	-3011
既已	-3012
智光	-3013
本想	-3014
水中	-3015
笑话	-3016
自来	-3017
铜牌	-3018
面相	-3019
黄金	-3020
乔帮主	-3021
十八掌	-3022
师父的	-3023
没什么	-3024
猛听得	-3025
蒙古军	-3026
洪七公道	-3027
不做	-3028
不妨	-3029
不清	-3030
临死	-3031
也得	-3032
再行	-3033
冷汗	-3034
又说	-3035
外号	-3036
妈的	-3037
小船	-3038
山谷	-3039
当地	-3040
打听	-3041
抓起	-3042
无一	-3043
桃干	-3044
独孤	-3045
百余	-3046
神僧	-3047
算得	-3048
纵横	-3049
自身	-3050
长大	-3051
震得	-3052
非也	-3053
飞舞	-3054
上前去	-3055
公子爷	-3056
哪里还	-3057
岁年纪	-3058
这时候	-3059
为你	-3060
仔细	-3061
佛门	-3062
写着	-3063
取过	-3064
在那	-3065
天德	-3066
好极	-3067
如果	-3068
安慰	-3069
带了	-3070
心情	-3071
挪移	-3072
教我	-3073
盘膝	-3074
神通	-3075
端端	-3076
老天	-3077
老夫	-3078
奶奶的	-3079
将自己	-3080
点点头	-3081
的长剑	-3082
老先生	-3083
这中间	-3084
▁史婆婆	-3085
不开	-3086
之至	-3087
了的	-3088
他知	-3089
他要	-3090
侧头	-3091
关心	-3092
化解	-3093
教你	-3094
数次	-3095
烦恼	-3096
生性	-3097
相信	-3098
而前	-3099
酒杯	-3100
▁群雄	-3101
些什么	-3102
见到他	-3103
说甚么	-3104
大叫一声	-3105
一想	-3106
乘机	-3107
仇人	-3108
出掌	-3109
双雕	-3110
发抖	-3111
居士	-3112
房门	-3113
温柔	-3114
等等	-3115
耳光	-3116
背影	-3117
踌躇	-3118
这套	-3119
这条	-3120
酸麻	-3121
金发	-3122
大和尚	-3123
杨大哥	-3124
笑嘻嘻	-3125
这少年	-3126
镇南王	-3127
陆庄主	-3128
▁欧阳克	-3129
嗤的一声	-3130
当的一声	-3131
七子	-3132
之手	-3133
之理	-3134
之计	-3135
你叫	-3136
刺出	-3137
又向	-3138
呛啷	-3139
大会	-3140
姊妹	-3141
屋中	-3142
插入	-3143
皇上	-3144
皇爷	-3145
胆敢	-3146
胜于	-3147
赞道	-3148
这姓	-3149
长须	-3150
门关	-3151
成一团	-3152
打了个	-3153
朱九真	-3154
武敦儒	-3155
石庄主	-3156
秦红棉	-3157
耳听得	-3158
丐帮帮主	-3159
一手	-3160
上风	-3161
以前	-3162
你倒	-3163
全神	-3164
又见	-3165
吃饭	-3166
咬牙	-3167
多端	-3168
大喝	-3169
小丐	-3170
小二	-3171
崖上	-3172
底下	-3173
执法	-3174
折磨	-3175
挥动	-3176
握住	-3177
散人	-3178
杀死	-3179
眼珠	-3180
而不	-3181
茫然	-3182
要想	-3183
!”“	-3184
一个大	-3185
了一条	-3186
干甚么	-3187
张真人	-3188
▁岳灵珊	-3189
不由自主	-3190
义气	-3191
他既	-3192
先后	-3193
又在	-3194
坏人	-3195
大功	-3196
大都	-3197
子弟	-3198
平安	-3199
快去	-3200
服了	-3201
本就	-3202
村女	-3203
痛得	-3204
瞧见	-3205
胸膛	-3206
轻易	-3207
送到	-3208
骑马	-3209
▁丁珰	-3210
了几个	-3211
全金发	-3212
店小二	-3213
武功虽	-3214
谁也不	-3215
遇上了	-3216
手中长剑	-3217
武林中的	-3218
▁但	-3219
一双	-3220
三弟	-3221
两截	-3222
交情	-3223
倾听	-3224
声色	-3225
天龙	-3226
好在	-3227
快活	-3228
打扮	-3229
提到	-3230
放了	-3231
机关	-3232
点儿	-3233
矮子	-3234
移动	-3235
空见	-3236
范蠡	-3237
贤弟	-3238
那一	-3239
问起	-3240
非烟	-3241
面上	-3242
黯然	-3243
柄长剑	-3244
没半点	-3245
盈盈道	-3246
苦头陀	-3247
那也不	-3248
世镜	-3249
人来	-3250
他想	-3251
又要	-3252
听来	-3253
忙问	-3254
手势	-3255
拍出	-3256
拚命	-3257
教他	-3258
教的	-3259
斜身	-3260
暗叫	-3261
真有	-3262
等一	-3263
肌肤	-3264
西北	-3265
雪山	-3266
马上	-3267
众兄弟	-3268
害死了	-3269
曲非烟	-3270
不敌	-3271
使者	-3272
便来	-3273
危险	-3274
厅上	-3275
发现	-3276
大骂	-3277
好的	-3278
得一	-3279
愕然	-3280
渔人	-3281
石上	-3282
秘笈	-3283
而后	-3284
让她	-3285
读者	-3286
阴阳	-3287
顺着	-3288
颈中	-3289
你不用	-3290
充满了	-3291
干净净	-3292
武功的	-3293
生死符	-3294
江南六怪	-3295
降龙十八掌	-3296
▁王	-3297
七侠	-3298
他为	-3299
他也	-3300
使剑	-3301
半夜	-3302
厉声	-3303
大变	-3304
天门	-3305
子穆	-3306
带头	-3307
当晚	-3308
恶斗	-3309
欢呼	-3310
约莫	-3311
道姑	-3312
我知道	-3313
林师弟	-3314
那女童	-3315
▁包不同	-3316
周伯通道	-3317
干干净净	-3318
晕了过去	-3319
那少女道	-3320
一拍	-3321
一道	-3322
伸指	-3323
使劲	-3324
决无	-3325
喉头	-3326
处处	-3327
客人	-3328
杀手	-3329
淋漓	-3330
让你	-3331
踉跄	-3332
这招	-3333
风清	-3334
了几句	-3335
公冶乾	-3336
武当山	-3337
的神色	-3338
见杨过	-3339
黄眉僧	-3340
少林派的	-3341
这位姑娘	-3342
不凡	-3343
侍剑	-3344
元璋	-3345
前去	-3346
向下	-3347
尽管	-3348
得你	-3349
手段	-3350
最多	-3351
而是	-3352
胸前	-3353
若要	-3354
驸马	-3355
三十六	-3356
心中却	-3357
段天德	-3358
沉吟道	-3359
白世镜	-3360
眼见他	-3361
阿朱道	-3362
想到此处	-3363
’。	-3364
不幸	-3365
乖乖	-3366
仪清	-3367
便会	-3368
冤枉	-3369
可怖	-3370
回身	-3371
好像	-3372
好玩	-3373
威风	-3374
张望	-3375
我已	-3376
打在	-3377
打败	-3378
拿着	-3379
挡架	-3380
树上	-3381
知觉	-3382
禀报	-3383
结交	-3384
绿竹	-3385
见我	-3386
长袍	-3387
闪身	-3388
向郭靖	-3389
朱元璋	-3390
跟他们	-3391
这番话	-3392
▁游坦之	-3393
▁郭靖道	-3394
满脸通红	-3395
一拳	-3396
从小	-3397
便不	-3398
倒了	-3399
六七	-3400
再去	-3401
又再	-3402
同去	-3403
团团	-3404
多说	-3405
子中	-3406
徒弟	-3407
杀你	-3408
消息	-3409
用的	-3410
石室	-3411
远了	-3412
退后	-3413
都说	-3414
一行人	-3415
但随即	-3416
司空玄	-3417
吓了一	-3418
然一笑	-3419
双膝	-3420
发足	-3421
回家	-3422
天山	-3423
少室	-3424
或是	-3425
打他	-3426
星竹	-3427
极高	-3428
置之	-3429
聚贤	-3430
询问	-3431
迎面	-3432
一个小	-3433
他性命	-3434
向自己	-3435
抓住他	-3436
定闲师太	-3437
一世	-3438
一带	-3439
一扬	-3440
一揖	-3441
丈许	-3442
上马	-3443
六大	-3444
剑锋	-3445
右肩	-3446
声谷	-3447
尽力	-3448
并没	-3449
开去	-3450
心肠	-3451
惊讶	-3452
打我	-3453
挥掌	-3454
火光	-3455
灵智	-3456
猜想	-3457
现身	-3458
生生	-3459
突觉	-3460
竟尔	-3461
笑了	-3462
笑声	-3463
老儿	-3464
自语	-3465
诸位	-3466
贱人	-3467
追来	-3468
郡主	-3469
▁杨逍	-3470
左子穆	-3471
睁开眼	-3472
石帮主	-3473
阮星竹	-3474
面相觑	-3475
风清扬	-3476
这么一来	-3477
面面相觑	-3478
一大	-3479
一跃	-3480
反击	-3481
只能	-3482
可别	-3483
号称	-3484
她在	-3485
安危	-3486
定会	-3487
对面	-3488
有理	-3489
朝廷	-3490
毒性	-3491
用心	-3492
神智	-3493
腹中	-3494
船舱	-3495
退出	-3496
与杨过	-3497
司马林	-3498
我自然	-3499
等三人	-3500
给他们	-3501
那也是	-3502
上人	-3503
两下	-3504
你到	-3505
几名	-3506
剑刃	-3507
半天	-3508
南山	-3509
只感	-3510
告知	-3511
山坡	-3512
岂有	-3513
恍然	-3514
情急	-3515
斜眼	-3516
无敌	-3517
有多	-3518
未能	-3519
热气	-3520
破解	-3521
禀告	-3522
索性	-3523
胡乱	-3524
舒服	-3525
踪迹	-3526
途中	-3527
剑法的	-3528
厉害的	-3529
我自己	-3530
莫声谷	-3531
不知去向	-3532
吓了一跳	-3533
定逸师太	-3534
说不出话来	-3535
于此	-3536
五行	-3537
亲兵	-3538
先师	-3539
共有	-3540
危难	-3541
大军	-3542
大呼	-3543
好心	-3544
左腿	-3545
我看	-3546
拆解	-3547
拇指	-3548
教训	-3549
相识	-3550
空手	-3551
谈论	-3552
这八	-3553
问我	-3554
阵法	-3555
除非	-3556
飞起	-3557
怎么会	-3558
料不到	-3559
狗杂种	-3560
▁张三丰	-3561
▁殷素素	-3562
不妥	-3563
各有	-3564
奔跑	-3565
好事	-3566
所说	-3567
昔日	-3568
比剑	-3569
比我	-3570
气恼	-3571
猴儿	-3572
秘密	-3573
站定	-3574
老三	-3575
胆子	-3576
色的	-3577
行动	-3578
认输	-3579
跃下	-3580
都要	-3581
闭目	-3582
面门	-3583
一阳指	-3584
太师叔	-3585
的尸身	-3586
▁白万剑	-3587
睁开眼来	-3588
一击	-3589
三步	-3590
与人	-3591
了吧	-3592
从中	-3593
倒转	-3594
关头	-3595
几天	-3596
十四	-3597
叫作	-3598
周身	-3599
太极	-3600
失了	-3601
女童	-3602
影子	-3603
挂念	-3604
掌教	-3605
推出	-3606
有谁	-3607
本是	-3608
甚高	-3609
红了	-3610
美人	-3611
观主	-3612
角上	-3613
起身	-3614
饮酒	-3615
也不肯	-3616
乾坤大	-3617
却哪里	-3618
变成了	-3619
这两人	-3620
▁杨过道	-3621
少林寺中	-3622
凤凰	-3623
去的	-3624
变招	-3625
叫苦	-3626
可真	-3627
同道	-3628
外公	-3629
大海	-3630
威震	-3631
岁的	-3632
崔百	-3633
帮中	-3634
惊叫	-3635
所见	-3636
收拾	-3637
教中	-3638
犯了	-3639
玄铁	-3640
甚好	-3641
而为	-3642
而立	-3643
聚会	-3644
胸中	-3645
良机	-3646
谭婆	-3647
都在	-3648
金银	-3649
铮铮	-3650
长春	-3651
靖儿	-3652
高举	-3653
黄衫	-3654
一路上	-3655
了一大	-3656
我二人	-3657
你老人家	-3658
大不相同	-3659
乾坤大挪移	-3660
▁正	-3661
一枚	-3662
乘马	-3663
传的	-3664
南希	-3665
叫她	-3666
均已	-3667
坏了	-3668
大感	-3669
奔驰	-3670
心经	-3671
情深	-3672
惊喜	-3673
折扇	-3674
抢着	-3675
挥剑	-3676
提气	-3677
方始	-3678
方生	-3679
无用	-3680
树干	-3681
此番	-3682
段郎	-3683
牛肉	-3684
田兄	-3685
的铁	-3686
空性	-3687
练到	-3688
见面	-3689
话说	-3690
说要	-3691
贵派	-3692
钦佩	-3693
随口	-3694
再加上	-3695
南希仁	-3696
可是我	-3697
向杨过	-3698
小红马	-3699
崔百泉	-3700
插口道	-3701
果然是	-3702
冷冷的道	-3703
义兄	-3704
便往	-3705
克制	-3706
出力	-3707
右腿	-3708
名的	-3709
嘉兴	-3710
嘴里	-3711
图形	-3712
在手	-3713
大人	-3714
女婿	-3715
学过	-3716
屁股	-3717
心愿	-3718
愤怒	-3719
我家	-3720
投降	-3721
擒住	-3722
时时	-3723
有关	-3724
横扫	-3725
点穴	-3726
着我	-3727
笑吟	-3728
苦练	-3729
说出	-3730
谭公	-3731
跪倒	-3732
远山	-3733
金毛	-3734
上官云	-3735
不得了	-3736
两银子	-3737
判官笔	-3738
地瞧着	-3739
将过去	-3740
的情景	-3741
这样的	-3742
迷糊糊	-3743
青袍客	-3744
迷迷糊糊	-3745
一事	-3746
一凛	-3747
不耐	-3748
他和	-3749
作为	-3750
依稀	-3751
入内	-3752
别的	-3753
化子	-3754
却仍	-3755
存心	-3756
定神	-3757
宝剑	-3758
很是	-3759
树林	-3760
毒辣	-3761
泄漏	-3762
知晓	-3763
纵跃	-3764
练剑	-3765
道路	-3766
那样	-3767
问他	-3768
风流	-3769
了不少	-3770
十余年	-3771
大师兄	-3772
来不及	-3773
模一样	-3774
躬身道	-3775
那大汉	-3776
▁岳夫人	-3777
▁南海鳄神	-3778
,‘	-3779
一沉	-3780
不二	-3781
不加	-3782
之类	-3783
于人	-3784
使力	-3785
医治	-3786
参与	-3787
双脚	-3788
口诀	-3789
告辞	-3790
回归	-3791
头脑	-3792
奥妙	-3793
好奇	-3794
岂非	-3795
当场	-3796
我了	-3797
所能	-3798
按住	-3799
无伦	-3800
有异	-3801
的脸	-3802
相抗	-3803
知是	-3804
老实	-3805
莹玉	-3806
还请	-3807
里的	-3808
随便	-3809
颤动	-3810
不是我	-3811
了上来	-3812
什么人	-3813
原来他	-3814
明白了	-3815
笑吟吟	-3816
谢逊道	-3817
▁田伯光	-3818
不动声色	-3819
张翠山道	-3820
林平之道	-3821
▁突然之间	-3822
一死	-3823
不虚	-3824
倏地	-3825
十天	-3826
却无	-3827
去啦	-3828
又不	-3829
发颤	-3830
叔叔	-3831
叫嚷	-3832
惊人	-3833
抚摸	-3834
抽出	-3835
杀得	-3836
来来	-3837
流下	-3838
玄寂	-3839
经历	-3840
迎接	-3841
酒楼	-3842
长笑	-3843
阴谋	-3844
隐居	-3845
骂我	-3846
不知他	-3847
彭莹玉	-3848
衡山派	-3849
那汉子	-3850
铁掌帮	-3851
▁那少年	-3852
▁马夫人	-3853
原来如此	-3854
金毛狮王	-3855
人心	-3856
使用	-3857
向南	-3858
呻吟	-3859
急速	-3860
手执	-3861
旁边	-3862
梦中	-3863
洋洋	-3864
洞口	-3865
瀑布	-3866
爸爸	-3867
留神	-3868
疗伤	-3869
石子	-3870
福威	-3871
竟也	-3872
肌肉	-3873
自有	-3874
越快	-3875
香主	-3876
了一下	-3877
余观主	-3878
处穴道	-3879
如此说	-3880
昆仑派	-3881
是甚么	-3882
每一招	-3883
如何是好	-3884
无可奈何	-3885
江南七怪	-3886
一碗	-3887
丁丁	-3888
两枚	-3889
之功	-3890
之毒	-3891
于你	-3892
伤害	-3893
保护	-3894
击出	-3895
到这	-3896
又来	-3897
可没	-3898
圣姑	-3899
地上	-3900
地来	-3901
庙中	-3902
得她	-3903
情意	-3904
所谓	-3905
摇手	-3906
救你	-3907
无恙	-3908
时日	-3909
本寺	-3910
每次	-3911
潇洒	-3912
竟似	-3913
蜈蚣	-3914
见你	-3915
话声	-3916
都道	-3917
陛下	-3918
静玄	-3919
默然	-3920
一颗心	-3921
不理会	-3922
了一遍	-3923
他自己	-3924
那日在	-3925
郭大侠	-3926
▁梅超风	-3927
▁段誉道	-3928
呼的一声	-3929
忍耐不住	-3930
令狐冲笑道	-3931
一头	-3932
七伤	-3933
临头	-3934
亲生	-3935
他便	-3936
传功	-3937
刀白	-3938
占了	-3939
双颊	-3940
呜呜	-3941
头去	-3942
好吧	-3943
已自	-3944
打量	-3945
挡在	-3946
掌风	-3947
放手	-3948
杨莲	-3949
滋味	-3950
的神	-3951
直至	-3952
眼望	-3953
紧急	-3954
蓦地	-3955
长气	-3956
不相识	-3957
凌霄城	-3958
十余人	-3959
好端端	-3960
始终没	-3961
姓大名	-3962
实在太	-3963
平一指	-3964
打死了	-3965
有多少	-3966
的穴道	-3967
萧远山	-3968
阳教主	-3969
一时之间	-3970
与小龙女	-3971
福威镖局	-3972
丈余	-3973
为她	-3974
之仇	-3975
伯母	-3976
你做	-3977
八名	-3978
再看	-3979
十倍	-3980
得着	-3981
指挥	-3982
无相	-3983
无辜	-3984
枯荣	-3985
泪来	-3986
浑厚	-3987
淑娴	-3988
热血	-3989
相顾	-3990
砰砰	-3991
美丽	-3992
老道	-3993
虽有	-3994
酸软	-3995
黑暗	-3996
▁此时	-3997
怪不得	-3998
有点儿	-3999
杨莲亭	-4000
班淑娴	-4001
的高手	-4002
那便是	-4003
▁俞莲舟	-4004
带头大哥	-4005
躬身行礼	-4006
这小姑娘	-4007
恭恭敬敬地	-4008
不中	-4009
不利	-4010
两块	-4011
为何	-4012
也难	-4013
五六	-4014
元兵	-4015
决非	-4016
动了	-4017
叫了	-4018
哭道	-4019
奇了	-4020
常人	-4021
弥陀	-4022
有甚	-4023
正想	-4024
死于	-4025
死尸	-4026
素知	-4027
纠缠	-4028
给了	-4029
而同	-4030
自从	-4031
赶去	-4032
陡然	-4033
隐瞒	-4034
黑夜	-4035
▁次日	-4036
始终不	-4037
张五侠	-4038
明明是	-4039
的掌力	-4040
老天爷	-4041
那女郎	-4042
郭伯伯	-4043
长老道	-4044
雁门关	-4045
九阳神功	-4046
也没什么	-4047
岳不群道	-4048
一举	-4049
不远	-4050
也会	-4051
但如	-4052
余下	-4053
你和	-4054
你把	-4055
八人	-4056
千百	-4057
又去	-4058
吆喝	-4059
向你	-4060
嘱咐	-4061
嘴巴	-4062
四面	-4063
均有	-4064
声名	-4065
大力	-4066
大德	-4067
奸贼	-4068
巧妙	-4069
当作	-4070
怪人	-4071
成功	-4072
我跟	-4073
扶着	-4074
放入	-4075
样子	-4076
比试	-4077
的金	-4078
西华	-4079
误会	-4080
贵帮	-4081
这部	-4082
不敢当	-4083
也没有	-4084
些甚么	-4085
伸出手	-4086
再也不	-4087
刀白凤	-4088
可是他	-4089
怒之下	-4090
我跟你	-4091
的法门	-4092
这二人	-4093
龙岛主	-4094
也没有了	-4095
向令狐冲	-4096
怦怦乱跳	-4097
木婉清道	-4098
武功了得	-4099
长叹一声	-4100
不让	-4101
二百	-4102
亲手	-4103
住口	-4104
你却	-4105
偷偷	-4106
名门	-4107
喜色	-4108
嗡嗡	-4109
大仇	-4110
大小	-4111
失手	-4112
如山	-4113
尚在	-4114
山下	-4115
师侄	-4116
当今	-4117
无施	-4118
照料	-4119
瞎子	-4120
练得	-4121
而言	-4122
西首	-4123
该死	-4124
踏上	-4125
龙门	-4126
了自己	-4127
他身子	-4128
光闪动	-4129
到这里	-4130
找不到	-4131
秃笔翁	-4132
计无施	-4133
▁谢烟客	-4134
我跟你说	-4135
顷刻之间	-4136
一转	-4137
一遍	-4138
为妻	-4139
之名	-4140
他对	-4141
以此	-4142
全没	-4143
凝目	-4144
几位	-4145
变故	-4146
在内	-4147
家人	-4148
帮手	-4149
情由	-4150
想必	-4151
我姓	-4152
拼命	-4153
攻击	-4154
敝帮	-4155
立足	-4156
而坐	-4157
要穴	-4158
起伏	-4159
运功	-4160
首领	-4161
七伤拳	-4162
了上去	-4163
了几声	-4164
了开去	-4165
你这般	-4166
的小子	-4167
第一个	-4168
蓝凤凰	-4169
还不是	-4170
那道人	-4171
▁陆无双	-4172
又惊又怒	-4173
一天	-4174
一年	-4175
一株	-4176
不够	-4177
不容	-4178
不已	-4179
世界	-4180
仗义	-4181
伸掌	-4182
但我	-4183
关怀	-4184
十招	-4185
参见	-4186
四五	-4187
大殿	-4188
害人	-4189
寒毒	-4190
对着	-4191
峰上	-4192
归于	-4193
形貌	-4194
快说	-4195
我却	-4196
抛下	-4197
数尺	-4198
无踪	-4199
洛阳	-4200
祖宗	-4201
背脊	-4202
藏在	-4203
计较	-4204
谁也	-4205
身畔	-4206
部属	-4207
非但	-4208
。”“	-4209
不见了	-4210
令狐兄	-4211
声大哭	-4212
约而同	-4213
那老妇	-4214
郭襄道	-4215
丐帮弟子	-4216
令狐掌门	-4217
心中一动	-4218
江湖上的	-4219
他已	-4220
任由	-4221
十几	-4222
向右	-4223
太多	-4224
失望	-4225
好歹	-4226
就只	-4227
慕华	-4228
揭开	-4229
数人	-4230
数千	-4231
无仇	-4232
火龙	-4233
爹娘	-4234
群僧	-4235
青衣	-4236
骗人	-4237
不要脸	-4238
不起来	-4239
人丛中	-4240
他妈的	-4241
又有何	-4242
只剩下	-4243
杀了他	-4244
绝情谷	-4245
袋弟子	-4246
这一来	-4247
从未见过	-4248
千万不可	-4249
半个时辰	-4250
旁观众人	-4251
石清夫妇	-4252
万人	-4253
也罢	-4254
他这	-4255
你好	-4256
保昆	-4257
傍晚	-4258
其意	-4259
凌空	-4260
出其	-4261
大头	-4262
大敌	-4263
失色	-4264
妖女	-4265
婆娘	-4266
宝贝	-4267
干人	-4268
平常	-4269
手来	-4270
接住	-4271
数月	-4272
方向	-4273
本因	-4274
杀害	-4275
极少	-4276
桑昆	-4277
死后	-4278
毫无	-4279
游迅	-4280
疾驰	-4281
看去	-4282
穿过	-4283
等到	-4284
群道	-4285
老是	-4286
脖子	-4287
自刎	-4288
贯注	-4289
贵妃	-4290
费彬	-4291
走罢	-4292
辛苦	-4293
这对	-4294
金针	-4295
▁眼见	-4296
不相干	-4297
不知是	-4298
听到了	-4299
大弟子	-4300
段皇爷	-4301
男子汉	-4302
的女儿	-4303
的身子	-4304
诸保昆	-4305
阿弥陀	-4306
华山派的	-4307
那也罢了	-4308
上有	-4309
东南	-4310
丹药	-4311
五派	-4312
他却	-4313
借力	-4314
公公	-4315
凶手	-4316
只待	-4317
只消	-4318
喜悦	-4319
堂中	-4320
她说	-4321
妹妹	-4322
学艺	-4323
宫中	-4324
少妇	-4325
心动	-4326
报答	-4327
招招	-4328
数步	-4329
无名	-4330
束手	-4331
杯酒	-4332
深湛	-4333
玫瑰	-4334
甘心	-4335
破口	-4336
礼物	-4337
箫声	-4338
膻中	-4339
自言	-4340
药物	-4341
袖手	-4342
两个人	-4343
什么都	-4344
从所未	-4345
十余招	-4346
大师父	-4347
总镖头	-4348
的名头	-4349
的汉子	-4350
谢大侠	-4351
一言不发	-4352
不约而同	-4353
全真七子	-4354
在他身上	-4355
放声大哭	-4356
此言一出	-4357
阿弥陀佛	-4358
一分	-4359
一副	-4360
与她	-4361
也非	-4362
会有	-4363
写的	-4364
呵呵	-4365
在意	-4366
地步	-4367
大祸	-4368
姿式	-4369
寒气	-4370
尊师	-4371
尺许	-4372
已无	-4373
应付	-4374
念及	-4375
斗得	-4376
日夜	-4377
晕去	-4378
月初	-4379
有心	-4380
模糊	-4381
满是	-4382
独自	-4383
白的	-4384
白雕	-4385
相干	-4386
瞎了	-4387
禅杖	-4388
称为	-4389
结义	-4390
要来	-4391
躺在	-4392
:“‘	-4393
▁方证	-4394
却听得	-4395
女孩儿	-4396
帮主的	-4397
我心中	-4398
的一个	-4399
的内功	-4400
那时候	-4401
▁丁春秋	-4402
任大小姐	-4403
向张无忌	-4404
还有什么	-4405
一心	-4406
不迟	-4407
两根	-4408
乞丐	-4409
传人	-4410
但在	-4411
使个	-4412
儿俩	-4413
冒充	-4414
军士	-4415
均知	-4416
天上	-4417
女的	-4418
帮会	-4419
当是	-4420
得起	-4421
我叫	-4422
我妈	-4423
打你	-4424
无能	-4425
梅庄	-4426
欲待	-4427
死去	-4428
清脆	-4429
猛力	-4430
留在	-4431
相遇	-4432
相隔	-4433
缥缈	-4434
老贼	-4435
脸如	-4436
茶花	-4437
莫怪	-4438
蝠王	-4439
身分	-4440
过人	-4441
那天	-4442
防备	-4443
难免	-4444
一般的	-4445
了进去	-4446
又怎能	-4447
只见那	-4448
史火龙	-4449
在手中	-4450
孙不二	-4451
常言道	-4452
彭和尚	-4453
我妈妈	-4454
皱眉道	-4455
祖师爷	-4456
苦大师	-4457
薛慕华	-4458
见郭靖	-4459
我不知道	-4460
谁也不敢	-4461
▁灭绝师太	-4462
一处	-4463
三年	-4464
下毒	-4465
九剑	-4466
亲热	-4467
但听	-4468
余地	-4469
作响	-4470
单是	-4471
可要	-4472
因为	-4473
宫女	-4474
就会	-4475
张开	-4476
怒目	-4477
恨恨	-4478
悬崖	-4479
我倒	-4480
所知	-4481
拿了	-4482
气得	-4483
活了	-4484
激动	-4485
相公	-4486
相同	-4487
竟能	-4488
而入	-4489
胡涂	-4490
胡言	-4491
能够	-4492
脱险	-4493
良心	-4494
艰难	-4495
范骅	-4496
荒山	-4497
虽在	-4498
血色	-4499
越好	-4500
铁枪	-4501
陪着	-4502
难保	-4503
一个是	-4504
不耐烦	-4505
也不必	-4506
他不得	-4507
你知道	-4508
受了伤	-4509
只是他	-4510
咱们便	-4511
哪知他	-4512
多时辰	-4513
月光下	-4514
石壁上	-4515
脚步声	-4516
转过了	-4517
这不是	-4518
龙姑娘	-4519
▁乌老大	-4520
手下留情	-4521
▁一	-4522
不似	-4523
不分	-4524
主持	-4525
令尊	-4526
依着	-4527
变幻	-4528
只一	-4529
可笑	-4530
叹息	-4531
哼哼	-4532
啸天	-4533
城外	-4534
如风	-4535
广陵	-4536
必须	-4537
所使	-4538
挡开	-4539
数寸	-4540
无事	-4541
时的	-4542
更增	-4543
李萍	-4544
法儿	-4545
王八	-4546
相比	-4547
着脸	-4548
突见	-4549
细看	-4550
美女	-4551
解释	-4552
转动	-4553
造诣	-4554
酒保	-4555
黑木	-4556
。’”	-4557
以内力	-4558
但见她	-4559
打不过	-4560
接口道	-4561
有一个	-4562
谁也没	-4563
那老僧	-4564
星宿老怪	-4565
王语嫣道	-4566
自言自语	-4567
转过头来	-4568
从怀中取出	-4569
▁第	-4570
七个	-4571
上门	-4572
不弱	-4573
两派	-4574
乘势	-4575
乡下	-4576
传出	-4577
分手	-4578
去罢	-4579
发了	-4580
受人	-4581
只说	-4582
可爱	-4583
回事	-4584
在外	-4585
大驾	-4586
太太	-4587
学到	-4588
少说	-4589
尤其	-4590
径自	-4591
得手	-4592
怀疑	-4593
恰好	-4594
抓去	-4595
挡住	-4596
挥手	-4597
掌中	-4598
无限	-4599
最是	-4600
极快	-4601
森森	-4602
求你	-4603
汝阳	-4604
活着	-4605
深处	-4606
溜溜	-4607
玩笑	-4608
痛楚	-4609
窝阔	-4610
罢手	-4611
请他	-4612
跟前	-4613
身去	-4614
钻研	-4615
颤抖	-4616
飞刀	-4617
香气	-4618
骗我	-4619
▁钟灵	-4620
住了她	-4621
却不是	-4622
跟我们	-4623
丁丁当当	-4624
公孙绿萼	-4625
灵智上人	-4626
神仙姊姊	-4627
送了性命	-4628
龙门镖局	-4629
不离	-4630
不透	-4631
为敌	-4632
之故	-4633
也能	-4634
侥幸	-4635
兄妹	-4636
军官	-4637
击去	-4638
刺入	-4639
剑鞘	-4640
双双	-4641
后颈	-4642
向旁	-4643
命丧	-4644
嘴角	-4645
如飞	-4646
媳妇	-4647
宝典	-4648
家村	-4649
就没	-4650
影踪	-4651
得有	-4652
怒火	-4653
我自	-4654
明儿	-4655
棒法	-4656
混乱	-4657
父女	-4658
甚喜	-4659
甚至	-4660
竟将	-4661
美酒	-4662
老兄	-4663
莫名	-4664
袍袖	-4665
越想	-4666
进攻	-4667
郑萼	-4668
面颊	-4669
’。”	-4670
▁朱聪	-4671
▁童姥	-4672
之极的	-4673
几句话	-4674
叫什么	-4675
好容易	-4676
好朋友	-4677
木姑娘	-4678
的一掌	-4679
那不是	-4680
齐声道	-4681
▁贝海石	-4682
支持不住	-4683
那是什么	-4684
▁金轮法王	-4685
一早	-4686
下次	-4687
不转	-4688
个儿	-4689
你已	-4690
便算	-4691
做声	-4692
农夫	-4693
击落	-4694
和那	-4695
威猛	-4696
学了	-4697
寨主	-4698
当此	-4699
怜惜	-4700
恕罪	-4701
懂得	-4702
探头	-4703
掷去	-4704
放屁	-4705
敌军	-4706
数年	-4707
无影	-4708
明天	-4709
渊源	-4710
烈火	-4711
相接	-4712
真心	-4713
罕见	-4714
脸现	-4715
随后	-4716
须当	-4717
了半天	-4718
大金国	-4719
好一会	-4720
彭长老	-4721
褚万里	-4722
顾不得	-4723
▁那老者	-4724
另一人道	-4725
叫了出来	-4726
大声喝道	-4727
桃花岛上	-4728
玉女心经	-4729
过了良久	-4730
▁成吉思汗	-4731
三次	-4732
东邪	-4733
书信	-4734
人了	-4735
但那	-4736
再过	-4737
刀子	-4738
加快	-4739
号角	-4740
命在	-4741
均觉	-4742
堂堂	-4743
大元	-4744
大船	-4745
如电	-4746
寂静	-4747
平生	-4748
微感	-4749
惶急	-4750
我怎	-4751
我虽	-4752
旁门	-4753
有难	-4754
望见	-4755
洞主	-4756
流水	-4757
现今	-4758
相差	-4759
穆易	-4760
究竟	-4761
老弟	-4762
胜了	-4763
自负	-4764
行了	-4765
行径	-4766
跌倒	-4767
身处	-4768
远去	-4769
下来的	-4770
了一层	-4771
多谢你	-4772
好得很	-4773
数十丈	-4774
无量剑	-4775
窝阔台	-4776
身功夫	-4777
郭啸天	-4778
▁余沧海	-4779
▁突然间	-4780
了这许多	-4781
出其不意	-4782
大理段氏	-4783
玄冥二老	-4784
一半	-4785
三尺	-4786
上身	-4787
东边	-4788
之约	-4789
击在	-4790
包裹	-4791
博尔	-4792
喷出	-4793
图谋	-4794
大举	-4795
好罢	-4796
好酒	-4797
家里	-4798
局面	-4799
所杀	-4800
拆了	-4801
指力	-4802
敬重	-4803
断剑	-4804
无言	-4805
是她	-4806
死得	-4807
气愤	-4808
深仇	-4809
漆黑	-4810
由此	-4811
痛快	-4812
白发	-4813
盘旋	-4814
省悟	-4815
真要	-4816
瞪视	-4817
石门	-4818
福州	-4819
药丸	-4820
西山	-4821
论剑	-4822
面具	-4823
马背	-4824
高台	-4825
▁三人	-4826
二十年	-4827
你心中	-4828
你武功	-4829
出家人	-4830
哪知道	-4831
有一位	-4832
殷姑娘	-4833
牛家村	-4834
甚么事	-4835
的兵刃	-4836
着一个	-4837
绿竹翁	-4838
运内力	-4839
这女子	-4840
▁左冷禅	-4841
一模一样	-4842
慕容先生	-4843
桃根仙道	-4844
▁石破天道	-4845
▁众	-4846
一千	-4847
一字	-4848
七日	-4849
三下	-4850
不忘	-4851
不闻	-4852
了来	-4853
但愿	-4854
住手	-4855
击中	-4856
分明	-4857
多了	-4858
左使	-4859
弯腰	-4860
当众	-4861
忘记	-4862
怕他	-4863
惨呼	-4864
拳打	-4865
撕下	-4866
昇泰	-4867
有气	-4868
沉思	-4869
满腔	-4870
照顾	-4871
独斗	-4872
理他	-4873
眼看	-4874
石头	-4875
称赞	-4876
说笑	-4877
走火	-4878
都想	-4879
附近	-4880
飞扬	-4881
不得不	-4882
了几步	-4883
你不是	-4884
你还是	-4885
恨不得	-4886
杨过的	-4887
终南山	-4888
近年来	-4889
黄岛主	-4890
▁保定帝	-4891
▁这一下	-4892
不会武功	-4893
不自禁地	-4894
三剑	-4895
三声	-4896
三日	-4897
不合	-4898
丑陋	-4899
为之	-4900
人马	-4901
从头	-4902
以便	-4903
刚猛	-4904
半边	-4905
发掌	-4906
可不	-4907
吃的	-4908
圆圈	-4909
境界	-4910
多大	-4911
大悟	-4912
宝宝	-4913
小的	-4914
左边	-4915
平素	-4916
惨白	-4917
成的	-4918
我把	-4919
才能	-4920
拦在	-4921
无聊	-4922
更有	-4923
最高	-4924
正派	-4925
正经	-4926
深知	-4927
满头	-4928
玉虚	-4929
短刀	-4930
碗酒	-4931
秘道	-4932
稳稳	-4933
空隙	-4934
累得	-4935
若再	-4936
要待	-4937
解毒	-4938
贸然	-4939
这件	-4940
送给	-4941
郑重	-4942
铜缸	-4943
镇上	-4944
除去	-4945
顶上	-4946
▁杨康	-4947
丐帮中	-4948
只吓得	-4949
的招数	-4950
答应了	-4951
脑海中	-4952
苦笑道	-4953
陡然间	-4954
高昇泰	-4955
▁裘千仞	-4956
一惊之下	-4957
你这小子	-4958
听到这里	-4959
少林寺的	-4960
素不相识	-4961
说了出来	-4962
的声音说道	-4963
三四	-4964
三百	-4965
上峰	-4966
你听	-4967
几招	-4968
则是	-4969
半句	-4970
卫璧	-4971
却在	-4972
去看	-4973
哽咽	-4974
墓中	-4975
太子	-4976
女侠	-4977
实非	-4978
害我	-4979
家中	-4980
寂寞	-4981
对答	-4982
左道	-4983
巨响	-4984
开心	-4985
惊奇	-4986
所伤	-4987
护住	-4988
拿来	-4989
数声	-4990
无已	-4991
椅上	-4992
活命	-4993
立刻	-4994
练武	-4995
脸露	-4996
若能	-4997
讲究	-4998
起疑	-4999
蹄声	-5000
过意	-5001
都给	-5002
阻止	-5003
黄河	-5004
黑索	-5005
▁群豪	-5006
▁那姓	-5007
一步步	-5008
个明白	-5009
伸舌头	-5010
将他们	-5011
的师父	-5012
瞧不见	-5013
西华子	-5014
郭伯母	-5015
陈长老	-5016
高老者	-5017
为什么要	-5018
什么地方	-5019
如此说来	-5020
转念又想	-5021
这样一个	-5022
一到	-5023
不放	-5024
也想	-5025
了口	-5026
去路	-5027
又没	-5028
取了	-5029
右首	-5030
嗔道	-5031
多有	-5032
大义	-5033
大恩	-5034
店中	-5035
恐怕	-5036
恭喜	-5037
惊觉	-5038
我我	-5039
所思	-5040
投入	-5041
拆招	-5042
掌棒	-5043
攻打	-5044
无怨	-5045
极重	-5046
椅子	-5047
气绝	-5048
没能	-5049
玉像	-5050
玉玑	-5051
眼眶	-5052
神妙	-5053
紫霞	-5054
至少	-5055
若在	-5056
茫茫	-5057
金乌	-5058
难受	-5059
▁二人	-5060
▁闵柔	-5061
你是谁	-5062
在一块	-5063
在半空	-5064
大高手	-5065
天龙寺	-5066
将上来	-5067
当日在	-5068
得远了	-5069
微微一	-5070
我本来	-5071
我给你	-5072
杀了我	-5073
第一次	-5074
那村女	-5075
令狐冲的	-5076
在武林中	-5077
英雄豪杰	-5078
两头	-5079
之恩	-5080
假的	-5081
其妙	-5082
剑上	-5083
只求	-5084
吃惊	-5085
吸星	-5086
在前	-5087
大发	-5088
大将	-5089
头陀	-5090
奔来	-5091
好说	-5092
孤身	-5093
山道	-5094
布置	-5095
应声	-5096
微步	-5097
惊异	-5098
我还	-5099
挡格	-5100
明王	-5101
淫贼	-5102
火折	-5103
火烧	-5104
灵动	-5105
王妃	-5106
皇后	-5107
结成	-5108
绝招	-5109
让开	-5110
走来	-5111
身世	-5112
这四	-5113
进房	-5114
逐一	-5115
马匹	-5116
马鞭	-5117
▁玄慈	-5118
今而后	-5119
傻小子	-5120
兄弟的	-5121
大厅上	-5122
封万里	-5123
将起来	-5124
已到了	-5125
我和你	-5126
我怎么	-5127
有这等	-5128
猛地里	-5129
的少年	-5130
绝情丹	-5131
这三人	-5132
丘处机道	-5133
叫了起来	-5134
定了定神	-5135
展开轻功	-5136
桃干仙道	-5137
桃枝仙道	-5138
得干干净净	-5139
一拉	-5140
一脚	-5141
两旁	-5142
为此	-5143
了吗	-5144
交好	-5145
以一	-5146
但一	-5147
作了	-5148
倒地	-5149
别来	-5150
南下	-5151
可知	-5152
可见	-5153
后悔	-5154
善哉	-5155
喘气	-5156
围住	-5157
如是	-5158
字迹	-5159
宛似	-5160
幼时	-5161
得胜	-5162
忽觉	-5163
我早	-5164
抖动	-5165
换了	-5166
昏迷	-5167
板上	-5168
果见	-5169
桃叶	-5170
棋局	-5171
残废	-5172
狂奔	-5173
王家	-5174
理睬	-5175
瓷瓶	-5176
番僧	-5177
缩回	-5178
舍命	-5179
苏州	-5180
蒲团	-5181
连环	-5182
遗书	-5183
都史	-5184
雪地	-5185
鲜于	-5186
▁其时	-5187
▁冲虚	-5188
乔峰道	-5189
了回来	-5190
二人的	-5191
伸手在	-5192
名不虚	-5193
将下去	-5194
所说的	-5195
老和尚	-5196
见到她	-5197
跟着又	-5198
露出一	-5199
▁裘千尺	-5200
▁铁木真	-5201
全神贯注	-5202
大声说道	-5203
姑苏慕容	-5204
掌棒龙头	-5205
万钟	-5206
三爷	-5207
不然	-5208
两次	-5209
乱石	-5210
五弟	-5211
以防	-5212
便和	-5213
做个	-5214
兵马	-5215
再打	-5216
制住	-5217
刹那	-5218
南方	-5219
却要	-5220
口边	-5221
口音	-5222
可得	-5223
向天	-5224
和气	-5225
嘴唇	-5226
墙上	-5227
大急	-5228
大腿	-5229
少了	-5230
心起	-5231
情知	-5232
惊惧	-5233
我那	-5234
所有	-5235
无形	-5236
昔年	-5237
是说	-5238
有事	-5239
正待	-5240
武官	-5241
深重	-5242
灯火	-5243
点燃	-5244
王罕	-5245
用功	-5246
相聚	-5247
瞬息	-5248
秘诀	-5249
称呼	-5250
缘故	-5251
脸有	-5252
议论	-5253
长啸	-5254
闲事	-5255
顽皮	-5256
飞去	-5257
不作声	-5258
你当真	-5259
光闪闪	-5260
决不是	-5261
只听他	-5262
大英雄	-5263
小尼姑	-5264
找到了	-5265
桃枝仙	-5266
的下落	-5267
舍不得	-5268
那姑娘	-5269
郭靖的	-5270
万万不能	-5271
也就是了	-5272
凌波微步	-5273
包不同道	-5274
名不虚传	-5275
无影无踪	-5276
独孤九剑	-5277
躺在地下	-5278
转念一想	-5279
这两句话	-5280
不知如何是好	-5281
不喜	-5282
与之	-5283
中指	-5284
乘风	-5285
五哥	-5286
充满	-5287
到她	-5288
单正	-5289
原因	-5290
吃过	-5291
同行	-5292
命他	-5293
喝问	-5294
大难	-5295
富贵	-5296
尊驾	-5297
已到	-5298
师母	-5299
幽幽	-5300
当胸	-5301
得快	-5302
恶毒	-5303
情状	-5304
扑上	-5305
拿去	-5306
损伤	-5307
接任	-5308
残杀	-5309
毕生	-5310
深入	-5311
渡厄	-5312
激荡	-5313
现出	-5314
的花	-5315
神掌	-5316
神教	-5317
蛤蟆	-5318
计议	-5319
说明	-5320
跌落	-5321
连叫	-5322
送命	-5323
为两截	-5324
你到底	-5325
占上风	-5326
及得上	-5327
咱二人	-5328
咱们的	-5329
少室山	-5330
怎么啦	-5331
我义父	-5332
数十人	-5333
有一股	-5334
的朋友	-5335
缥缈峰	-5336
耿万钟	-5337
让他们	-5338
难道是	-5339
▁丁不四	-5340
▁穆念慈	-5341
▁赵志敬	-5342
也不知道	-5343
只见一个	-5344
嫣然一笑	-5345
惊喜交集	-5346
青城派的	-5347
▁过不多时	-5348
万紫	-5349
不须	-5350
临敌	-5351
之见	-5352
何时	-5353
你将	-5354
偏生	-5355
全仗	-5356
六侠	-5357
分心	-5358
刚好	-5359
卫士	-5360
呐喊	-5361
嗓子	-5362
回入	-5363
围在	-5364
城头	-5365
墙壁	-5366
太也	-5367
射去	-5368
小贼	-5369
山石	-5370
干了	-5371
开门	-5372
张阿	-5373
很多	-5374
性格	-5375
总之	-5376
成名	-5377
或者	-5378
手忙	-5379
打中	-5380
把我	-5381
抢过	-5382
无奈	-5383
无崖	-5384
暗道	-5385
树下	-5386
没来	-5387
的长	-5388
神农	-5389
等我	-5390
等都	-5391
繁复	-5392
脚乱	-5393
蝴蝶	-5394
赫艮	-5395
越远	-5396
述说	-5397
逃命	-5398
阻拦	-5399
随时	-5400
骇异	-5401
魁梧	-5402
麻烦	-5403
▁如此	-5404
下毒手	-5405
与自己	-5406
你叫我	-5407
使的是	-5408
天下的	-5409
小丫头	-5410
归于尽	-5411
明教的	-5412
武功之	-5413
目不转	-5414
硬生生	-5415
这一生	-5416
远远的	-5417
▁那婆婆	-5418
到哪里去	-5419
杨过笑道	-5420
欧阳锋道	-5421
田伯光道	-5422
轻身功夫	-5423
马蹄声响	-5424
黑暗之中	-5425
不守	-5426
不提	-5427
且看	-5428
两柄	-5429
两道	-5430
乌龟	-5431
人都	-5432
他日	-5433
会使	-5434
佛法	-5435
便给	-5436
偶尔	-5437
再斗	-5438
再高	-5439
可比	-5440
四方	-5441
大开	-5442
大起	-5443
天真	-5444
好不	-5445
官府	-5446
宾客	-5447
尚且	-5448
山后	-5449
带同	-5450
引见	-5451
心口	-5452
思过	-5453
悠悠	-5454
所为	-5455
扑去	-5456
打伤	-5457
把握	-5458
摸到	-5459
教诲	-5460
断肠	-5461
是为	-5462
正宗	-5463
毒虫	-5464
清晨	-5465
灵蛇	-5466
点点	-5467
狠毒	-5468
玄风	-5469
用以	-5470
眼睁	-5471
石屋	-5472
笑着	-5473
等候	-5474
答道	-5475
缝中	-5476
胁下	-5477
胜负	-5478
认出	-5479
读书	-5480
逃生	-5481
那马	-5482
颜色	-5483
高下	-5484
鬼鬼	-5485
▁忽然	-5486
不清楚	-5487
你这人	-5488
华赫艮	-5489
大哥哥	-5490
日月教	-5491
望一眼	-5492
桃根仙	-5493
氏夫妇	-5494
的一下	-5495
的一招	-5496
竟如此	-5497
第二个	-5498
自己也	-5499
轻飘飘	-5500
▁尹志平	-5501
不知不觉	-5502
你说什么	-5503
哪里还有	-5504
坐在地下	-5505
天门道人	-5506
小小年纪	-5507
抵挡不住	-5508
方丈大师	-5509
枯荣大师	-5510
莫名其妙	-5511
说话之间	-5512
下令	-5513
两响	-5514
个大	-5515
二女	-5516
亲口	-5517
人数	-5518
作恶	-5519
便觉	-5520
儿的	-5521
充沛	-5522
凛然	-5523
出鞘	-5524
分辨	-5525
去势	-5526
去救	-5527
双煞	-5528
叛徒	-5529
啸声	-5530
均感	-5531
大进	-5532
大骇	-5533
天哥	-5534
女孩	-5535
姓段	-5536
委屈	-5537
宗师	-5538
尽心	-5539
巨石	-5540
平日	-5541
意欲	-5542
提着	-5543
料理	-5544
晚间	-5545
木合	-5546
来找	-5547
正面	-5548
气喘	-5549
求恳	-5550
清水	-5551
滚滚	-5552
犹豫	-5553
的么	-5554
的毒	-5555
秦绢	-5556
称是	-5557
竟敢	-5558
第五	-5559
虽不	-5560
豹子	-5561
进屋	-5562
钻入	-5563
闪动	-5564
闪过	-5565
难看	-5566
顺势	-5567
飞奔	-5568
?”“	-5569
不过是	-5570
十余里	-5571
名弟子	-5572
当下将	-5573
的姑娘	-5574
的手掌	-5575
聚贤庄	-5576
花万紫	-5577
说话的	-5578
身子一	-5579
轻声道	-5580
重阳宫	-5581
▁刘正风	-5582
同归于尽	-5583
暗暗叫苦	-5584
脸上神色	-5585
脸色大变	-5586
自己性命	-5587
过了半晌	-5588
再也忍耐不住	-5589
下风	-5590
不善	-5591
不快	-5592
丧命	-5593
举止	-5594
也可	-5595
仁义	-5596
伸臂	-5597
低微	-5598
何不	-5599
光彩	-5600
入门	-5601
八方	-5602
养伤	-5603
冲出	-5604
几日	-5605
单打	-5606
却听	-5607
却有	-5608
合并	-5609
回转	-5610
对敌	-5611
尽头	-5612
山庄	-5613
左脚	-5614
店伴	-5615
往事	-5616
恩公	-5617
我做	-5618
我如	-5619
我道	-5620
所传	-5621
拐杖	-5622
插在	-5623
既有	-5624
暴躁	-5625
柔和	-5626
柔情	-5627
武侠	-5628
灵狐	-5629
琢磨	-5630
生得	-5631
略一	-5632
着手	-5633
睁眼	-5634
窟鬼	-5635
粉碎	-5636
精微	-5637
精通	-5638
结果	-5639
肋骨	-5640
脑中	-5641
自杀	-5642
自觉	-5643
英俊	-5644
荡荡	-5645
身为	-5646
近处	-5647
这大	-5648
追上	-5649
逼近	-5650
都不	-5651
钟镇	-5652
铁叉	-5653
阿三	-5654
霹雳	-5655
他这一	-5656
决不敢	-5657
北斗阵	-5658
在此处	-5659
左盟主	-5660
札木合	-5661
杨兄弟	-5662
的本事	-5663
眼前一	-5664
神农帮	-5665
这叫做	-5666
陈玄风	-5667
两位师太	-5668
刷的一声	-5669
单打独斗	-5670
呆呆出神	-5671
大喝一声	-5672
过意不去	-5673
这些日子	-5674
姑苏慕容氏	-5675
一笔	-5676
上岸	-5677
人品	-5678
会儿	-5679
兄长	-5680
冰火	-5681
却道	-5682
去见	-5683
各路	-5684
合台	-5685
外边	-5686
大乱	-5687
容情	-5688
巨岩	-5689
挥刀	-5690
既不	-5691
每天	-5692
番话	-5693
的奇	-5694
相思	-5695
罪过	-5696
见得	-5697
讨好	-5698
诡异	-5699
赶路	-5700
转来	-5701
这日	-5702
追去	-5703
道旁	-5704
醒来	-5705
野王	-5706
除下	-5707
面貌	-5708
高三	-5709
黑风	-5710
一辈子	-5711
了两个	-5712
察合台	-5713
无崖子	-5714
杨左使	-5715
逍遥派	-5716
郭夫人	-5717
六位师父	-5718
向问天道	-5719
哭了出来	-5720
暗暗心惊	-5721
淡淡一笑	-5722
万仞	-5723
万安	-5724
上天	-5725
不止	-5726
似的	-5727
冰蚕	-5728
冲天	-5729
出剑	-5730
十七	-5731
又叫	-5732
又怕	-5733
双眉	-5734
发射	-5735
受到	-5736
坐起	-5737
孔中	-5738
将一	-5739
将信	-5740
小侄	-5741
岳父	-5742
得见	-5743
愈来	-5744
拉扯	-5745
提高	-5746
撞到	-5747
料来	-5748
曲折	-5749
更不	-5750
木剑	-5751
木筏	-5752
果真	-5753
树后	-5754
此外	-5755
毁了	-5756
甘愿	-5757
白骨	-5758
磊落	-5759
祟祟	-5760
稀奇	-5761
老朽	-5762
胜得	-5763
自如	-5764
舞动	-5765
蒙面	-5766
血肉	-5767
袈裟	-5768
袖子	-5769
袭击	-5770
记着	-5771
跃入	-5772
逃出	-5773
闪闪	-5774
一声响	-5775
一窟鬼	-5776
也不禁	-5777
六兄弟	-5778
六大派	-5779
危急中	-5780
向大哥	-5781
在怀里	-5782
客店中	-5783
张阿生	-5784
得更加	-5785
心下暗	-5786
愈来愈	-5787
桃实仙	-5788
的都是	-5789
西夏国	-5790
这位是	-5791
这和尚	-5792
否则的话	-5793
噗的一声	-5794
桃花仙道	-5795
武林中人	-5796
沉吟半晌	-5797
身子一晃	-5798
这些年来	-5799
门下弟子	-5800
鬼鬼祟祟	-5801
黄药师道	-5802
一响	-5803
丁勉	-5804
万劫	-5805
三天	-5806
之念	-5807
他与	-5808
仗着	-5809
以他	-5810
伤处	-5811
似有	-5812
光临	-5813
千余	-5814
即是	-5815
又从	-5816
启禀	-5817
响亮	-5818
哑巴	-5819
大响	-5820
大楚	-5821
夫长	-5822
如雷	-5823
姚伯	-5824
寻找	-5825
尽可	-5826
屋子	-5827
岳飞	-5828
崖边	-5829
怪你	-5830
总舵	-5831
情形	-5832
慷慨	-5833
找他	-5834
抢出	-5835
护卫	-5836
抵敌	-5837
推举	-5838
收回	-5839
斗然	-5840
料知	-5841
未到	-5842
未毕	-5843
正色	-5844
水性	-5845
消失	-5846
特别	-5847
玩意	-5848
百倍	-5849
盘算	-5850
确实	-5851
示意	-5852
粉身	-5853
精深	-5854
绿衫	-5855
脉搏	-5856
腰带	-5857
臂上	-5858
苦笑	-5859
解救	-5860
记挂	-5861
过彦	-5862
运起	-5863
递给	-5864
长长	-5865
领会	-5866
领悟	-5867
颜烈	-5868
骷髅	-5869
高大	-5870
魂飞	-5871
鼻中	-5872
▁一灯	-5873
▁那老	-5874
▁阿绣	-5875
乔大爷	-5876
了进来	-5877
你怎地	-5878
十六年	-5879
却也是	-5880
去瞧瞧	-5881
另有一	-5882
听见过	-5883
和自己	-5884
大家都	-5885
她身子	-5886
所使的	-5887
摇摇头	-5888
未必能	-5889
汪帮主	-5890
王八蛋	-5891
的大事	-5892
简长老	-5893
说出来	-5894
身不由	-5895
鲍大楚	-5896
▁完颜康	-5897
什么东西	-5898
你奶奶的	-5899
再也不敢	-5900
手忙脚乱	-5901
武当派的	-5902
破口大骂	-5903
一推	-5904
下盘	-5905
久仰	-5906
乘着	-5907
从没	-5908
他将	-5909
何事	-5910
作势	-5911
停留	-5912
僧众	-5913
刺到	-5914
单凭	-5915
反掌	-5916
因而	-5917
坏事	-5918
大哭	-5919
大车	-5920
夹着	-5921
奇特	-5922
射出	-5923
山中	-5924
当儿	-5925
怒喝	-5926
怪客	-5927
我真	-5928
打到	-5929
抗拒	-5930
携手	-5931
撞击	-5932
机缘	-5933
次晨	-5934
此间	-5935
江山	-5936
混蛋	-5937
火堆	-5938
烛火	-5939
玉儿	-5940
疑团	-5941
疾刺	-5942
瞧你	-5943
瞧她	-5944
羽箭	-5945
背负	-5946
脚上	-5947
自会	-5948
藏经	-5949
襄儿	-5950
见怪	-5951
见是	-5952
言下	-5953
运力	-5954
逼迫	-5955
那晚	-5956
里许	-5957
野兽	-5958
门中	-5959
陷阱	-5960
难分	-5961
不见得	-5962
了一只	-5963
众人都	-5964
你们的	-5965
十余名	-5966
声音道	-5967
姚伯当	-5968
小心了	-5969
我们的	-5970
桃花仙	-5971
殷野王	-5972
的手臂	-5973
鲜于通	-5974
黄帮主	-5975
▁王夫人	-5976
和小龙女	-5977
如此了得	-5978
恒山派的	-5979
杨过心想	-5980
武当七侠	-5981
脸上变色	-5982
▁金花婆婆	-5983
一交	-5984
一翻	-5985
一间	-5986
上冲	-5987
下场	-5988
不舍	-5989
中剑	-5990
书画	-5991
五位	-5992
人世	-5993
人生	-5994
从窗	-5995
像是	-5996
勾当	-5997
化为	-5998
听在	-5999
大作	-6000
娘娘	-6001
念着	-6002
想想	-6003
感情	-6004
我听	-6005
戒备	-6006
曲洋	-6007
曾在	-6008
有过	-6009
梅花	-6010
正当	-6011
比划	-6012
流血	-6013
猛击	-6014
百年	-6015
的两	-6016
着急	-6017
知我	-6018
脱困	-6019
行到	-6020
走远	-6021
身中	-6022
轻重	-6023
饶了	-6024
高深	-6025
鲨鱼	-6026
不住口	-6027
但这时	-6028
住了他	-6029
又有谁	-6030
吴长老	-6031
四个字	-6032
声叫道	-6033
拱手道	-6034
无意中	-6035
林夫人	-6036
石夫人	-6037
见师父	-6038
还了一	-6039
▁那女童	-6040
一个时辰	-6041
不戒和尚	-6042
心中大喜	-6043
感激不尽	-6044
自然而然地	-6045
一同	-6046
一望	-6047
不保	-6048
不老	-6049
为是	-6050
之感	-6051
也当	-6052
人间	-6053
但要	-6054
你怕	-6055
你跟	-6056
便只	-6057
倒似	-6058
关切	-6059
关节	-6060
几年	-6061
几欲	-6062
前往	-6063
务须	-6064
匪夷	-6065
吃亏	-6066
吴国	-6067
响起	-6068
哭泣	-6069
唯有	-6070
家数	-6071
山东	-6072
左侧	-6073
师傅	-6074
强忍	-6075
想着	-6076
成一	-6077
我教	-6078
打去	-6079
拦阻	-6080
拳头	-6081
摘星	-6082
支撑	-6083
斜刺	-6084
无情	-6085
有之	-6086
死命	-6087
殿上	-6088
法名	-6089
注视	-6090
烛光	-6091
焉能	-6092
特异	-6093
疯疯	-6094
白眉	-6095
睡觉	-6096
穿着	-6097
竟无	-6098
笔直	-6099
管家	-6100
而退	-6101
肚中	-6102
自忖	-6103
苍老	-6104
要她	-6105
说说	-6106
贤侄	-6107
跟在	-6108
这副	-6109
连续	-6110
道通	-6111
那倒	-6112
铁青	-6113
青石	-6114
颠倒	-6115
鼻息	-6116
龙王	-6117
一个字	-6118
二师哥	-6119
你这小	-6120
使一招	-6121
倘若我	-6122
原来这	-6123
叫了声	-6124
小妹子	-6125
怎么样	-6126
拿着一	-6127
擒拿手	-6128
有丝毫	-6129
极大的	-6130
眼睁睁	-6131
要是我	-6132
那两个	-6133
风兄弟	-6134
▁阿朱道	-6135
▁阿紫道	-6136
不平道人	-6137
亲眼见到	-6138
匪夷所思	-6139
吸星大法	-6140
和令狐冲	-6141
执法长老	-6142
有人说道	-6143
淡淡地道	-6144
爹爹妈妈	-6145
脸色惨白	-6146
踏上一步	-6147
那婆婆道	-6148
西山一窟鬼	-6149
▁令狐冲心想	-6150
一共	-6151
一向	-6152
一提	-6153
不问	-6154
举刀	-6155
之为	-6156
之伤	-6157
争斗	-6158
事不	-6159
会意	-6160
你死	-6161
便行	-6162
僵尸	-6163
刀柄	-6164
剑光	-6165
功劳	-6166
向内	-6167
听听	-6168
四哥	-6169
就不	-6170
就如	-6171
左近	-6172
常金	-6173
忍住	-6174
快来	-6175
思念	-6176
惊慌	-6177
惊疑	-6178
扶住	-6179
挑战	-6180
救援	-6181
断折	-6182
旗使	-6183
时光	-6184
易筋	-6185
松手	-6186
根基	-6187
根本	-6188
步法	-6189
毒针	-6190
求之	-6191
河南	-6192
油灯	-6193
潜心	-6194
目睹	-6195
矮小	-6196
碎骨	-6197
站直	-6198
简捷	-6199
紧闭	-6200
草原	-6201
蜡烛	-6202
要旨	-6203
跟人	-6204
身有	-6205
那里	-6206
锐金	-6207
长索	-6208
顶天	-6209
黑影	-6210
齐出	-6211
龟寿	-6212
▁范遥	-6213
一听到	-6214
仪琳道	-6215
但不知	-6216
出声来	-6217
口鲜血	-6218
向段誉	-6219
哥儿俩	-6220
多了一	-6221
左掌门	-6222
康广陵	-6223
无法可	-6224
是为了	-6225
目光中	-6226
瞬之间	-6227
胡言乱	-6228
解开了	-6229
言语中	-6230
越想越	-6231
这几日	-6232
光明顶上	-6233
周芷若道	-6234
她老人家	-6235
尊姓大名	-6236
站在一旁	-6237
脸上微微	-6238
高三娘子	-6239
默不作声	-6240
▁耶律洪基	-6241
从怀中取出一	-6242
万难	-6243
上崖	-6244
上当	-6245
上清	-6246
不受	-6247
严密	-6248
乔装	-6249
了头	-6250
亲近	-6251
人声	-6252
但你	-6253
住在	-6254
便又	-6255
倒有	-6256
元霸	-6257
再要	-6258
再问	-6259
助他	-6260
北冥	-6261
十一	-6262
十岁	-6263
却都	-6264
叫好	-6265
右腕	-6266
名头	-6267
响声	-6268
啰唆	-6269
喧哗	-6270
四川	-6271
在先	-6272
定有	-6273
强自	-6274
徒孙	-6275
恭谨	-6276
惊得	-6277
惯了	-6278
惶恐	-6279
我对	-6280
担忧	-6281
拉开	-6282
拍拍	-6283
掌柜	-6284
撞在	-6285
昨日	-6286
是从	-6287
是大	-6288
朦胧	-6289
术赤	-6290
机会	-6291
极深	-6292
枣核	-6293
树木	-6294
此举	-6295
殿下	-6296
泄露	-6297
海沙	-6298
烧饼	-6299
疾奔	-6300
皇宫	-6301
真好	-6302
绮丝	-6303
耳目	-6304
自也	-6305
自相	-6306
西边	-6307
解下	-6308
认定	-6309
语声	-6310
身披	-6311
还会	-6312
还未	-6313
这便	-6314
迢迢	-6315
追到	-6316
逃得	-6317
都能	-6318
钢刀	-6319
铁匠	-6320
阿青	-6321
风响	-6322
黑色	-6323
▁这日	-6324
中年人	-6325
了大半	-6326
使不得	-6327
几个人	-6328
和盈盈	-6329
小和尚	-6330
常金鹏	-6331
心想这	-6332
手中的	-6333
正色道	-6334
白龟寿	-6335
的却是	-6336
老头儿	-6337
说得是	-6338
这一拳	-6339
这几句	-6340
那公子	-6341
不自禁的	-6342
了一口气	-6343
使个眼色	-6344
又有甚么	-6345
在半空中	-6346
微一沉吟	-6347
无忌哥哥	-6348
身不由主	-6349
一意	-6350
一拂	-6351
一拥	-6352
不杀	-6353
世人	-6354
之日	-6355
也即	-6356
也未	-6357
五百	-6358
亦无	-6359
众多	-6360
伤痛	-6361
全部	-6362
六弟	-6363
切齿	-6364
利器	-6365
别过	-6366
到此	-6367
刺死	-6368
剑宗	-6369
勒马	-6370
十个	-6371
半尺	-6372
半身	-6373
卓绝	-6374
南院	-6375
即使	-6376
却只	-6377
厅中	-6378
去做	-6379
吃得	-6380
哪敢	-6381
唯恐	-6382
坐倒	-6383
埋伏	-6384
处置	-6385
她虽	-6386
安安	-6387
小觑	-6388
岂是	-6389
已死	-6390
师祖	-6391
广场	-6392
庄子	-6393
当面	-6394
心地	-6395
忒也	-6396
我到	-6397
打扰	-6398
护送	-6399
指教	-6400
捣乱	-6401
掌上	-6402
断续	-6403
月亮	-6404
有限	-6405
机密	-6406
来攻	-6407
焦木	-6408
狂妄	-6409
琴声	-6410
白须	-6411
真实	-6412
练过	-6413
葬身	-6414
装束	-6415
足下	-6416
辽兵	-6417
过于	-6418
追击	-6419
送饭	-6420
都会	-6421
都觉	-6422
震断	-6423
一出口	-6424
不知她	-6425
丘道长	-6426
两人都	-6427
也没法	-6428
了个空	-6429
二十八	-6430
他内力	-6431
你这么	-6432
出一个	-6433
另一名	-6434
只道他	-6435
往地下	-6436
怎么了	-6437
怔怔的	-6438
想起了	-6439
是我的	-6440
汝阳王	-6441
的神情	-6442
眼光中	-6443
矮胖子	-6444
练成了	-6445
草丛中	-6446
这声音	-6447
郭芙道	-6448
陆乘风	-6449
黛绮丝	-6450
吸一口气	-6451
心中一酸	-6452
拔出长剑	-6453
瞧在眼里	-6454
男子汉大丈夫	-6455
一过	-6456
之忧	-6457
事已	-6458
云庄	-6459
交手	-6460
儿女	-6461
冒险	-6462
出洞	-6463
剪刀	-6464
去世	-6465
变得	-6466
命人	-6467
坐了	-6468
坛主	-6469
外的	-6470
大战	-6471
奸人	-6472
已成	-6473
悲愤	-6474
招手	-6475
推门	-6476
无碍	-6477
早有	-6478
死活	-6479
滴滴	-6480
激斗	-6481
爱惜	-6482
疾风	-6483
痊愈	-6484
瘦子	-6485
的亲	-6486
的打	-6487
盏茶	-6488
相待	-6489
竟已	-6490
红晕	-6491
绝伦	-6492
罕有	-6493
老二	-6494
虎口	-6495
虚清	-6496
街上	-6497
要说	-6498
讥刺	-6499
让人	-6500
身负	-6501
还施	-6502
进门	-6503
那你	-6504
难怪	-6505
雪白	-6506
飞步	-6507
饮食	-6508
齐上	-6509
他本来	-6510
你放心	-6511
双手一	-6512
咱们再	-6513
在身上	-6514
大头鬼	-6515
忙伸手	-6516
的说话	-6517
胡先生	-6518
自己是	-6519
臭小子	-6520
蓉二人	-6521
藏经阁	-6522
贝先生	-6523
身上有	-6524
那老人	-6525
▁林震南	-6526
光明磊落	-6527
对望一眼	-6528
粉身碎骨	-6529
黑风双煞	-6530
▁完颜洪烈	-6531
五岳派掌门	-6532
”“	-6533
一飞	-6534
三娘	-6535
上涌	-6536
丑八	-6537
东首	-6538
五年	-6539
五毒	-6540
今年	-6541
伤我	-6542
佛经	-6543
作甚	-6544
写道	-6545
凝思	-6546
几分	-6547
十之	-6548
只叫	-6549
只管	-6550
可有	-6551
台下	-6552
哇哇	-6553
哪能	-6554
圆寂	-6555
地势	-6556
大漠	-6557
太湖	-6558
字辈	-6559
尘土	-6560
帐中	-6561
弓箭	-6562
得能	-6563
心生	-6564
快马	-6565
念念	-6566
怪我	-6567
恩德	-6568
感动	-6569
憔悴	-6570
成婚	-6571
我都	-6572
打倒	-6573
武穆	-6574
毒质	-6575
然则	-6576
畏惧	-6577
白袍	-6578
的木	-6579
碎裂	-6580
罪孽	-6581
聚集	-6582
自必	-6583
自此	-6584
至尊	-6585
行出	-6586
要做	-6587
贼秃	-6588
身周	-6589
轻薄	-6590
郁郁	-6591
醒了	-6592
门规	-6593
顾忌	-6594
马头	-6595
▁一个	-6596
▁突然	-6597
下马来	-6598
丑八怪	-6599
中了一	-6600
之间的	-6601
也不怕	-6602
你跟我	-6603
便不再	-6604
决不肯	-6605
十七八	-6606
吐蕃国	-6607
吴道通	-6608
大拇指	-6609
归云庄	-6610
想得到	-6611
我可要	-6612
无人能	-6613
有许多	-6614
睡着了	-6615
老帮主	-6616
这两位	-6617
中原武林	-6618
你在这里	-6619
厉声喝道	-6620
呆了半晌	-6621
情急之下	-6622
数十年来	-6623
深深一揖	-6624
西夏武士	-6625
▁岳灵珊道	-6626
▁过了良久	-6627
。:	-6628
上船	-6629
久了	-6630
也曾	-6631
也算	-6632
于一	-6633
他连	-6634
伤他	-6635
低沉	-6636
何师	-6637
你能	-6638
公然	-6639
再不	-6640
冰冷	-6641
凶狠	-6642
加上	-6643
勉力	-6644
千人	-6645
千斤	-6646
升起	-6647
叔父	-6648
只在	-6649
后跃	-6650
哀求	-6651
喜爱	-6652
大碗	-6653
头晕	-6654
宛然	-6655
实无	-6656
小孩	-6657
小舟	-6658
应手	-6659
强劲	-6660
待你	-6661
性情	-6662
我偏	-6663
手背	-6664
报了	-6665
攻势	-6666
文武	-6667
方人	-6668
旧事	-6669
昏晕	-6670
最为	-6671
来着	-6672
林子	-6673
横行	-6674
求我	-6675
满面	-6676
爱女	-6677
狼牙	-6678
珠宝	-6679
甚远	-6680
由于	-6681
由他	-6682
的便	-6683
看出	-6684
福建	-6685
竟自	-6686
绕着	-6687
老怪	-6688
而论	-6689
胸腹	-6690
苦楚	-6691
藏身	-6692
行侠	-6693
袋中	-6694
被人	-6695
誉儿	-6696
赫然	-6697
身侧	-6698
轻视	-6699
这边	-6700
送出	-6701
逐出	-6702
那大	-6703
金盆	-6704
隔着	-6705
韩林	-6706
他左手	-6707
你性命	-6708
却不能	-6709
及不上	-6710
古墓派	-6711
圣教主	-6712
在郭靖	-6713
天竺僧	-6714
太极拳	-6715
对不住	-6716
封不平	-6717
数百年	-6718
杀了你	-6719
来得及	-6720
点中了	-6721
的法子	-6722
看清楚	-6723
矮老者	-6724
说的是	-6725
这姑娘	-6726
黑木崖	-6727
黑玫瑰	-6728
▁杨铁心	-6729
大惊之下	-6730
拍的一声	-6731
星宿老仙	-6732
是也不是	-6733
暗暗好笑	-6734
流下泪来	-6735
跳起身来	-6736
高声叫道	-6737
黄衫女子	-6738
大出意料之外	-6739
▁在	-6740
一振	-6741
万载	-6742
两股	-6743
事事	-6744
今儿	-6745
众僧	-6746
传了	-6747
何人	-6748
你爱	-6749
公道	-6750
关东	-6751
军中	-6752
出房	-6753
利剑	-6754
剑气	-6755
劝道	-6756
办到	-6757
势众	-6758
勾结	-6759
又即	-6760
及早	-6761
反复	-6762
右边	-6763
后脑	-6764
后退	-6765
垂下	-6766
夺回	-6767
奔行	-6768
安好	-6769
完了	-6770
室里	-6771
将士	-6772
师尊	-6773
希奇	-6774
当头	-6775
得悉	-6776
惊诧	-6777
打紧	-6778
抢先	-6779
放你	-6780
救他	-6781
无光	-6782
无处	-6783
极难	-6784
治好	-6785
洗手	-6786
深意	-6787
满腹	-6788
猬甲	-6789
生出	-6790
用处	-6791
留着	-6792
癫癫	-6793
睡去	-6794
穴上	-6795
立下	-6796
立鼎	-6797
端起	-6798
糟了	-6799
紫衫	-6800
绕过	-6801
绝艺	-6802
绵绵	-6803
缩手	-6804
而视	-6805
耽搁	-6806
腰里	-6807
负心	-6808
走入	-6809
足了	-6810
踢出	-6811
迈步	-6812
这股	-6813
进入	-6814
锋锐	-6815
长辈	-6816
门前	-6817
驼子	-6818
高招	-6819
黑黝	-6820
▁瑛姑	-6821
一见到	-6822
一面说	-6823
不是你	-6824
了一场	-6825
了他的	-6826
他身上	-6827
你不肯	-6828
便不能	-6829
卓不凡	-6830
却不敢	-6831
如何不	-6832
崆峒派	-6833
张公子	-6834
斗然间	-6835
是你的	-6836
是自己	-6837
段誉的	-6838
牛鼻子	-6839
的便是	-6840
的儿子	-6841
皇太后	-6842
答允了	-6843
胸口一	-6844
这几天	-6845
这是我	-6846
这老儿	-6847
那书生	-6848
长长的	-6849
陆立鼎	-6850
韩林儿	-6851
马大元	-6852
黑黝黝	-6853
万料不到	-6854
低声问道	-6855
冷笑一声	-6856
到底是谁	-6857
好端端的	-6858
感到一阵	-6859
慕容复道	-6860
我在这里	-6861
殷素素道	-6862
笑了出来	-6863
胡言乱语	-6864
闻到一阵	-6865
▁公孙谷主	-6866
一抖	-6867
为主	-6868
二道	-6869
于心	-6870
五仙	-6871
他只	-6872
传到	-6873
传给	-6874
信口	-6875
光芒	-6876
其间	-6877
出外	-6878
分从	-6879
势道	-6880
半步	-6881
南京	-6882
却来	-6883
历代	-6884
又都	-6885
及时	-6886
可也	-6887
和人	-6888
喘息	-6889
回复	-6890
够了	-6891
好色	-6892
守在	-6893
宋朝	-6894
对这	-6895
射来	-6896
少爷	-6897
已从	-6898
应变	-6899
惴惴	-6900
成千	-6901
扑通	-6902
抢攻	-6903
挺身	-6904
提剑	-6905
搔头	-6906
撞去	-6907
无常	-6908
服食	-6909
机括	-6910
格开	-6911
梅剑	-6912
此仇	-6913
殿中	-6914
求见	-6915
治病	-6916
深情	-6917
清笃	-6918
狗贼	-6919
痕迹	-6920
白痴	-6921
砍去	-6922
秃头	-6923
算盘	-6924
粽子	-6925
统率	-6926
老四	-6927
芙儿	-6928
虽已	-6929
詹春	-6930
许配	-6931
说罢	-6932
谷底	-6933
赢了	-6934
越听	-6935
躲避	-6936
门的	-6937
隐约	-6938
静静	-6939
顾念	-6940
首座	-6941
骂人	-6942
骨打	-6943
魂不	-6944
但想到	-6945
你是我	-6946
到了一	-6947
在华山	-6948
我不能	-6949
我的话	-6950
抢着道	-6951
着自己	-6952
这时他	-6953
钟姑娘	-6954
闪电貂	-6955
▁劳德诺	-6956
▁这一日	-6957
了他一眼	-6958
你干什么	-6959
决计不会	-6960
向后跃开	-6961
恍然大悟	-6962
旁门左道	-6963
桃实仙道	-6964
疯疯癫癫	-6965
石壁上的	-6966
笑了起来	-6967
鲜血淋漓	-6968
▁小龙女道	-6969
不约而同地	-6970
一刻	-6971
一试	-6972
三使	-6973
不难	-6974
两年	-6975
之不	-6976
之主	-6977
也在	-6978
书房	-6979
从不	-6980
仰慕	-6981
传你	-6982
低下	-6983
你啦	-6984
你用	-6985
侧耳	-6986
全凭	-6987
全失	-6988
八个	-6989
八卦	-6990
其理	-6991
千金	-6992
又过	-6993
各种	-6994
名声	-6995
四弟	-6996
图画	-6997
多想	-6998
太婆	-6999
姥姥	-7000
密密	-7001
寒玉	-7002
寻访	-7003
小事	-7004
幸亏	-7005
弹琴	-7006
当口	-7007
微弱	-7008
想个	-7009
我么	-7010
我既	-7011
所作	-7012
所害	-7013
才智	-7014
放眼	-7015
日间	-7016
来回	-7017
歌声	-7018
渡难	-7019
灭口	-7020
灵药	-7021
点中	-7022
疾冲	-7023
直如	-7024
瞧来	-7025
立誓	-7026
端倪	-7027
精明	-7028
紧迫	-7029
舱中	-7030
菜肴	-7031
落败	-7032
认为	-7033
诚恳	-7034
足见	-7035
身亡	-7036
身体	-7037
轻声	-7038
道兄	-7039
那又	-7040
酒碗	-7041
鞋子	-7042
食物	-7043
饭菜	-7044
默默	-7045
▁到得	-7046
▁绿萼	-7047
也不动	-7048
了两步	-7049
到头来	-7050
到自己	-7051
听见了	-7052
喀喇喇	-7053
四个人	-7054
总不能	-7055
我叫你	-7056
数十名	-7057
方人智	-7058
有如此	-7059
没料到	-7060
玉玑子	-7061
的手法	-7062
范一飞	-7063
见不到	-7064
这几个	-7065
这功夫	-7066
难道他	-7067
难道我	-7068
▁丁不三	-7069
▁包惜弱	-7070
▁段延庆	-7071
▁盈盈道	-7072
▁虚竹道	-7073
一个筋斗	-7074
一个踉跄	-7075
九阳真经	-7076
传功长老	-7077
却又如何	-7078
声音说道	-7079
就在此时	-7080
屠龙宝刀	-7081
延庆太子	-7082
开口说话	-7083
微微一惊	-7084
念念不忘	-7085
雁门关外	-7086
▁令狐冲笑道	-7087
一命	-7088
一愕	-7089
三圣	-7090
中途	-7091
之首	-7092
也均	-7093
了断	-7094
便此	-7095
便见	-7096
便问	-7097
保保	-7098
凶恶	-7099
出的	-7100
分开	-7101
半月	-7102
又给	-7103
反弹	-7104
吐出	-7105
哎唷	-7106
喝骂	-7107
四顾	-7108
大异	-7109
大振	-7110
大穴	-7111
大雨	-7112
天虚	-7113
妖人	-7114
守御	-7115
家师	-7116
将疑	-7117
左腕	-7118
常常	-7119
广大	-7120
异状	-7121
形容	-7122
快捷	-7123
总教	-7124
想像	-7125
想去	-7126
想得	-7127
我怕	-7128
所擒	-7129
打断	-7130
找个	-7131
拦住	-7132
接了	-7133
无赖	-7134
日久	-7135
日光	-7136
是有	-7137
有不	-7138
有声	-7139
树皮	-7140
死无	-7141
气的	-7142
满地	-7143
焦躁	-7144
玄渡	-7145
痛苦	-7146
百熊	-7147
相逢	-7148
眼花	-7149
眼间	-7150
第七	-7151
脑后	-7152
脸孔	-7153
臂膀	-7154
荒岛	-7155
虚名	-7156
虬髯	-7157
虽说	-7158
蜜蜂	-7159
行字	-7160
讥嘲	-7161
资质	-7162
路子	-7163
进境	-7164
遵从	-7165
邪魔	-7166
陈冲	-7167
险恶	-7168
难逃	-7169
颜面	-7170
飞来	-7171
饶是	-7172
龙儿	-7173
一件事	-7174
三个人	-7175
不上来	-7176
叫他们	-7177
呛啷啷	-7178
周大哥	-7179
咱们到	-7180
好兄弟	-7181
开眼界	-7182
张夫人	-7183
想到了	-7184
普天下	-7185
武三娘	-7186
沉沉的	-7187
的手段	-7188
瞧不出	-7189
童百熊	-7190
襄阳城	-7191
这些话	-7192
远不及	-7193
那渔人	-7194
阿骨打	-7195
魔教的	-7196
了一会儿	-7197
今日之事	-7198
加快脚步	-7199
千秋万载	-7200
好奇心起	-7201
将信将疑	-7202
求之不得	-7203
跃起身来	-7204
转身便走	-7205
这许多人	-7206
齐声惊呼	-7207
不由自主地	-7208
嗤的一声响	-7209
一再	-7210
一软	-7211
一队	-7212
上得	-7213
上手	-7214
为首	-7215
之能	-7216
书法	-7217
了好	-7218
人杰	-7219
从何	-7220
传令	-7221
使了	-7222
做得	-7223
入魔	-7224
军马	-7225
凉亭	-7226
凛凛	-7227
前胸	-7228
劲道	-7229
包三	-7230
却似	-7231
却非	-7232
可能	-7233
唯一	-7234
国家	-7235
处境	-7236
处玄	-7237
多日	-7238
大气	-7239
大铁	-7240
天天	-7241
天明	-7242
天灵	-7243
夹攻	-7244
宛如	-7245
寻到	-7246
小指	-7247
就地	-7248
尽了	-7249
山坳	-7250
徐达	-7251
怎敢	-7252
急了	-7253
找你	-7254
报讯	-7255
抱了	-7256
描淡	-7257
握着	-7258
携着	-7259
救出	-7260
敝派	-7261
斗到	-7262
斯文	-7263
方便	-7264
旁的	-7265
无措	-7266
有礼	-7267
服下	-7268
未得	-7269
柔软	-7270
桌子	-7271
楚王	-7272
横卧	-7273
歹毒	-7274
殷无	-7275
渡劫	-7276
玄悲	-7277
白雪	-7278
相求	-7279
着玩	-7280
秦家	-7281
第六	-7282
簌簌	-7283
精湛	-7284
腾腾	-7285
至今	-7286
苍白	-7287
要事	-7288
要在	-7289
言而	-7290
还得	-7291
远胜	-7292
重行	-7293
钢针	-7294
铁冠	-7295
铁棒	-7296
长江	-7297
陪我	-7298
难事	-7299
非凡	-7300
首先	-7301
驾临	-7302
鲁莽	-7303
黎生	-7304
▁但见	-7305
下山去	-7306
不以为	-7307
不少人	-7308
不是他	-7309
你要我	-7310
倘若他	-7311
听了这	-7312
咱们就	-7313
在一株	-7314
在后面	-7315
将出去	-7316
得如此	-7317
怀好意	-7318
我还是	-7319
爹爹的	-7320
的父亲	-7321
第二次	-7322
走到他	-7323
轻描淡	-7324
锐金旗	-7325
门功夫	-7326
阳顶天	-7327
鹿清笃	-7328
▁苏星河	-7329
一怔之下	-7330
人多势众	-7331
冲虚道长	-7332
忽然想起	-7333
日月神教	-7334
有人叫道	-7335
派的武功	-7336
游坦之道	-7337
甚是得意	-7338
跟随在后	-7339
连连点头	-7340
那怎么办	-7341
▁我	-7342
一套	-7343
一摸	-7344
一群	-7345
上加	-7346
下属	-7347
不乐	-7348
两招	-7349
二弟	-7350
伤痕	-7351
伶俐	-7352
侧过	-7353
便也	-7354
倔强	-7355
假意	-7356
全都	-7357
兼之	-7358
凄凉	-7359
凄然	-7360
刺中	-7361
前赴	-7362
劲急	-7363
包袱	-7364
南朝	-7365
即令	-7366
却给	-7367
名家	-7368
听人	-7369
回剑	-7370
回想	-7371
在天	-7372
在水	-7373
在石	-7374
多问	-7375
好听	-7376
宝马	-7377
家传	-7378
巨鲸	-7379
急叫	-7380
急攻	-7381
急步	-7382
戏弄	-7383
我见	-7384
抢步	-7385
指向	-7386
提及	-7387
插手	-7388
摩天	-7389
撒谎	-7390
无知	-7391
显示	-7392
死里	-7393
残忍	-7394
气血	-7395
没死	-7396
活得	-7397
清醒	-7398
激射	-7399
牙关	-7400
猛烈	-7401
的恶	-7402
直是	-7403
相传	-7404
真力	-7405
红色	-7406
肩上	-7407
脸面	-7408
花园	-7409
苦思	-7410
虽多	-7411
行去	-7412
要到	-7413
责罚	-7414
赤练	-7415
车中	-7416
近来	-7417
这张	-7418
逼我	-7419
遍地	-7420
闯进	-7421
阵势	-7422
难听	-7423
骆驼	-7424
骨头	-7425
黄色	-7426
齐道	-7427
下杀手	-7428
不到了	-7429
不过来	-7430
了一块	-7431
从来不	-7432
众武士	-7433
会有期	-7434
六猴儿	-7435
出来了	-7436
刘贵妃	-7437
原来她	-7438
在桌上	-7439
小师父	-7440
心中暗	-7441
挣扎着	-7442
数十招	-7443
是一位	-7444
流高手	-7445
的东西	-7446
瞧不起	-7447
等四人	-7448
蛤蟆功	-7449
这会儿	-7450
郭姑娘	-7451
▁仪琳道	-7452
▁萧峰道	-7453
▁谢逊道	-7454
▁钟万仇	-7455
后会有期	-7456
哇的一声	-7457
回过身来	-7458
拍手笑道	-7459
武侠小说	-7460
祖师婆婆	-7461
该当如何	-7462
》、	-7463
一摆	-7464
一概	-7465
一统	-7466
上几	-7467
不留	-7468
与你	-7469
专心	-7470
世兄	-7471
争夺	-7472
以大	-7473
你会	-7474
便以	-7475
倒在	-7476
做梦	-7477
入口	-7478
其事	-7479
内堂	-7480
再见	-7481
创口	-7482
劲敌	-7483
区区	-7484
却将	-7485
变了	-7486
后患	-7487
咚咚	-7488
嗒嗒	-7489
嘶哑	-7490
四块	-7491
回手	-7492
城门	-7493
大路	-7494
天部	-7495
天黑	-7496
夹击	-7497
奉命	-7498
妖法	-7499
定当	-7500
害你	-7501
容颜	-7502
左颊	-7503
平手	-7504
当着	-7505
志常	-7506
急于	-7507
情人	-7508
惊怒	-7509
我曾	-7510
所言	-7511
把他	-7512
抓着	-7513
拉了	-7514
拜倒	-7515
携带	-7516
撕成	-7517
教过	-7518
斩断	-7519
旗杆	-7520
智慧	-7521
朝英	-7522
来头	-7523
欺骗	-7524
止歇	-7525
源源	-7526
火石	-7527
生事	-7528
白色	-7529
直冲	-7530
相处	-7531
瞬间	-7532
破烂	-7533
空明	-7534
穿了	-7535
等他	-7536
等你	-7537
练了	-7538
而笑	-7539
自由	-7540
草丛	-7541
葵花	-7542
走过	-7543
起初	-7544
越说	-7545
跃到	-7546
躺着	-7547
轻灵	-7548
这份	-7549
逼他	-7550
道家	-7551
遥遥	-7552
那厮	-7553
部位	-7554
金兰	-7555
长声	-7556
闹得	-7557
震动	-7558
黑剑	-7559
一出手	-7560
下去了	-7561
不到一	-7562
不喜欢	-7563
不在乎	-7564
不得已	-7565
两兄弟	-7566
了两下	-7567
于天下	-7568
五行旗	-7569
什么的	-7570
你的话	-7571
你过来	-7572
原来你	-7573
和阿朱	-7574
小孩子	-7575
差不多	-7576
想法子	-7577
抱住了	-7578
明明白	-7579
是何等	-7580
洪帮主	-7581
甘宝宝	-7582
的厉害	-7583
的地方	-7584
的情状	-7585
空荡荡	-7586
给人家	-7587
转眼间	-7588
软猬甲	-7589
避开了	-7590
乱成一团	-7591
出手相救	-7592
包三先生	-7593
咱们走吧	-7594
多少时候	-7595
既是如此	-7596
武林至尊	-7597
盏茶时分	-7598
着实不少	-7599
这门功夫	-7600
魔教中人	-7601
▁岳不群道	-7602
一发	-7603
一晚	-7604
不敬	-7605
不稳	-7606
不露	-7607
两边	-7608
二丐	-7609
五霸	-7610
令旗	-7611
传下	-7612
伸了	-7613
住她	-7614
何苦	-7615
入怀	-7616
冰块	-7617
冲着	-7618
几人	-7619
出版	-7620
剑来	-7621
动武	-7622
午后	-7623
卷轴	-7624
口口	-7625
听你	-7626
呜咽	-7627
咕噜	-7628
囚禁	-7629
墙头	-7630
声声	-7631
大悲	-7632
好胜	-7633
如神	-7634
小嘴	-7635
小王	-7636
展飞	-7637
山壁	-7638
岂可	-7639
岂敢	-7640
席上	-7641
心血	-7642
所制	-7643
打的	-7644
拿到	-7645
放他	-7646
无恶	-7647
来救	-7648
极强	-7649
柔声	-7650
查察	-7651
比你	-7652
灵台	-7653
猛虎	-7654
瓜子	-7655
疲累	-7656
百岁	-7657
的拳	-7658
瞧了	-7659
绕到	-7660
缠绵	-7661
藏僧	-7662
虽只	-7663
虽非	-7664
被她	-7665
装作	-7666
说你	-7667
请坐	-7668
贾布	-7669
赵煦	-7670
趁机	-7671
越走	-7672
近身	-7673
这女	-7674
远来	-7675
那只	-7676
酒来	-7677
酒菜	-7678
重剑	-7679
长发	-7680
门上	-7681
阳光	-7682
难题	-7683
’?”	-7684
临安府	-7685
为自己	-7686
也不懂	-7687
也只有	-7688
了一根	-7689
了许多	-7690
决不致	-7691
出了一	-7692
却始终	-7693
双手捧	-7694
古墓中	-7695
学会了	-7696
年纪虽	-7697
得很了	-7698
心动魄	-7699
摘星子	-7700
无相功	-7701
有一日	-7702
李志常	-7703
林朝英	-7704
没一个	-7705
火焰刀	-7706
登时便	-7707
的日子	-7708
的老者	-7709
秦家寨	-7710
笑了笑	-7711
脸颊上	-7712
说得上	-7713
请各位	-7714
▁陆冠英	-7715
你怎知道	-7716
使将出来	-7717
全真教的	-7718
和张无忌	-7719
喀喇一声	-7720
峨嵋派的	-7721
性命之忧	-7722
想起自己	-7723
掉在地下	-7724
缓缓地道	-7725
葵花宝典	-7726
身在半空	-7727
风太师叔	-7728
▁周伯通道	-7729
不由自主的	-7730
从来没见过	-7731
心中怦怦乱跳	-7732
》。	-7733
一问	-7734
三枚	-7735
不假	-7736
不走	-7737
两掌	-7738
为止	-7739
之苦	-7740
二次	-7741
仇怨	-7742
以至	-7743
你带	-7744
依法	-7745
依照	-7746
便说	-7747
保佑	-7748
光标	-7749
全心	-7750
关键	-7751
刻着	-7752
割断	-7753
勾践	-7754
包扎	-7755
十成	-7756
半个	-7757
反抗	-7758
名医	-7759
含糊	-7760
周全	-7761
喝得	-7762
国师	-7763
地向	-7764
大批	-7765
字诀	-7766
宗维	-7767
小儿	-7768
居住	-7769
峰顶	-7770
差遣	-7771
弯刀	-7772
当可	-7773
心存	-7774
快极	-7775
愿意	-7776
扑面	-7777
抢夺	-7778
护身	-7779
招术	-7780
拜师	-7781
掉下	-7782
提了	-7783
援手	-7784
救得	-7785
数万	-7786
整齐	-7787
方得	-7788
曼陀	-7789
来做	-7790
段家	-7791
水手	-7792
求情	-7793
沿着	-7794
涂地	-7795
清风	-7796
满意	-7797
父王	-7798
狗屁	-7799
甚感	-7800
百出	-7801
的后	-7802
盖世	-7803
相劝	-7804
离地	-7805
终是	-7806
胆小	-7807
脚底	-7808
舒畅	-7809
般若	-7810
船中	-7811
草棚	-7812
血迹	-7813
诀窍	-7814
说也	-7815
还怕	-7816
这儿	-7817
这厮	-7818
违拗	-7819
长刀	-7820
闪烁	-7821
隐秘	-7822
零零	-7823
霍地	-7824
非常	-7825
馒头	-7826
鬼头	-7827
齐向	-7828
▁当晚	-7829
五霸冈	-7830
他们在	-7831
但此刻	-7832
刘处玄	-7833
刹那间	-7834
半夜里	-7835
口而出	-7836
各人的	-7837
听他说	-7838
咱们是	-7839
天灵盖	-7840
宗维侠	-7841
并不是	-7842
念及此	-7843
成一片	-7844
我一生	-7845
我怎能	-7846
教主的	-7847
没见到	-7848
的不是	-7849
皇太叔	-7850
真是假	-7851
终究是	-7852
过彦之	-7853
那小丐	-7854
郁光标	-7855
都不禁	-7856
难道你	-7857
黄二人	-7858
▁一行人	-7859
▁公孙止	-7860
▁彭连虎	-7861
▁那女郎	-7862
一统江湖	-7863
他奶奶的	-7864
你们两个	-7865
口口声声	-7866
惊心动魄	-7867
手足无措	-7868
无怨无仇	-7869
有什么好	-7870
玉虚散人	-7871
转过了头	-7872
再好也没有了	-7873
。‘	-7874
一女	-7875
下楼	-7876
不传	-7877
不待	-7878
不认	-7879
与众	-7880
严峻	-7881
为胜	-7882
之喜	-7883
之快	-7884
之状	-7885
书呆	-7886
人情	-7887
人身	-7888
他如	-7889
他若	-7890
令爱	-7891
传入	-7892
你道	-7893
侮辱	-7894
便打	-7895
便杀	-7896
全家	-7897
再强	-7898
冰凉	-7899
出得	-7900
出气	-7901
剧烈	-7902
剧震	-7903
十人	-7904
却想	-7905
口子	-7906
古人	-7907
叫喊	-7908
右使	-7909
后院	-7910
呼啸	-7911
大雪	-7912
天罡	-7913
奇妙	-7914
子孙	-7915
容色	-7916
寒冰	-7917
封信	-7918
将之	-7919
左眼	-7920
市镇	-7921
年老	-7922
得更	-7923
怎知	-7924
急欲	-7925
扇子	-7926
手按	-7927
抿嘴	-7928
挂在	-7929
探出	-7930
攻敌	-7931
无奇	-7932
无策	-7933
明月	-7934
杖头	-7935
正大	-7936
武青	-7937
比他	-7938
汴梁	-7939
洪水	-7940
火头	-7941
灭了	-7942
灯笼	-7943
烛台	-7944
熟悉	-7945
猜到	-7946
生下	-7947
生日	-7948
用过	-7949
甫毕	-7950
男儿	-7951
留心	-7952
痴痴	-7953
皆是	-7954
看看	-7955
着恼	-7956
瞧那	-7957
确然	-7958
秀眉	-7959
筷子	-7960
纵起	-7961
细想	-7962
绸带	-7963
老祖	-7964
而复	-7965
西湖	-7966
西瓜	-7967
请了	-7968
足底	-7969
这六	-7970
这口	-7971
追出	-7972
那还	-7973
重的	-7974
钥匙	-7975
钻出	-7976
镖师	-7977
长草	-7978
问她	-7979
除此	-7980
青布	-7981
骏马	-7982
骑兵	-7983
麻痒	-7984
’!”	-7985
▁定逸	-7986
一伸手	-7987
丹田中	-7988
乖乖地	-7989
了一半	-7990
了你的	-7991
他胸口	-7992
又有一	-7993
另一人	-7994
在心中	-7995
小女子	-7996
恶狠狠	-7997
我一直	-7998
易筋经	-7999
武青婴	-8000
王万仞	-8001
的目光	-8002
着一只	-8003
站起来	-8004
膻中穴	-8005
韩夫人	-8006
也不以为	-8007
兵刃相交	-8008
再好不过	-8009
十余年来	-8010
半点声息	-8011
四面八方	-8012
天下无敌	-8013
张无忌的	-8014
柯镇恶道	-8015
武林之中	-8016
死里逃生	-8017
目不转睛	-8018
瞪了一眼	-8019
那便如何	-8020
陆大有道	-8021
伸了伸舌头	-8022
恒山派掌门	-8023
脸上微微一红	-8024
一众	-8025
一败	-8026
三掌	-8027
不讲	-8028
举剑	-8029
之大	-8030
之德	-8031
之策	-8032
人命	-8033
以上	-8034
传言	-8035
但也	-8036
你为	-8037
你你	-8038
保全	-8039
俞三	-8040
倒要	-8041
倚在	-8042
做事	-8043
偷听	-8044
冒犯	-8045
冰山	-8046
制胜	-8047
功德	-8048
加之	-8049
化功	-8050
又觉	-8051
台上	-8052
右脚	-8053
同伴	-8054
地说	-8055
大燕	-8056
奸计	-8057
好些	-8058
如意	-8059
学的	-8060
家庄	-8061
寥寥	-8062
巴巴	-8063
度外	-8064
心急	-8065
惊骇	-8066
所受	-8067
打发	-8068
执掌	-8069
拿住	-8070
挣脱	-8071
掌钵	-8072
接应	-8073
放我	-8074
斜斜	-8075
晕红	-8076
更为	-8077
最爱	-8078
本人	-8079
极处	-8080
极好	-8081
枉自	-8082
每当	-8083
气功	-8084
活在	-8085
流星	-8086
激烈	-8087
猜测	-8088
直击	-8089
直刺	-8090
相视	-8091
示下	-8092
神力	-8093
禀明	-8094
称奇	-8095
等情	-8096
翻转	-8097
背叛	-8098
腊八	-8099
舅妈	-8100
舟中	-8101
虚实	-8102
认错	-8103
记起	-8104
身入	-8105
身躯	-8106
这五	-8107
迷惘	-8108
镇定	-8109
问话	-8110
闺女	-8111
陆柏	-8112
隐没	-8113
雪恨	-8114
风景	-8115
饿死	-8116
驰到	-8117
▁周颠	-8118
▁程英	-8119
上清观	-8120
不理睬	-8121
不知所	-8122
了一掌	-8123
了开来	-8124
他一生	-8125
伸手到	-8126
你妈妈	-8127
使上了	-8128
便听得	-8129
到临头	-8130
千万别	-8131
却是个	-8132
又怎会	-8133
围住了	-8134
大恶人	-8135
媳妇儿	-8136
弟子的	-8137
当年在	-8138
我也是	-8139
我问你	-8140
没来由	-8141
的只是	-8142
的道理	-8143
给你们	-8144
见情势	-8145
谢先生	-8146
这么久	-8147
这四人	-8148
闹着玩	-8149
险些儿	-8150
黄蓉的	-8151
▁猛听得	-8152
▁白自在	-8153
▁那大汉	-8154
一生之中	-8155
上乘武功	-8156
丐帮帮众	-8157
之声不绝	-8158
化功大法	-8159
天山童姥	-8160
年纪轻轻	-8161
桃花岛主	-8162
段正淳道	-8163
点了穴道	-8164
的小姑娘	-8165
说什么也	-8166
躬身说道	-8167
鸠摩智道	-8168
那便如何是好	-8169
一味	-8170
一探	-8171
一杯	-8172
一枝	-8173
三条	-8174
上都	-8175
下三	-8176
不吃	-8177
不生	-8178
东北	-8179
两家	-8180
丫鬟	-8181
为僧	-8182
之境	-8183
于她	-8184
人带	-8185
他了	-8186
以下	-8187
伏魔	-8188
伤得	-8189
便须	-8190
做人	-8191
全不	-8192
其他	-8193
加倍	-8194
南北	-8195
历史	-8196
原委	-8197
又多	-8198
取笑	-8199
口出	-8200
各执	-8201
吕文	-8202
含泪	-8203
嗫嚅	-8204
土地	-8205
地的	-8206
多管	-8207
大嫂	-8208
大宴	-8209
太监	-8210
委顿	-8211
存亡	-8212
定能	-8213
小辈	-8214
岸上	-8215
年幼	-8216
幸得	-8217
引得	-8218
弹指	-8219
强行	-8220
微有	-8221
心怀	-8222
必能	-8223
忠心	-8224
忸怩	-8225
忽而	-8226
怠慢	-8227
急驰	-8228
慌乱	-8229
我佛	-8230
手肘	-8231
指望	-8232
接口	-8233
敌意	-8234
料得	-8235
明言	-8236
替他	-8237
望望	-8238
本身	-8239
来此	-8240
查明	-8241
桅杆	-8242
横过	-8243
毒发	-8244
毒计	-8245
满身	-8246
满门	-8247
爱妻	-8248
爱子	-8249
用来	-8250
皱纹	-8251
看清	-8252
神威	-8253
积雪	-8254
窜出	-8255
笑得	-8256
素闻	-8257
红袍	-8258
结为	-8259
绳子	-8260
缚在	-8261
而知	-8262
肚腹	-8263
药兄	-8264
菊剑	-8265
蒙哥	-8266
薄幸	-8267
薛公	-8268
血痕	-8269
要和	-8270
见性	-8271
谁来	-8272
谢天	-8273
负在	-8274
赶快	-8275
跳动	-8276
轮子	-8277
轰轰	-8278
边的	-8279
辽军	-8280
醒悟	-8281
重要	-8282
难言	-8283
预备	-8284
首脑	-8285
▁仪和	-8286
》、《	-8287
一个月	-8288
一点儿	-8289
下了头	-8290
了一些	-8291
了一件	-8292
了七八	-8293
于是将	-8294
伏在地	-8295
你身上	-8296
决不可	-8297
君子剑	-8298
声大作	-8299
她心中	-8300
已不过	-8301
师伯祖	-8302
怎样了	-8303
我们是	-8304
我兄弟	-8305
来来来	-8306
白长老	-8307
纵身上	-8308
说着向	-8309
这一刀	-8310
陈冲之	-8311
▁但听得	-8312
▁殷梨亭	-8313
与欧阳锋	-8314
也不知是	-8315
了口长气	-8316
亲眼目睹	-8317
再也不能	-8318
卑鄙无耻	-8319
呼的一掌	-8320
学武之人	-8321
岳夫人道	-8322
往地下一	-8323
心下甚喜	-8324
料想不到	-8325
热血上涌	-8326
玄慈方丈	-8327
祖千秋道	-8328
退了一步	-8329
那是甚么	-8330
陆无双道	-8331
▁过了一会	-8332
▁黄蓉笑道	-8333
石庄主夫妇	-8334
听得清清楚楚	-8335
果然名不虚传	-8336
▁史	-8337
一战	-8338
一排	-8339
一门	-8340
万死	-8341
上他	-8342
下峰	-8343
两剑	-8344
为重	-8345
之祸	-8346
五脏	-8347
交代	-8348
他去	-8349
仙子	-8350
你对	-8351
你肯	-8352
便到	-8353
便得	-8354
俞二	-8355
停了	-8356
光亮	-8357
兴复	-8358
写字	-8359
冯默	-8360
冲入	-8361
出城	-8362
刘某	-8363
别派	-8364
剑下	-8365
医道	-8366
南帝	-8367
又自	-8368
后辈	-8369
圆音	-8370
垂头	-8371
外道	-8372
大叔	-8373
大盛	-8374
大量	-8375
大震	-8376
她手	-8377
妙风	-8378
威严	-8379
娃儿	-8380
孤苦	-8381
官员	-8382
实有	-8383
寻仇	-8384
尖刀	-8385
就可	-8386
屋外	-8387
师长	-8388
带到	-8389
干的	-8390
庄严	-8391
弟弟	-8392
惨死	-8393
想念	-8394
找我	-8395
把这	-8396
抓到	-8397
抵受	-8398
担架	-8399
拿捏	-8400
指环	-8401
挑拨	-8402
挥舞	-8403
摸索	-8404
整日	-8405
最近	-8406
来人	-8407
来路	-8408
查问	-8409
柴草	-8410
树丛	-8411
梁上	-8412
棋盘	-8413
楼梯	-8414
歇歇	-8415
殷红	-8416
毒气	-8417
比拚	-8418
流出	-8419
海水	-8420
湖中	-8421
灯光	-8422
灵机	-8423
狡猾	-8424
狮子	-8425
玉音	-8426
疯子	-8427
相去	-8428
盾牌	-8429
看守	-8430
真情	-8431
睡到	-8432
知客	-8433
矮胖	-8434
破空	-8435
神像	-8436
神龙	-8437
稍一	-8438
笑脸	-8439
筵席	-8440
粗浅	-8441
绝非	-8442
耀眼	-8443
耳里	-8444
脑门	-8445
膂力	-8446
花了	-8447
落了	-8448
解了	-8449
败坏	-8450
过手	-8451
迎敌	-8452
还想	-8453
违抗	-8454
连使	-8455
连刺	-8456
连夜	-8457
连珠	-8458
追兵	-8459
送去	-8460
道儿	-8461
遗命	-8462
遵命	-8463
邀请	-8464
铁板	-8465
阵中	-8466
青衫	-8467
颇感	-8468
饿得	-8469
骑在	-8470
鼓掌	-8471
▁智光	-8472
也不想	-8473
了几分	-8474
你若不	-8475
倒不是	-8476
可不知	-8477
哽咽道	-8478
回来了	-8479
天大的	-8480
好孩子	-8481
山洞中	-8482
得通红	-8483
忽然间	-8484
想必是	-8485
成不成	-8486
我心里	-8487
数百人	-8488
朱聪道	-8489
树林中	-8490
用不着	-8491
登时将	-8492
的好手	-8493
给我听	-8494
罗人杰	-8495
落入了	-8496
说着将	-8497
谢天谢	-8498
这当儿	-8499
这样吧	-8500
那小子	-8501
音菩萨	-8502
▁纪晓芙	-8503
▁赵敏道	-8504
万万不可	-8505
不定主意	-8506
众位朋友	-8507
小无相功	-8508
小龙女的	-8509
抢上前去	-8510
掌钵龙头	-8511
昆仑派的	-8512
明明白白	-8513
武林盟主	-8514
缓缓说道	-8515
行侠仗义	-8516
说话声音	-8517
那有什么	-8518
铁冠道人	-8519
▁向问天道	-8520
一夜	-8521
一式	-8522
一撞	-8523
万岁	-8524
三刻	-8525
上升	-8526
不准	-8527
不接	-8528
之强	-8529
也给	-8530
二僧	-8531
二千	-8532
人手	-8533
从旁	-8534
作声	-8535
作者	-8536
你自	-8537
倏忽	-8538
假扮	-8539
先将	-8540
入鞘	-8541
凝聚	-8542
击毙	-8543
刺向	-8544
发怒	-8545
叫唤	-8546
听话	-8547
大队	-8548
天外	-8549
天涯	-8550
天生	-8551
失措	-8552
她知	-8553
好让	-8554
完全	-8555
封禅	-8556
小腿	-8557
尖声	-8558
尖锐	-8559
往日	-8560
心底	-8561
忙中	-8562
快些	-8563
急得	-8564
总得	-8565
恶气	-8566
恼恨	-8567
情愿	-8568
打仗	-8569
收起	-8570
攻城	-8571
放着	-8572
敝寺	-8573
昏昏	-8574
是给	-8575
有三	-8576
有两	-8577
有道	-8578
本意	-8579
朱蛤	-8580
松了	-8581
正教	-8582
正欲	-8583
比拼	-8584
污泥	-8585
没事	-8586
洞外	-8587
洞里	-8588
深夜	-8589
溪水	-8590
的石	-8591
直响	-8592
相候	-8593
相避	-8594
睡在	-8595
礼数	-8596
竟如	-8597
笑问	-8598
精要	-8599
翻来	-8600
胆战	-8601
胡人	-8602
花容	-8603
莫测	-8604
被窝	-8605
西藏	-8606
要请	-8607
言明	-8608
详加	-8609
诸将	-8610
跪地	-8611
蹊跷	-8612
轰然	-8613
过节	-8614
迟了	-8615
追寻	-8616
通道	-8617
郭杨	-8618
门边	-8619
阿牛	-8620
难姑	-8621
雕儿	-8622
风吹	-8623
首级	-8624
▁小昭	-8625
▁空智	-8626
丁珰道	-8627
上一眼	-8628
也不致	-8629
了一张	-8630
他手中	-8631
以一敌	-8632
何师我	-8633
你给我	-8634
你还不	-8635
冯默风	-8636
只不知	-8637
吕文德	-8638
害死的	-8639
就这么	-8640
得好快	-8641
我是个	-8642
梁长老	-8643
森然道	-8644
用力一	-8645
的对手	-8646
的手指	-8647
的时候	-8648
的背影	-8649
眼见她	-8650
见二人	-8651
走过去	-8652
越听越	-8653
▁朱长龄	-8654
▁武三通	-8655
一动不动	-8656
中年汉子	-8657
也未必能	-8658
任我行道	-8659
何足道哉	-8660
倒在地下	-8661
契丹武士	-8662
尚未回答	-8663
抓住了他	-8664
放在桌上	-8665
说过的话	-8666
谢天谢地	-8667
走火入魔	-8668
轻描淡写	-8669
金盆洗手	-8670
黄蓉叫道	-8671
▁张翠山道	-8672
▁说话之间	-8673
乾坤大挪移心法	-8674
一丝	-8675
一皱	-8676
不义	-8677
不忧	-8678
不济	-8679
不爱	-8680
两手	-8681
中气	-8682
久闻	-8683
他道	-8684
份上	-8685
你妈	-8686
你猜	-8687
便当	-8688
俗家	-8689
光杰	-8690
光豪	-8691
兵将	-8692
冤家	-8693
冷谦	-8694
力尽	-8695
千刀	-8696
原谅	-8697
反悔	-8698
叛军	-8699
各家	-8700
后洞	-8701
后的	-8702
咯咯	-8703
图谱	-8704
地便	-8705
城下	-8706
天性	-8707
她又	-8708
实情	-8709
寒冷	-8710
年的	-8711
废人	-8712
归来	-8713
形状	-8714
御营	-8715
必当	-8716
怒极	-8717
急跃	-8718
我等	-8719
报复	-8720
教导	-8721
斥道	-8722
施令	-8723
无益	-8724
暗藏	-8725
有话	-8726
条小	-8727
棺材	-8728
殊无	-8729
每个	-8730
求道	-8731
泥人	-8732
湖畔	-8733
潮水	-8734
点去	-8735
爬起	-8736
犯上	-8737
玉箫	-8738
琴音	-8739
甚重	-8740
用了	-8741
白云	-8742
的药	-8743
眉目	-8744
知己	-8745
祖父	-8746
禽兽	-8747
秀丽	-8748
秘奥	-8749
竟连	-8750
端的	-8751
笼罩	-8752
精光	-8753
纸上	-8754
练的	-8755
罚恶	-8756
聋哑	-8757
要救	-8758
谢罪	-8759
赔罪	-8760
越高	-8761
踢去	-8762
身死	-8763
还击	-8764
还我	-8765
这只	-8766
这把	-8767
这柄	-8768
送上	-8769
遭遇	-8770
酒量	-8771
重任	-8772
闪开	-8773
阵阵	-8774
院中	-8775
韩姬	-8776
音讯	-8777
▁各人	-8778
▁张三	-8779
▁玄难	-8780
▁霍都	-8781
上山来	-8782
不打紧	-8783
也决计	-8784
也是个	-8785
从怀里	-8786
代弟子	-8787
众百姓	-8788
你便是	-8789
六师弟	-8790
副帮主	-8791
只是个	-8792
叫化子	-8793
嘴角边	-8794
块大石	-8795
大厅中	-8796
宋长老	-8797
寡不敌	-8798
将上去	-8799
当然是	-8800
总而言	-8801
意中人	-8802
手下的	-8803
放开了	-8804
敌人的	-8805
有一件	-8806
未必便	-8807
桃干仙	-8808
男一女	-8809
的念头	-8810
的望着	-8811
瞧瞧你	-8812
第二招	-8813
耶律燕	-8814
薛公远	-8815
行了一	-8816
要杀我	-8817
这么多	-8818
▁宋远桥	-8819
▁郭襄道	-8820
一般无异	-8821
之声大作	-8822
作恶多端	-8823
南院大王	-8824
嗤嗤声响	-8825
并不答话	-8826
当下也不	-8827
总而言之	-8828
教主之位	-8829
玄苦大师	-8830
置之度外	-8831
自相残杀	-8832
都是一惊	-8833
黑白子道	-8834
▁慕容复道	-8835
令狐冲心想	-8836
这几句话说得	-8837
......’	-8838
’?	-8839
▁当	-8840
一变	-8841
一是	-8842
不响	-8843
不计	-8844
两大	-8845
为友	-8846
九人	-8847
也自	-8848
交了	-8849
交出	-8850
人士	-8851
从她	-8852
他来	-8853
以彼	-8854
但求	-8855
但知	-8856
你呢	-8857
便都	-8858
入化	-8859
其数	-8860
冰窖	-8861
分头	-8862
到我	-8863
剑身	-8864
北丐	-8865
叫得	-8866
同声	-8867
咒骂	-8868
喀喀	-8869
喜乐	-8870
四溅	-8871
在海	-8872
坐船	-8873
堂上	-8874
处死	-8875
大增	-8876
奉了	-8877
奔向	-8878
奔近	-8879
好似	-8880
如刀	-8881
姓杨	-8882
嫁了	-8883
子模	-8884
对了	-8885
对人	-8886
屋角	-8887
已大	-8888
延宗	-8889
彼身	-8890
必然	-8891
快刀	-8892
忽尔	-8893
怎可	-8894
思潮	-8895
悲伤	-8896
房外	-8897
打滚	-8898
扰乱	-8899
拍去	-8900
招亲	-8901
拳力	-8902
接战	-8903
撞上	-8904
散开	-8905
无缘	-8906
早晨	-8907
明亮	-8908
更甚	-8909
来袭	-8910
桌旁	-8911
楼头	-8912
欺压	-8913
步步	-8914
武术	-8915
水面	-8916
波涛	-8917
洞穴	-8918
涔涔	-8919
滑溜	-8920
滚去	-8921
猛兽	-8922
王鼎	-8923
玩玩	-8924
甚大	-8925
田某	-8926
痛哭	-8927
百骸	-8928
相反	-8929
眨眼	-8930
石棺	-8931
神丐	-8932
约会	-8933
罢休	-8934
老了	-8935
脓包	-8936
脸蛋	-8937
花树	-8938
表现	-8939
裤子	-8940
话中	-8941
调匀	-8942
豪气	-8943
贼子	-8944
赏善	-8945
赞叹	-8946
边上	-8947
连说	-8948
逐步	-8949
避让	-8950
那才	-8951
邪门	-8952
都没	-8953
重誓	-8954
铁门	-8955
陷入	-8956
饿了	-8957
骗你	-8958
高出	-8959
黄衣	-8960
▁哪知	-8961
一阵阵	-8962
万安寺	-8963
中所载	-8964
了一人	-8965
了回去	-8966
从何处	-8967
任先生	-8968
伸左手	-8969
你就是	-8970
光一闪	-8971
刷刷刷	-8972
喝一声	-8973
在手里	-8974
在这一	-8975
小孩儿	-8976
干光豪	-8977
成千成	-8978
我只道	-8979
我女儿	-8980
我若不	-8981
有人道	-8982
未免太	-8983
未说完	-8984
李延宗	-8985
段夫人	-8986
石清道	-8987
老英雄	-8988
说一句	-8989
跟他说	-8990
这一日	-8991
这三个	-8992
那些人	-8993
饭时分	-8994
马背上	-8995
▁俞岱岩	-8996
▁耶律齐	-8997
▁胡青牛	-8998
一拥而上	-8999
上乘内功	-9000
不怀好意	-9001
以彼之道	-9002
右手食指	-9003
和殷素素	-9004
四大恶人	-9005
在他肩头	-9006
好生奇怪	-9007
性命难保	-9008
放在眼里	-9009
断为两截	-9010
无法可施	-9011
是何用意	-9012
此人武功	-9013
武功虽高	-9014
灵机一动	-9015
突然想起	-9016
纵身跃起	-9017
蒙古大军	-9018
郭靖心想	-9019
隔了半晌	-9020
青衣剑士	-9021
▁任我行道	-9022
五岳剑派的	-9023
到哪里去了	-9024
对望了一眼	-9025
张无忌心想	-9026
的一声轻响	-9027
武功天下第一	-9028
一了	-9029
一本	-9030
一艘	-9031
七兄	-9032
七弟	-9033
下崖	-9034
丧生	-9035
中心	-9036
中都	-9037
之于	-9038
之会	-9039
乱想	-9040
了然	-9041
人才	-9042
他就	-9043
众所	-9044
你真	-9045
信了	-9046
借着	-9047
做过	-9048
入骨	-9049
六叔	-9050
兴高	-9051
再练	-9052
农家	-9053
出马	-9054
击打	-9055
分毫	-9056
刺来	-9057
前行	-9058
剑伤	-9059
剧斗	-9060
即刻	-9061
压根	-9062
去取	-9063
可喜	-9064
含有	-9065
呼声	-9066
咕嘟	-9067
哎哟	-9068
四派	-9069
坐定	-9070
坟墓	-9071
处的	-9072
大步	-9073
大袖	-9074
失踪	-9075
头一	-9076
妄为	-9077
孩童	-9078
实则	-9079
害羞	-9080
对掌	-9081
小镜	-9082
居中	-9083
峭壁	-9084
已决	-9085
庙外	-9086
弹出	-9087
必胜	-9088
忠厚	-9089
忽施	-9090
怒色	-9091
急冲	-9092
惨叫	-9093
我将	-9094
戒刀	-9095
或能	-9096
所发	-9097
手帕	-9098
扑到	-9099
把你	-9100
抵赖	-9101
挂怀	-9102
捉拿	-9103
换上	-9104
接到	-9105
放箭	-9106
教徒	-9107
断骨	-9108
无尽	-9109
无息	-9110
无计	-9111
时已	-9112
昨天	-9113
晃晃	-9114
有恩	-9115
有缘	-9116
杀父	-9117
武烈	-9118
死伤	-9119
汗水	-9120
活活	-9121
深山	-9122
清净	-9123
清凉	-9124
点心	-9125
爪手	-9126
爱怜	-9127
爱护	-9128
牯牛	-9129
玄痛	-9130
玄苦	-9131
男的	-9132
的字	-9133
相迎	-9134
眉毛	-9135
石块	-9136
社会	-9137
简略	-9138
纹丝	-9139
绣花	-9140
翻涌	-9141
而非	-9142
自学	-9143
至此	-9144
英名	-9145
菩提	-9146
营帐	-9147
言出	-9148
言辞	-9149
讨厌	-9150
误了	-9151
豪迈	-9152
责备	-9153
跌入	-9154
转向	-9155
过他	-9156
追逐	-9157
送入	-9158
递出	-9159
酒水	-9160
酒饭	-9161
重逢	-9162
铁轮	-9163
陪你	-9164
随意	-9165
难解	-9166
雄浑	-9167
雪花	-9168
鬼怪	-9169
龙潭	-9170
万人队	-9171
万劫谷	-9172
不可测	-9173
不成了	-9174
了几次	-9175
五散人	-9176
会不会	-9177
但此时	-9178
体内的	-9179
你可知	-9180
刘三爷	-9181
别人的	-9182
博尔朮	-9183
只要他	-9184
可是你	-9185
和段誉	-9186
多谢了	-9187
契丹兵	-9188
好极了	-9189
妙风使	-9190
小丐道	-9191
就算是	-9192
开玩笑	-9193
我便是	-9194
抱拳道	-9195
玄铁令	-9196
玩意儿	-9197
的力道	-9198
的功力	-9199
的尸体	-9200
的眼光	-9201
真正的	-9202
神色间	-9203
童姥道	-9204
给自己	-9205
越说越	-9206
达摩堂	-9207
这几下	-9208
那僧人	-9209
▁王处一	-9210
一般见识	-9211
出神入化	-9212
到这里来	-9213
十之八九	-9214
华山论剑	-9215
只不过是	-9216
只觉一股	-9217
后来怎样	-9218
向小龙女	-9219
喃喃地道	-9220
嘻嘻一笑	-9221
嘿嘿冷笑	-9222
少林高僧	-9223
张无忌和	-9224
心中一喜	-9225
心头一震	-9226
心想自己	-9227
既然如此	-9228
空见大师	-9229
跪倒在地	-9230
还施彼身	-9231
这中间的	-9232
黑衣女郎	-9233
黑衣汉子	-9234
了一口长气	-9235
郭靖与黄蓉	-9236
一二	-9237
一品	-9238
一箭	-9239
万一	-9240
三月	-9241
不弃	-9242
不避	-9243
两句	-9244
两尺	-9245
严守	-9246
中午	-9247
之交	-9248
之态	-9249
之期	-9250
乒乓	-9251
也还	-9252
也道	-9253
书中	-9254
了结	-9255
争执	-9256
他以	-9257
仗剑	-9258
体会	-9259
作乱	-9260
作别	-9261
作品	-9262
你打	-9263
使开	-9264
便倒	-9265
便奔	-9266
全意	-9267
冰魄	-9268
凡是	-9269
出任	-9270
别再	-9271
劝他	-9272
动身	-9273
势力	-9274
去跟	-9275
又急	-9276
叮嘱	-9277
吟道	-9278
周牧	-9279
咬紧	-9280
响头	-9281
圆业	-9282
地位	-9283
地底	-9284
场中	-9285
大病	-9286
大道	-9287
太平	-9288
头里	-9289
女剑	-9290
女流	-9291
如同	-9292
孙子	-9293
宁定	-9294
害得	-9295
容让	-9296
将到	-9297
尊重	-9298
就能	-9299
尾巴	-9300
幼小	-9301
弄得	-9302
当前	-9303
形势	-9304
得来	-9305
御敌	-9306
心无	-9307
念道	-9308
怕我	-9309
怨仇	-9310
我帮	-9311
打猎	-9312
承认	-9313
抗御	-9314
拆到	-9315
拔刀	-9316
拜了	-9317
捉摸	-9318
掀开	-9319
推辞	-9320
摇摇	-9321
撒手	-9322
收了	-9323
易如	-9324
有令	-9325
有悔	-9326
朝阳	-9327
来个	-9328
来处	-9329
杭州	-9330
横剑	-9331
欺近	-9332
正人	-9333
正平	-9334
正式	-9335
此节	-9336
母子	-9337
泪道	-9338
狂风	-9339
甬道	-9340
甲板	-9341
男孩	-9342
的死	-9343
皮肉	-9344
目瞪	-9345
直上	-9346
神奇	-9347
神气	-9348
算来	-9349
精力	-9350
纵有	-9351
结结	-9352
缠斗	-9353
自大	-9354
至尾	-9355
若说	-9356
袍子	-9357
西征	-9358
要找	-9359
计策	-9360
貂儿	-9361
贵客	-9362
走路	-9363
赶回	-9364
起落	-9365
轰隆	-9366
过我	-9367
这天	-9368
进洞	-9369
退下	-9370
逃脱	-9371
遇险	-9372
那使	-9373
酒店	-9374
采烈	-9375
间的	-9376
青翼	-9377
非命	-9378
面红	-9379
骨肉	-9380
高处	-9381
高见	-9382
鹰王	-9383
麻雀	-9384
▁一名	-9385
三十招	-9386
个不停	-9387
中的一	-9388
了几眼	-9389
人家的	-9390
冰火岛	-9391
压根儿	-9392
又听得	-9393
只觉得	-9394
和黄蓉	-9395
实不知	-9396
岳老三	-9397
得到了	-9398
心中大	-9399
想不出	-9400
指神丐	-9401
挡得住	-9402
望着他	-9403
杨逍道	-9404
段正明	-9405
流露出	-9406
灵蛇岛	-9407
玉蜂针	-9408
的少女	-9409
的影子	-9410
的来历	-9411
谁要你	-9412
跟你们	-9413
这家伙	-9414
这恶贼	-9415
露出了	-9416
龚光杰	-9417
▁那女子	-9418
▁钟夫人	-9419
令狐兄弟	-9420
令狐少侠	-9421
伸出左手	-9422
低下了头	-9423
全心全意	-9424
兴高采烈	-9425
冰魄银针	-9426
到了何处	-9427
前辈高人	-9428
咬牙切齿	-9429
寂静无声	-9430
寡不敌众	-9431
少林弟子	-9432
左手一挥	-9433
师父师娘	-9434
并肩而行	-9435
成千成万	-9436
数百年来	-9437
无声无息	-9438
无恶不作	-9439
桃叶仙道	-9440
武功卓绝	-9441
武林同道	-9442
精神大振	-9443
西夏公主	-9444
见令狐冲	-9445
言念及此	-9446
说也奇怪	-9447
过了片刻	-9448
这么容易	-9449
这位前辈	-9450
退了两步	-9451
那女子道	-9452
▁定静师太	-9453
到底是什么	-9454
华山派掌门	-9455
的一声大叫	-9456
▁张无忌心想	-9457
一寸	-9458
一抓	-9459
一旦	-9460
一部	-9461
万状	-9462
不值	-9463
不测	-9464
不醒	-9465
不重	-9466
为礼	-9467
举步	-9468
之分	-9469
之学	-9470
之礼	-9471
习练	-9472
云云	-9473
仍在	-9474
从后	-9475
他所	-9476
令她	-9477
任脉	-9478
低低	-9479
你当	-9480
你敢	-9481
停住	-9482
光了	-9483
光头	-9484
兰剑	-9485
兴州	-9486
冲杀	-9487
凑巧	-9488
几十	-9489
出头	-9490
出自	-9491
别怕	-9492
卷起	-9493
原由	-9494
厢房	-9495
去瞧	-9496
又似	-9497
双拳	-9498
口唇	-9499
只知	-9500
各挺	-9501
向里	-9502
周围	-9503
咕咕	-9504
哭叫	-9505
因之	-9506
固是	-9507
地牢	-9508
多礼	-9509
大可	-9510
大意	-9511
头皮	-9512
奔得	-9513
好气	-9514
如雨	-9515
妄想	-9516
学问	-9517
守住	-9518
小叫	-9519
居高	-9520
年中	-9521
座船	-9522
往她	-9523
待她	-9524
徒然	-9525
得甚	-9526
循声	-9527
心狠	-9528
快速	-9529
怕她	-9530
怪物	-9531
总有	-9532
恁地	-9533
恐惧	-9534
恢复	-9535
恩怨	-9536
恶意	-9537
意乱	-9538
意图	-9539
我为	-9540
我好	-9541
我活	-9542
我给	-9543
扑地	-9544
拔都	-9545
拚斗	-9546
拜堂	-9547
拳掌	-9548
推拿	-9549
摩诃	-9550
擒获	-9551
改装	-9552
教人	-9553
无地	-9554
既无	-9555
晚生	-9556
杨家	-9557
极尽	-9558
每年	-9559
气死	-9560
浪子	-9561
渐远	-9562
滑稽	-9563
灰尘	-9564
灿烂	-9565
爽快	-9566
牲口	-9567
牵着	-9568
玩耍	-9569
瑶琴	-9570
痴心	-9571
白白	-9572
的确	-9573
直言	-9574
眺望	-9575
着两	-9576
瞑目	-9577
瞧我	-9578
碍事	-9579
神志	-9580
窟窿	-9581
等了	-9582
精兵	-9583
约约	-9584
继承	-9585
绿色	-9586
缩身	-9587
老伯	-9588
背诵	-9589
胡思	-9590
能在	-9591
脉门	-9592
自创	-9593
自小	-9594
船只	-9595
艺术	-9596
芳姑	-9597
若干	-9598
莫要	-9599
藏着	-9600
虽无	-9601
行为	-9602
行止	-9603
要取	-9604
记住	-9605
说去	-9606
走啦	-9607
过后	-9608
运用	-9609
连日	-9610
连问	-9611
那部	-9612
铁锤	-9613
锋利	-9614
顿足	-9615
▁不料	-9616
▁两名	-9617
▁可是	-9618
▁范蠡	-9619
一上来	-9620
上了手	-9621
上前来	-9622
不可当	-9623
了一把	-9624
了一道	-9625
从腰间	-9626
他夫妇	-9627
他的话	-9628
似乎是	-9629
你二人	-9630
其中的	-9631
又如何	-9632
只震得	-9633
咱们先	-9634
在脸上	-9635
孤零零	-9636
将长剑	-9637
岳老二	-9638
师伯叔	-9639
得厉害	-9640
怔怔地	-9641
成不忧	-9642
我宁可	-9643
我这个	-9644
挡住了	-9645
是一片	-9646
没半分	-9647
活死人	-9648
王府中	-9649
生平最	-9650
白骨爪	-9651
的剑招	-9652
的那个	-9653
第二人	-9654
脸一沉	-9655
自己人	-9656
见段誉	-9657
见黄蓉	-9658
谢前辈	-9659
跟着便	-9660
那自是	-9661
错了人	-9662
▁丁敏君	-9663
▁梁子翁	-9664
▁黑白子	-9665
一人说道	-9666
不好意思	-9667
两人同时	-9668
九指神丐	-9669
什么时候	-9670
内力深厚	-9671
听他说得	-9672
太皇太后	-9673
如此厉害	-9674
少说也有	-9675
张松溪道	-9676
思潮起伏	-9677
报仇雪恨	-9678
无不骇然	-9679
明教教主	-9680
曼陀山庄	-9681
束手无策	-9682
武功之高	-9683
眼前一黑	-9684
胡思乱想	-9685
脸上肌肉	-9686
诡计多端	-9687
这样一位	-9688
连连摇头	-9689
邪魔外道	-9690
隐隐约约	-9691
▁此言一出	-9692
▁洪七公道	-9693
九阴白骨爪	-9694
这些日子来	-9695
一挺	-9696
一曲	-9697
七位	-9698
万马	-9699
三道	-9700
上台	-9701
不允	-9702
世子	-9703
为怀	-9704
也甚	-9705
争辩	-9706
亢龙	-9707
从长	-9708
他曾	-9709
仰头	-9710
休想	-9711
伤感	-9712
伤药	-9713
俘虏	-9714
偷学	-9715
偷盗	-9716
内脏	-9717
决定	-9718
凭着	-9719
刀枪	-9720
助你	-9721
医仙	-9722
医生	-9723
半枚	-9724
反对	-9725
口呆	-9726
可想	-9727
后领	-9728
听我	-9729
命的	-9730
哭声	-9731
嗖嗖	-9732
堪堪	-9733
塞入	-9734
士卒	-9735
大字	-9736
夺去	-9737
奇快	-9738
奴才	-9739
她既	-9740
姿势	-9741
官人	-9742
害了	-9743
小半	-9744
山的	-9745
岂肯	-9746
己方	-9747
强盗	-9748
微觉	-9749
微蹙	-9750
心花	-9751
快了	-9752
怒放	-9753
怨毒	-9754
恨我	-9755
惊恐	-9756
我且	-9757
所料	-9758
攻到	-9759
救治	-9760
敝教	-9761
敬畏	-9762
断臂	-9763
施为	-9764
无关	-9765
日上	-9766
曲子	-9767
未定	-9768
板门	-9769
林家	-9770
样的	-9771
正邪	-9772
比较	-9773
气概	-9774
沙弥	-9775
沮丧	-9776
泪珠	-9777
滚开	-9778
火刀	-9779
火花	-9780
烂漫	-9781
照耀	-9782
爹妈	-9783
牵了	-9784
牵连	-9785
狰狞	-9786
猛恶	-9787
玄素	-9788
甚轻	-9789
皆知	-9790
直飞	-9791
相通	-9792
睡着	-9793
磕了	-9794
窗子	-9795
简直	-9796
约定	-9797
约有	-9798
纵是	-9799
结拜	-9800
耻笑	-9801
耿耿	-9802
胡虏	-9803
苦于	-9804
莽撞	-9805
虚招	-9806
血流	-9807
衣饰	-9808
要了	-9809
记号	-9810
记忆	-9811
越看	-9812
越过	-9813
足印	-9814
运使	-9815
这批	-9816
远图	-9817
退回	-9818
送来	-9819
里去	-9820
锦袍	-9821
长了	-9822
长身	-9823
长风	-9824
面临	-9825
鳄鱼	-9826
齐心	-9827
▁说着	-9828
不容易	-9829
之极了	-9830
也都是	-9831
了几口	-9832
他不知	-9833
他们是	-9834
却何以	-9835
又见他	-9836
受重伤	-9837
只是她	-9838
向师父	-9839
周颠道	-9840
和杨过	-9841
咱们在	-9842
在一个	-9843
好好地	-9844
好小子	-9845
宁死不	-9846
庄聚贤	-9847
张大了	-9848
掌旗使	-9849
斗不过	-9850
昂然道	-9851
有此理	-9852
海沙派	-9853
百忙中	-9854
的手腕	-9855
知道我	-9856
立不动	-9857
第一大	-9858
给你听	-9859
腊八粥	-9860
起眉头	-9861
跟咱们	-9862
这一着	-9863
这一节	-9864
这人的	-9865
这时听	-9866
这般说	-9867
院子中	-9868
▁邓百川	-9869
一个小小	-9870
一柄长剑	-9871
一见之下	-9872
一败涂地	-9873
临死之时	-9874
亢龙有悔	-9875
从所未见	-9876
全然不同	-9877
在令狐冲	-9878
坐了下来	-9879
平平无奇	-9880
心花怒放	-9881
怒目而视	-9882
性命不保	-9883
恨恨地道	-9884
情花之毒	-9885
所作所为	-9886
掌门师叔	-9887
摔倒在地	-9888
救命之恩	-9889
数丈之外	-9890
易如反掌	-9891
涔涔而下	-9892
玄冥神掌	-9893
目瞪口呆	-9894
相距不过	-9895
瞬息之间	-9896
知道自己	-9897
站直身子	-9898
蒙古武士	-9899
话未说完	-9900
说些什么	-9901
走上几步	-9902
身子摇晃	-9903
这个自然	-9904
那少年道	-9905
除此之外	-9906
青城弟子	-9907
青翼蝠王	-9908
▁林平之道	-9909
南海鳄神道	-9910
金毛狮王谢逊	-9911
、‘	-9912
一瞧	-9913
一筹	-9914
三头	-9915
三拳	-9916
不入	-9917
不坏	-9918
不干	-9919
不给	-9920
与我	-9921
两处	-9922
两天	-9923
之深	-9924
之面	-9925
也知	-9926
也觉	-9927
二武	-9928
人群	-9929
仓促	-9930
任意	-9931
传他	-9932
佛像	-9933
作个	-9934
你都	-9935
侍候	-9936
便没	-9937
信步	-9938
僧袍	-9939
元气	-9940
克敌	-9941
关系	-9942
兴奋	-9943
其内	-9944
凶猛	-9945
出丑	-9946
分为	-9947
利刃	-9948
刺他	-9949
勇士	-9950
化去	-9951
北极	-9952
十指	-9953
半日	-9954
却未	-9955
厨房	-9956
双刀	-9957
发泄	-9958
另行	-9959
各门	-9960
哪个	-9961
四剑	-9962
坚硬	-9963
城墙	-9964
处女	-9965
多月	-9966
大阵	-9967
天边	-9968
太远	-9969
奇门	-9970
奔回	-9971
如花	-9972
娶了	-9973
娶她	-9974
婚姻	-9975
宝树	-9976
尊主	-9977
尊敬	-9978
尚自	-9979
已深	-9980
弟妹	-9981
待见	-9982
心服	-9983
心肝	-9984
恃无	-9985
懊悔	-9986
所创	-9987
扑鼻	-9988
抢在	-9989
挨打	-9990
捏造	-9991
推去	-9992
提醒	-9993
摔出	-9994
政治	-9995
无怪	-9996
无故	-9997
无锡	-9998
是活	-9999
最强	-10000
有命	-10001
服色	-10002
母女	-10003
沿途	-10004
流云	-10005
漠北	-10006
火药	-10007
灰衣	-10008
烟雨	-10009
烧了	-10010
琴谱	-10011
生病	-10012
用兵	-10013
白纸	-10014
白马	-10015
的美	-10016
的说	-10017
相触	-10018
睡了	-10019
睡得	-10020
瞪眼	-10021
石郎	-10022
第八	-10023
算账	-10024
纷飞	-10025
绑缚	-10026
翻过	-10027
而落	-10028
能耐	-10029
脚力	-10030
脸皮	-10031
腋下	-10032
船身	-10033
苦心	-10034
行踪	-10035
费力	-10036
足尖	-10037
跪拜	-10038
踢开	-10039
还说	-10040
这群	-10041
进招	-10042
道袍	-10043
那条	-10044
酒壶	-10045
金创	-10046
金杵	-10047
铁头	-10048
雷动	-10049
非笑	-10050
靠在	-10051
领头	-10052
驱除	-10053
骂他	-10054
骂你	-10055
骨骼	-10056
麻木	-10057
▁群丐	-10058
七八糟	-10059
不小心	-10060
余下的	-10061
你们要	-10062
你可别	-10063
你对我	-10064
光闪烁	-10065
其实是	-10066
再也没	-10067
十多年	-10068
只怕要	-10069
向众人	-10070
向黄蓉	-10071
吕正平	-10072
听到她	-10073
好一阵	-10074
对准了	-10075
屋顶上	-10076
思过崖	-10077
恃无恐	-10078
抢过去	-10079
数百名	-10080
料到他	-10081
木岛主	-10082
死不了	-10083
每个人	-10084
法王道	-10085
王元霸	-10086
男弟子	-10087
的劲力	-10088
的方位	-10089
称之为	-10090
窍不通	-10091
给师父	-10092
老伯伯	-10093
胜得过	-10094
能不能	-10095
自不免	-10096
自己却	-10097
要不然	-10098
见到你	-10099
许多人	-10100
这么好	-10101
连人带	-10102
那时我	-10103
钟灵道	-10104
韦蝠王	-10105
魂飞魄	-10106
▁何太冲	-10107
▁樊一翁	-10108
▁那老人	-10109
▁黄钟公	-10110
一个念头	-10111
也决不能	-10112
了他性命	-10113
五根手指	-10114
从今而后	-10115
从头至尾	-10116
体内真气	-10117
内心深处	-10118
几个时辰	-10119
坐起身来	-10120
大声喝彩	-10121
天下无双	-10122
岂有此理	-10123
昆仑三圣	-10124
智光大师	-10125
欧阳锋的	-10126
正人君子	-10127
死于非命	-10128
的声音道	-10129
的是什么	-10130
神雕大侠	-10131
纹丝不动	-10132
英雄大会	-10133
说到后来	-10134
赏善罚恶	-10135
轻飘飘的	-10136
那也不用	-10137
▁王语嫣道	-10138
洪七公笑道	-10139
的一声惊呼	-10140
一层	-10141
一紧	-10142
一记	-10143
一连	-10144
万丈	-10145
三只	-10146
不为	-10147
不肖	-10148
世事	-10149
两件	-10150
之身	-10151
乌云	-10152
事务	-10153
仇松	-10154
众女	-10155
似笑	-10156
但对	-10157
佛家	-10158
便从	-10159
保重	-10160
俟机	-10161
倚多	-10162
催动	-10163
兵法	-10164
其名	-10165
内外	-10166
再将	-10167
再想	-10168
再有	-10169
再没	-10170
冰冰	-10171
冲去	-10172
凄苦	-10173
分尸	-10174
别让	-10175
刺瞎	-10176
剑势	-10177
助我	-10178
勃勃	-10179
取得	-10180
吁吁	-10181
同到	-10182
后着	-10183
唐文	-10184
唾沫	-10185
善恶	-10186
多数	-10187
大亏	-10188
大恶	-10189
大碍	-10190
大礼	-10191
夺过	-10192
奇速	-10193
奇险	-10194
奔逃	-10195
奸臣	-10196
好快	-10197
妇女	-10198
妖邪	-10199
威势	-10200
威德	-10201
宝石	-10202
家父	-10203
宽心	-10204
寒噤	-10205
小道	-10206
屈指	-10207
属于	-10208
巨木	-10209
带领	-10210
幅画	-10211
床前	-10212
当做	-10213
很久	-10214
急促	-10215
急转	-10216
愈是	-10217
意下	-10218
意外	-10219
我求	-10220
我辈	-10221
我问	-10222
手辣	-10223
抑制	-10224
抹去	-10225
拉起	-10226
掉了	-10227
接待	-10228
撞得	-10229
放过	-10230
数下	-10231
方圆	-10232
族人	-10233
晕倒	-10234
服输	-10235
木屋	-10236
杏子	-10237
极力	-10238
架开	-10239
椅中	-10240
欣喜	-10241
歇宿	-10242
此计	-10243
武人	-10244
气闷	-10245
流动	-10246
流转	-10247
清啸	-10248
清虚	-10249
渗出	-10250
灵丹	-10251
照着	-10252
牛羊	-10253
现代	-10254
痛恨	-10255
百计	-10256
的妙	-10257
监视	-10258
相击	-10259
相当	-10260
相碰	-10261
相询	-10262
眼角	-10263
稀松	-10264
竖起	-10265
纯熟	-10266
维护	-10267
缚住	-10268
自保	-10269
行人	-10270
西方	-10271
见见	-10272
解脱	-10273
计谋	-10274
试演	-10275
诚心	-10276
详细	-10277
说些	-10278
诸女	-10279
谁说	-10280
谭处	-10281
走一	-10282
足足	-10283
软软	-10284
这倒	-10285
远离	-10286
逼问	-10287
都感	-10288
酒香	-10289
铁罩	-10290
铸成	-10291
锦衫	-10292
长臂	-10293
隐身	-10294
鞭子	-10295
领路	-10296
飘然	-10297
饭店	-10298
饱了	-10299
驴子	-10300
骡车	-10301
鸳鸯	-10302
’、‘	-10303
▁又过	-10304
一只大	-10305
不敢多	-10306
不肯说	-10307
不足以	-10308
临死时	-10309
他三人	-10310
他不过	-10311
他说话	-10312
你说我	-10313
信得过	-10314
做什么	-10315
凄然道	-10316
到今日	-10317
动不动	-10318
却不见	-10319
只听她	-10320
只道是	-10321
听不到	-10322
唐文亮	-10323
在门外	-10324
宋大侠	-10325
宝树王	-10326
小林子	-10327
得片刻	-10328
我就是	-10329
打了他	-10330
抢上去	-10331
拉着他	-10332
拍手道	-10333
握住了	-10334
摸不着	-10335
无声息	-10336
无言可	-10337
无量山	-10338
是否能	-10339
有一事	-10340
有一人	-10341
有的是	-10342
枣核钉	-10343
死不救	-10344
没见过	-10345
猜到了	-10346
用得着	-10347
的一剑	-10348
的一番	-10349
的讯息	-10350
着一张	-10351
知客僧	-10352
禁不住	-10353
第三次	-10354
翻来覆	-10355
而不见	-10356
而为一	-10357
蛛儿道	-10358
身子已	-10359
身子微	-10360
转马头	-10361
这一场	-10362
这一抓	-10363
这么想	-10364
这小贼	-10365
这时却	-10366
远不如	-10367
那二人	-10368
锭银子	-10369
雪地里	-10370
马蹄声	-10371
黑衣人	-10372
▁丹青生	-10373
▁乔峰道	-10374
▁左子穆	-10375
▁木高峰	-10376
▁龙岛主	-10377
一把抓住	-10378
三十六洞	-10379
不敢再说	-10380
九阳真气	-10381
乱七八糟	-10382
五派合并	-10383
似笑非笑	-10384
北冥神功	-10385
半点也不	-10386
哪里还能	-10387
四肢百骸	-10388
在地下一	-10389
将他身子	-10390
岂不是好	-10391
本来面目	-10392
武功再高	-10393
气喘吁吁	-10394
深不可测	-10395
笑嘻嘻的	-10396
自今而后	-10397
见他如此	-10398
说到此处	-10399
走上前去	-10400
赵敏笑道	-10401
跳了起来	-10402
这么大的	-10403
锦衫剑士	-10404
隐隐传来	-10405
隔了良久	-10406
青袍客道	-10407
魂飞魄散	-10408
张无忌笑道	-10409
一个女子声音	-10410
一说	-10411
七夜	-10412
上代	-10413
不与	-10414
不屑	-10415
不改	-10416
不攻	-10417
世代	-10418
两仪	-10419
为奇	-10420
义弟	-10421
五名	-10422
伯流	-10423
余暇	-10424
修罗	-10425
倒霉	-10426
催马	-10427
公平	-10428
六阳	-10429
共同	-10430
写得	-10431
冲哥	-10432
几条	-10433
刀锋	-10434
刚要	-10435
削去	-10436
加劲	-10437
加紧	-10438
博大	-10439
原该	-10440
厮杀	-10441
发难	-10442
叽哩	-10443
各持	-10444
名裂	-10445
吞吐	-10446
周遭	-10447
呼叱	-10448
命我	-10449
四女	-10450
回山	-10451
地狱	-10452
境内	-10453
墓前	-10454
墙外	-10455
墙角	-10456
大刀	-10457
大臣	-10458
大败	-10459
大辽	-10460
太祖	-10461
奇事	-10462
奸诈	-10463
她和	-10464
好苦	-10465
如能	-10466
妖魔	-10467
宋军	-10468
对待	-10469
寻觅	-10470
将近	-10471
小翠	-10472
尸横	-10473
屋内	-10474
师命	-10475
帐外	-10476
平庸	-10477
应该	-10478
形式	-10479
快乐	-10480
怎的	-10481
怎肯	-10482
悬空	-10483
我会	-10484
所用	-10485
折辱	-10486
抛去	-10487
护教	-10488
拔足	-10489
拚个	-10490
拜我	-10491
掩面	-10492
摸出	-10493
救她	-10494
斟酒	-10495
断绝	-10496
无方	-10497
明了	-10498
晦气	-10499
晶莹	-10500
有好	-10501
有幸	-10502
未及	-10503
架子	-10504
株大	-10505
横刀	-10506
此剑	-10507
此去	-10508
毒酒	-10509
江中	-10510
江水	-10511
污秽	-10512
流露	-10513
清泉	-10514
滚来	-10515
王盘	-10516
珍珑	-10517
甚深	-10518
疑难	-10519
白布	-10520
的真	-10521
的血	-10522
相烦	-10523
硬接	-10524
神尼	-10525
竹林	-10526
绝学	-10527
而他	-10528
联络	-10529
肩膀	-10530
肮脏	-10531
胆大	-10532
自若	-10533
花香	-10534
苍生	-10535
茅屋	-10536
茶杯	-10537
落魄	-10538
赶上	-10539
跳跃	-10540
踢中	-10541
踪影	-10542
转为	-10543
辈份	-10544
辽人	-10545
连绵	-10546
遭了	-10547
重围	-10548
铁面	-10549
铜镜	-10550
银两	-10551
锦帕	-10552
院子	-10553
霸道	-10554
额上	-10555
龙鞭	-10556
▁四人	-10557
▁待得	-10558
▁马钰	-10559
一直在	-10560
不舒服	-10561
了一招	-10562
什么话	-10563
他双手	-10564
你也不	-10565
你只须	-10566
你说得	-10567
出一掌	-10568
却仍是	-10569
却如何	-10570
只怕他	-10571
史帮主	-10572
和郭靖	-10573
咱们快	-10574
在何处	-10575
女真人	-10576
寻常的	-10577
师叔祖	-10578
心中又	-10579
心头一	-10580
心满意	-10581
惑不解	-10582
我不会	-10583
我不要	-10584
我怎会	-10585
我这就	-10586
打什么	-10587
救了我	-10588
是丐帮	-10589
本来是	-10590
没说完	-10591
淡淡的	-10592
狼牙棒	-10593
瑞婆婆	-10594
的一片	-10595
的故事	-10596
的眼睛	-10597
知道的	-10598
给我滚	-10599
罗汉堂	-10600
见到我	-10601
转念间	-10602
过了头	-10603
还没死	-10604
这一惊	-10605
逃不了	-10606
那男子	-10607
那道姑	-10608
铁叉会	-10609
黄伯流	-10610
黯然道	-10611
▁徐长老	-10612
▁石清道	-10613
▁那书生	-10614
▁那老僧	-10615
一时三刻	-10616
一阵剧痛	-10617
不可不戒	-10618
不计其数	-10619
不论如何	-10620
两名弟子	-10621
你说甚么	-10622
保定帝道	-10623
修习内功	-10624
倒也不错	-10625
到了这里	-10626
前后左右	-10627
双手合十	-10628
呼呼风响	-10629
在少林寺	-10630
坐倒在地	-10631
大呼小叫	-10632
天真烂漫	-10633
好得很啊	-10634
完颜洪熙	-10635
将令狐冲	-10636
将我杀了	-10637
尽心竭力	-10638
得远远的	-10639
心狠手辣	-10640
手中接过	-10641
搂在怀里	-10642
方生大师	-10643
武穆遗书	-10644
毫不理会	-10645
甚么名字	-10646
空荡荡的	-10647
给我瞧瞧	-10648
脸露微笑	-10649
袖手旁观	-10650
郭靖夫妇	-10651
不知有多少	-10652
令狐师兄道	-10653
一挡	-10654
一经	-10655
一送	-10656
丁坚	-10657
万钧	-10658
不睬	-10659
不防	-10660
两国	-10661
举掌	-10662
之象	-10663
乔某	-10664
九个	-10665
五十	-10666
五姑	-10667
人亡	-10668
人参	-10669
他人	-10670
他到	-10671
他竟	-10672
仙人	-10673
众生	-10674
似在	-10675
但仍	-10676
你啊	-10677
依样	-10678
俱伤	-10679
傲慢	-10680
兰竹	-10681
切磋	-10682
别无	-10683
剑的	-10684
劲草	-10685
包兄	-10686
北京	-10687
半寸	-10688
华贵	-10689
又到	-10690
又听	-10691
受苦	-10692
右侧	-10693
同来	-10694
呕血	-10695
周旋	-10696
唱道	-10697
喜怒	-10698
嘴边	-10699
囊中	-10700
四仙	-10701
四姝	-10702
回护	-10703
国王	-10704
在于	-10705
地转	-10706
垂手	-10707
多多	-10708
多活	-10709
大口	-10710
大火	-10711
大言	-10712
头儿	-10713
夺得	-10714
她为	-10715
她要	-10716
如其	-10717
子手	-10718
安睡	-10719
实已	-10720
宰了	-10721
小女	-10722
尽量	-10723
已为	-10724
已毕	-10725
座位	-10726
异种	-10727
弯曲	-10728
微动	-10729
怒容	-10730
思归	-10731
性儿	-10732
总管	-10733
悲痛	-10734
情理	-10735
惊动	-10736
愁眉	-10737
我劝	-10738
我带	-10739
我总	-10740
我死	-10741
所居	-10742
拈花	-10743
拔起	-10744
摔入	-10745
摔在	-10746
摸摸	-10747
攀援	-10748
改扮	-10749
放火	-10750
敷上	-10751
既出	-10752
日来	-10753
时间	-10754
晕眩	-10755
最大	-10756
有失	-10757
有愧	-10758
杆棒	-10759
板壁	-10760
桌椅	-10761
气势	-10762
水声	-10763
求饶	-10764
没趣	-10765
海外	-10766
渔隐	-10767
火来	-10768
点亮	-10769
点他	-10770
点到	-10771
焦虑	-10772
狠心	-10773
王志	-10774
略有	-10775
疑窦	-10776
白天	-10777
皇位	-10778
直奔	-10779
相抵	-10780
眉心	-10781
矫捷	-10782
砍下	-10783
研习	-10784
筋疲	-10785
筋骨	-10786
精奇	-10787
精研	-10788
细微	-10789
绝世	-10790
而得	-10791
自非	-10792
船板	-10793
虽大	-10794
袖中	-10795
要知	-10796
解穴	-10797
讨教	-10798
谁敢	-10799
负了	-10800
负着	-10801
贵教	-10802
起始	-10803
足踝	-10804
过不	-10805
还可	-10806
这恶	-10807
进击	-10808
重又	-10809
铁钉	-10810
铐镣	-10811
锦缎	-10812
附体	-10813
顶门	-10814
飘忽	-10815
飘逸	-10816
饶你	-10817
驰来	-10818
骑了	-10819
▁第二	-10820
▁阿碧	-10821
一无所	-10822
不成话	-10823
也不去	-10824
了一般	-10825
二师父	-10826
他心下	-10827
他手腕	-10828
你刚才	-10829
你好好	-10830
你待我	-10831
你身子	-10832
你这个	-10833
做和尚	-10834
冷冰冰	-10835
剑法中	-10836
却原来	-10837
古怪的	-10838
吴劲草	-10839
吴长风	-10840
咱们去	-10841
哼一声	-10842
四十来	-10843
回头向	-10844
头也不	-10845
好大的	-10846
小时候	-10847
巨鲸帮	-10848
意思说	-10849
我身上	-10850
所授的	-10851
掌心中	-10852
摇摇晃	-10853
摸出一	-10854
敌不过	-10855
方证道	-10856
旁人的	-10857
明晃晃	-10858
是天下	-10859
更无别	-10860
殊不知	-10861
江南四	-10862
治好了	-10863
点了他	-10864
独个儿	-10865
王保保	-10866
白师傅	-10867
的伤势	-10868
的神气	-10869
睡梦中	-10870
老者道	-10871
蝴蝶谷	-10872
说着便	-10873
败俱伤	-10874
起手来	-10875
跟着我	-10876
这一脚	-10877
这几位	-10878
这少女	-10879
遇到了	-10880
那怎么	-10881
长春子	-10882
▁全冠清	-10883
▁那宫女	-10884
▁韩小莹	-10885
一个人来	-10886
你死我活	-10887
俞莲舟道	-10888
全身发抖	-10889
到了极处	-10890
十余丈外	-10891
叽哩咕噜	-10892
名门正派	-10893
哭了起来	-10894
定了主意	-10895
摇摇晃晃	-10896
摔在地下	-10897
方丈师兄	-10898
武功虽强	-10899
段誉笑道	-10900
比武招亲	-10901
稀松平常	-10902
突然见到	-10903
站了起来	-10904
精神一振	-10905
脸色苍白	-10906
英雄大宴	-10907
见他脸色	-10908
负心薄幸	-10909
越来越是	-10910
跪下磕头	-10911
马夫人道	-10912
了一个多时辰	-10913
一拐	-10914
一搭	-10915
一气	-10916
一臂	-10917
一跤	-10918
一跳	-10919
一边	-10920
七名	-10921
七星	-10922
万夫	-10923
三岁	-10924
三更	-10925
下拜	-10926
不救	-10927
不欲	-10928
不满	-10929
不白	-10930
与那	-10931
两行	-10932
中已	-10933
中秋	-10934
之形	-10935
之敌	-10936
之机	-10937
乘坐	-10938
乱打	-10939
互搏	-10940
五丑	-10941
他向	-10942
他怕	-10943
令郎	-10944
休得	-10945
伤你	-10946
俊雅	-10947
信阳	-10948
修练	-10949
倾心	-10950
做的	-10951
偷了	-10952
催促	-10953
光胜	-10954
八部	-10955
关上	-10956
兴致	-10957
再难	-10958
冒昧	-10959
写了	-10960
冲击	-10961
冲到	-10962
几上	-10963
出身	-10964
分成	-10965
到地	-10966
勤修	-10967
千钟	-10968
却如	-10969
却甚	-10970
厮守	-10971
参详	-10972
发挥	-10973
发烧	-10974
口鼻	-10975
叫骂	-10976
含意	-10977
味道	-10978
啧啧	-10979
四散	-10980
圣使	-10981
在世	-10982
复仇	-10983
大险	-10984
大非	-10985
天空	-10986
失声	-10987
失笑	-10988
头戴	-10989
夹手	-10990
奉上	-10991
奸谋	-10992
她也	-10993
她对	-10994
如今	-10995
如要	-10996
娇艳	-10997
学着	-10998
实难	-10999
小了	-11000
小路	-11001
少有	-11002
尽快	-11003
屏息	-11004
山边	-11005
岸边	-11006
巧巧	-11007
巧语	-11008
已全	-11009
已失	-11010
帮规	-11011
干预	-11012
往外	-11013
心跳	-11014
忠义	-11015
怕了	-11016
总坛	-11017
惊醒	-11018
我能	-11019
所及	-11020
打坐	-11021
折而	-11022
抚养	-11023
抚琴	-11024
担当	-11025
拜访	-11026
拿手	-11027
推想	-11028
摆脱	-11029
摔跌	-11030
撇下	-11031
敌兵	-11032
方才	-11033
既知	-11034
早在	-11035
未见	-11036
本书	-11037
机警	-11038
来向	-11039
枉了	-11040
枪法	-11041
楼上	-11042
欣慰	-11043
此刀	-11044
此次	-11045
毙了	-11046
水上	-11047
水蛭	-11048
求他	-11049
求生	-11050
汗血	-11051
泥沙	-11052
洞内	-11053
派遣	-11054
消解	-11055
渐近	-11056
滔滔	-11057
满口	-11058
满天	-11059
狡狯	-11060
玄生	-11061
玩弄	-11062
珊儿	-11063
目中	-11064
相爱	-11065
着着	-11066
确有	-11067
碧螺	-11068
神驰	-11069
精奥	-11070
紧了	-11071
累了	-11072
红的	-11073
线索	-11074
经中	-11075
美的	-11076
翻地	-11077
而尽	-11078
而成	-11079
而逃	-11080
胸襟	-11081
自已	-11082
致命	-11083
芙妹	-11084
花刺	-11085
花言	-11086
荒僻	-11087
虎虎	-11088
观世	-11089
触手	-11090
谢某	-11091
贪图	-11092
贴身	-11093
赤手	-11094
跨出	-11095
软筋	-11096
轻拍	-11097
过你	-11098
违背	-11099
连攻	-11100
迸裂	-11101
送死	-11102
那柄	-11103
重手	-11104
量力	-11105
金人	-11106
闭上	-11107
阻挡	-11108
附和	-11109
难了	-11110
非为	-11111
非死	-11112
驰去	-11113
高的	-11114
鬼魂	-11115
!’”	-11116
▁其实	-11117
一咬牙	-11118
七八个	-11119
三个月	-11120
上门来	-11121
不是的	-11122
不眨眼	-11123
不过的	-11124
两句话	-11125
也说不	-11126
于人豪	-11127
仇松年	-11128
从地下	-11129
众高手	-11130
但郭靖	-11131
俞三侠	-11132
十八名	-11133
却见他	-11134
只有一	-11135
向敌人	-11136
哪里有	-11137
在大理	-11138
好汉子	-11139
客气了	-11140
小畜生	-11141
少镖头	-11142
居然还	-11143
张兄弟	-11144
成自学	-11145
我武功	-11146
手指上	-11147
拿住了	-11148
每日里	-11149
治不好	-11150
流云使	-11151
的一条	-11152
的为是	-11153
的帮主	-11154
眼前金	-11155
着脸道	-11156
纪姑姑	-11157
老太婆	-11158
老婆子	-11159
耶律晋	-11160
许多多	-11161
谭处端	-11162
这一声	-11163
这人是	-11164
这四个	-11165
这时已	-11166
远远传	-11167
远远地	-11168
逃走了	-11169
道人的	-11170
道人道	-11171
▁慕容博	-11172
▁萧远山	-11173
一听之下	-11174
一声长叹	-11175
一瞥眼间	-11176
一跃而起	-11177
七十二岛	-11178
不老长春	-11179
不耐烦了	-11180
却也不敢	-11181
听在耳里	-11182
命在顷刻	-11183
和岳灵珊	-11184
咱们还是	-11185
好生佩服	-11186
孤身一人	-11187
完颜康道	-11188
影踪不见	-11189
心下暗暗	-11190
惊疑不定	-11191
想到这里	-11192
拜堂成亲	-11193
无色禅师	-11194
李莫愁道	-11195
林震南道	-11196
汗血宝马	-11197
活在世上	-11198
程大小姐	-11199
花言巧语	-11200
见死不救	-11201
许许多多	-11202
起了眉头	-11203
跪在地下	-11204
轻轻巧巧	-11205
这八个字	-11206
这是什么	-11207
雪山派的	-11208
魂不附体	-11209
黑夜之中	-11210
默然不语	-11211
▁丘处机道	-11212
▁包不同道	-11213
▁杨过心想	-11214
▁那少女道	-11215
奈何他不得	-11216
少林寺方丈	-11217
我爹爹妈妈	-11218
派的掌门人	-11219
清清楚楚地	-11220
耳边低声道	-11221
一万	-11222
一匹	-11223
一松	-11224
七道	-11225
三成	-11226
下棋	-11227
下流	-11228
不报	-11229
不暇	-11230
不治	-11231
不脱	-11232
不言	-11233
两半	-11234
两指	-11235
两穴	-11236
个性	-11237
为笑	-11238
之争	-11239
之技	-11240
九成	-11241
事后	-11242
于嫂	-11243
于这	-11244
五子	-11245
人氏	-11246
他能	-11247
令我	-11248
伤她	-11249
伤重	-11250
何尝	-11251
何用	-11252
你且	-11253
你家	-11254
你看	-11255
你虽	-11256
便死	-11257
修炼	-11258
偷看	-11259
僵硬	-11260
兄台	-11261
光大	-11262
八十	-11263
六腑	-11264
再到	-11265
决心	-11266
几岁	-11267
击到	-11268
分离	-11269
削断	-11270
劈去	-11271
力大	-11272
十香	-11273
千灵	-11274
半年	-11275
南征	-11276
却能	-11277
又会	-11278
双全	-11279
双轮	-11280
发光	-11281
取下	-11282
叮叮	-11283
可又	-11284
右颊	-11285
吃完	-11286
后发	-11287
后艄	-11288
吸血	-11289
周到	-11290
周怕	-11291
咬住	-11292
唠叨	-11293
四海	-11294
回思	-11295
多承	-11296
大吼	-11297
大椎	-11298
大片	-11299
天井	-11300
天资	-11301
太重	-11302
头脸	-11303
头骨	-11304
夺眶	-11305
奉承	-11306
奔腾	-11307
如来	-11308
妙计	-11309
娇媚	-11310
嫂子	-11311
宝物	-11312
尹赵	-11313
差得	-11314
已近	-11315
帮着	-11316
异样	-11317
忧色	-11318
急退	-11319
情郎	-11320
惨然	-11321
慈和	-11322
我得	-11323
我打	-11324
截然	-11325
所得	-11326
所指	-11327
打落	-11328
报应	-11329
拍落	-11330
指使	-11331
指尖	-11332
挑了	-11333
摔下	-11334
放脱	-11335
故人	-11336
敌一	-11337
救活	-11338
斥责	-11339
无边	-11340
木棒	-11341
杀她	-11342
杀着	-11343
来者	-11344
极恶	-11345
果是	-11346
枝叶	-11347
樵子	-11348
欢声	-11349
此招	-11350
死啦	-11351
死灰	-11352
毒箭	-11353
气地	-11354
水落	-11355
汹涌	-11356
泥土	-11357
海角	-11358
清秀	-11359
潜入	-11360
炯炯	-11361
烟雾	-11362
爬上	-11363
狗子	-11364
珍贵	-11365
理所	-11366
相应	-11367
相扶	-11368
相敬	-11369
相称	-11370
相陪	-11371
神采	-11372
空拳	-11373
竟在	-11374
管他	-11375
粗鲁	-11376
精进	-11377
缘由	-11378
缰绳	-11379
羞得	-11380
脑浆	-11381
脑筋	-11382
落空	-11383
虽强	-11384
被封	-11385
褴褛	-11386
要向	-11387
要打	-11388
要死	-11389
解说	-11390
诸子	-11391
谅来	-11392
谈何	-11393
谢过	-11394
足以	-11395
跌得	-11396
踏进	-11397
身败	-11398
转到	-11399
运转	-11400
还剑	-11401
还给	-11402
这剑	-11403
这首	-11404
追问	-11405
透出	-11406
逼人	-11407
邪术	-11408
酣斗	-11409
里外	-11410
重会	-11411
重视	-11412
铸剑	-11413
长子	-11414
长流	-11415
阿黄	-11416
陪伴	-11417
雕兄	-11418
面容	-11419
顾全	-11420
领袖	-11421
骨气	-11422
鼎鼎	-11423
齐断	-11424
一品堂	-11425
一起去	-11426
三十二	-11427
上一拍	-11428
不可以	-11429
不高兴	-11430
为的是	-11431
之人的	-11432
乘人之	-11433
了一碗	-11434
了一脚	-11435
了半日	-11436
二十来	-11437
五十来	-11438
从哪里	-11439
他口中	-11440
你今日	-11441
便在这	-11442
傻姑道	-11443
却十分	-11444
又好笑	-11445
又想起	-11446
可是她	-11447
因此上	-11448
在杨过	-11449
地不怕	-11450
大师伯	-11451
天不怕	-11452
天翻地	-11453
奋不顾	-11454
少年时	-11455
就只怕	-11456
强好胜	-11457
怎么说	-11458
慢慢再	-11459
我今日	-11460
我几时	-11461
手背上	-11462
手腕上	-11463
放开我	-11464
斜刺里	-11465
易三娘	-11466
是好人	-11467
武学的	-11468
水落石	-11469
父亲的	-11470
甚么人	-11471
白师哥	-11472
的一拳	-11473
的正是	-11474
的武学	-11475
的男子	-11476
的行径	-11477
着身子	-11478
瞧着他	-11479
红了脸	-11480
给我们	-11481
老太太	-11482
臭道士	-11483
船舱中	-11484
英雄帖	-11485
萧大王	-11486
裘千丈	-11487
要将他	-11488
要杀你	-11489
说起来	-11490
说错了	-11491
谢法王	-11492
贪生怕	-11493
趟子手	-11494
软筋散	-11495
这一手	-11496
这老贼	-11497
远胜于	-11498
那一招	-11499
那两人	-11500
那农夫	-11501
门弟子	-11502
鬼头刀	-11503
鲍千灵	-11504
▁叶二娘	-11505
▁赵钱孙	-11506
▁这一晚	-11507
▁这一来	-11508
▁陈友谅	-11509
为了什么	-11510
乘人之危	-11511
伤他性命	-11512
你怎么啦	-11513
分从左右	-11514
只觉全身	-11515
司徒千钟	-11516
咱们须得	-11517
在他身旁	-11518
大喜之下	-11519
大恩大德	-11520
夺眶而出	-11521
威德先生	-11522
少林寺去	-11523
尹志平道	-11524
差得远了	-11525
已经死了	-11526
心中暗暗	-11527
我又不是	-11528
挺身而出	-11529
曲非烟道	-11530
有恃无恐	-11531
武当山上	-11532
滚来滚去	-11533
皱起眉头	-11534
瞧不清楚	-11535
站立不定	-11536
笑吟吟的	-11537
紫霞神功	-11538
老头子道	-11539
见了这等	-11540
说着伸手	-11541
谈何容易	-11542
跟你说了	-11543
身败名裂	-11544
这路剑法	-11545
马副帮主	-11546
高姓大名	-11547
十香软筋散	-11548
听他这么说	-11549
啪的一声响	-11550
岳不群夫妇	-11551
忽听得远处	-11552
过了好一会	-11553
过了多少时候	-11554
一扯	-11555
一线	-11556
三夜	-11557
三脚	-11558
不孝	-11559
不灵	-11560
两者	-11561
中华	-11562
主公	-11563
主张	-11564
之宝	-11565
之数	-11566
之用	-11567
乱走	-11568
作揖	-11569
倒四	-11570
做到	-11571
僵持	-11572
允可	-11573
元军	-11574
先父	-11575
八字	-11576
再在	-11577
出世	-11578
出尘	-11579
出路	-11580
击得	-11581
千军	-11582
去寻	-11583
叔刚	-11584
受过	-11585
古往	-11586
可否	-11587
后世	-11588
告成	-11589
呼哨	-11590
图中	-11591
在上	-11592
在侧	-11593
城里	-11594
堂主	-11595
声震	-11596
处身	-11597
大眼	-11598
太大	-11599
失礼	-11600
失足	-11601
妞儿	-11602
姓郭	-11603
守城	-11604
守得	-11605
安奉	-11606
宋辽	-11607
寒意	-11608
山门	-11609
已不	-11610
年间	-11611
并派	-11612
府上	-11613
座下	-11614
庵中	-11615
弄鬼	-11616
强弱	-11617
忙将	-11618
念经	-11619
怒骂	-11620
性急	-11621
悄立	-11622
悟性	-11623
惨状	-11624
我师	-11625
战阵	-11626
房里	-11627
所不	-11628
手到	-11629
打出	-11630
托着	-11631
扫去	-11632
扫地	-11633
扭曲	-11634
拉他	-11635
拔步	-11636
掌握	-11637
搂住	-11638
摇动	-11639
改口	-11640
攻上	-11641
文艺	-11642
无冤	-11643
无心	-11644
无疑	-11645
时机	-11646
旷野	-11647
是么	-11648
是血	-11649
机灵	-11650
村中	-11651
来寻	-11652
来自	-11653
校场	-11654
楞伽	-11655
横飞	-11656
正气	-11657
气象	-11658
洞房	-11659
涌出	-11660
深恐	-11661
深陷	-11662
清晰	-11663
清规	-11664
渐感	-11665
温暖	-11666
火弹	-11667
点地	-11668
烧得	-11669
焚烧	-11670
独生	-11671
猛向	-11672
率同	-11673
王旗	-11674
琴箫	-11675
用劲	-11676
电光	-11677
白雾	-11678
百龄	-11679
盈眶	-11680
相激	-11681
看着	-11682
眼神	-11683
短的	-11684
碰撞	-11685
神拳	-11686
移步	-11687
穷凶	-11688
等着	-11689
算帐	-11690
红花	-11691
纵出	-11692
练气	-11693
练这	-11694
缘根	-11695
罪名	-11696
美意	-11697
羞辱	-11698
老虎	-11699
胯下	-11700
脚边	-11701
腰刀	-11702
腼腆	-11703
自居	-11704
舍得	-11705
茅舍	-11706
虽高	-11707
行得	-11708
西施	-11709
要从	-11710
要以	-11711
要看	-11712
诡秘	-11713
说谎	-11714
豪士	-11715
财物	-11716
赫连	-11717
走动	-11718
越国	-11719
跃回	-11720
转了	-11721
这块	-11722
进退	-11723
退避	-11724
逗留	-11725
酸痛	-11726
钻进	-11727
长生	-11728
长白	-11729
问题	-11730
阅历	-11731
随从	-11732
隐伏	-11733
难测	-11734
青龙	-11735
非得	-11736
面幕	-11737
须知	-11738
题目	-11739
驾到	-11740
骂得	-11741
骸骨	-11742
高塔	-11743
鸣响	-11744
麻袋	-11745
▁丐帮	-11746
▁忽听	-11747
▁次晨	-11748
▁空闻	-11749
一死战	-11750
三十年	-11751
上所刻	-11752
不会的	-11753
不住地	-11754
书呆子	-11755
了三分	-11756
什么鬼	-11757
他不是	-11758
他内功	-11759
件大事	-11760
但自己	-11761
你瞧瞧	-11762
傅思归	-11763
出一步	-11764
千万万	-11765
古往今	-11766
向萧峰	-11767
和他们	-11768
在他的	-11769
大不了	-11770
大叫大	-11771
大汗的	-11772
她自己	-11773
好功夫	-11774
如何敢	-11775
宋兄弟	-11776
山道上	-11777
当时我	-11778
心中所	-11779
心想他	-11780
怎么又	-11781
悄声道	-11782
我只是	-11783
我实在	-11784
方百计	-11785
本门的	-11786
来长的	-11787
梅兰竹	-11788
氏父子	-11789
的妻子	-11790
的局面	-11791
的老婆	-11792
睁大了	-11793
瞧见了	-11794
空明拳	-11795
笑声中	-11796
算得是	-11797
范右使	-11798
要不要	-11799
说得很	-11800
说自己	-11801
请两位	-11802
越看越	-11803
转头对	-11804
还有一	-11805
这便是	-11806
那三人	-11807
那么你	-11808
那妇人	-11809
那就是	-11810
那是谁	-11811
那胖子	-11812
郭靖在	-11813
郭靖见	-11814
金创药	-11815
门绝技	-11816
闭上了	-11817
隐隐有	-11818
静悄悄	-11819
马道长	-11820
黄姑娘	-11821
龟儿子	-11822
▁宋青书	-11823
▁巴天石	-11824
▁那老妇	-11825
▁陆庄主	-11826
一个人影	-11827
一窍不通	-11828
上前动手	-11829
东南西北	-11830
两败俱伤	-11831
也决不会	-11832
了几句话	-11833
二十八掌	-11834
你有什么	-11835
倚多为胜	-11836
咳嗽一声	-11837
哇哇大叫	-11838
喀的一声	-11839
多管闲事	-11840
大理国的	-11841
天涯海角	-11842
天翻地覆	-11843
好生感激	-11844
少林群僧	-11845
得到讯息	-11846
心中一惊	-11847
怎地如此	-11848
悠悠醒转	-11849
惊得呆了	-11850
拜我为师	-11851
是真是假	-11852
欧阳克道	-11853
武修文道	-11854
武林高手	-11855
水落石出	-11856
滚滚而下	-11857
爬起身来	-11858
盘膝坐在	-11859
穷凶极恶	-11860
裘千仞道	-11861
视而不见	-11862
觉得怎样	-11863
说不出口	-11864
说话之人	-11865
贪生怕死	-11866
跟在后面	-11867
身上有伤	-11868
这小丫头	-11869
陆冠英道	-11870
难以抵挡	-11871
黄药师的	-11872
▁郭靖心想	-11873
令狐冲长剑	-11874
天罡北斗阵	-11875
星宿派门人	-11876
杀人不眨眼	-11877
▁郭靖与黄蓉	-11878
一段	-11879
三处	-11880
三派	-11881
不失	-11882
不当	-11883
丐道	-11884
两侧	-11885
临下	-11886
为民	-11887
之女	-11888
也早	-11889
于胸	-11890
人皮	-11891
仁兄	-11892
仇家	-11893
他心	-11894
伏地	-11895
但自	-11896
你待	-11897
你那	-11898
做饭	-11899
入睡	-11900
其次	-11901
养神	-11902
再使	-11903
准了	-11904
凝望	-11905
凤来	-11906
分了	-11907
别要	-11908
剑湖	-11909
剩下	-11910
劝阻	-11911
努力	-11912
北上	-11913
医术	-11914
去和	-11915
又快	-11916
双清	-11917
发招	-11918
发毛	-11919
召集	-11920
可与	-11921
可好	-11922
叹气	-11923
喝干	-11924
四侠	-11925
四处	-11926
回旋	-11927
在小	-11928
在想	-11929
基本	-11930
堕入	-11931
大胜	-11932
头痛	-11933
奄奄	-11934
奔进	-11935
如玉	-11936
娇笑	-11937
婢女	-11938
安然	-11939
安答	-11940
安葬	-11941
寸许	-11942
小孔	-11943
小字	-11944
少阳	-11945
尚远	-11946
帮我	-11947
床边	-11948
开山	-11949
引路	-11950
心来	-11951
心爱	-11952
心甘	-11953
忧心	-11954
思量	-11955
愁苦	-11956
意气	-11957
我从	-11958
我原	-11959
我很	-11960
扑击	-11961
打成	-11962
打来	-11963
打法	-11964
扬起	-11965
找些	-11966
拍马	-11967
拔开	-11968
按理	-11969
掳去	-11970
携了	-11971
摔得	-11972
擒来	-11973
敏妹	-11974
敬仰	-11975
整治	-11976
斗了	-11977
斗篷	-11978
方知	-11979
无功	-11980
无幸	-11981
无暇	-11982
无此	-11983
无理	-11984
无甚	-11985
明师	-11986
晓蕾	-11987
有信	-11988
木然	-11989
来接	-11990
来求	-11991
来看	-11992
杨龙	-11993
极轻	-11994
枝干	-11995
桌边	-11996
梢公	-11997
欺到	-11998
死心	-11999
毛骨	-12000
气度	-12001
海底	-12002
涌上	-12003
混元	-12004
混入	-12005
湖边	-12006
满心	-12007
灵子	-12008
热泪	-12009
焦黄	-12010
照射	-12011
熄灭	-12012
由得	-12013
男装	-12014
痊可	-12015
瘦削	-12016
白影	-12017
白猿	-12018
白脸	-12019
直扑	-12020
相若	-12021
瞧这	-12022
瞪着	-12023
短箭	-12024
碎片	-12025
神山	-12026
空空	-12027
窗下	-12028
站住	-12029
精致	-12030
红烛	-12031
罢斗	-12032
羞惭	-12033
老命	-12034
而攻	-12035
而易	-12036
聪辩	-12037
肚皮	-12038
肿起	-12039
自得	-12040
自认	-12041
船家	-12042
艄公	-12043
苍松	-12044
落英	-12045
蓬莱	-12046
虽快	-12047
表姊	-12048
见教	-12049
观赏	-12050
言之	-12051
记在	-12052
识破	-12053
请到	-12054
谁是	-12055
负义	-12056
贯通	-12057
越奔	-12058
足踢	-12059
跟去	-12060
路旁	-12061
软了	-12062
辉月	-12063
这座	-12064
迷药	-12065
逃到	-12066
逃开	-12067
透明	-12068
通了	-12069
遍了	-12070
道爷	-12071
那张	-12072
郁闷	-12073
配合	-12074
金丝	-12075
钦服	-12076
长期	-12077
长鞭	-12078
问问	-12079
随我	-12080
难处	-12081
静虚	-12082
面壁	-12083
韦陀	-12084
音乐	-12085
颠三	-12086
飕飕	-12087
飘动	-12088
饭后	-12089
高低	-12090
黑漆	-12091
黑雕	-12092
鼓起	-12093
齐叫	-12094
▁拖雷	-12095
不一日	-12096
不说话	-12097
丝毫没	-12098
也有人	-12099
了一片	-12100
了两声	-12101
他便是	-12102
他是在	-12103
但杨过	-12104
你这等	-12105
侠义道	-12106
倘若你	-12107
冲虚道	-12108
凤来仪	-12109
出一条	-12110
刘师叔	-12111
千刀万	-12112
只得道	-12113
只打得	-12114
听到他	-12115
和阿紫	-12116
哥哥的	-12117
嗤嗤嗤	-12118
天色已	-12119
她肩头	-12120
,	-12121
。	-12122
不	-12123
一	-12124
”	-12125
“	-12126
的	-12127
道	-12128
了	-12129
:	-12130
是	-12131
人	-12132
▁	-12133
他	-12134
我	-12135
这	-12136
.	-12137
你	-12138
来	-12139
大	-12140
之	-12141
在	-12142
中	-12143
上	-12144
得	-12145
说	-12146
下	-12147
子	-12148
手	-12149
有	-12150
到	-12151
那	-12152
心	-12153
也	-12154
出	-12155
过	-12156
见	-12157
去	-12158
只	-12159
?	-12160
无	-12161
声	-12162
个	-12163
身	-12164
自	-12165
便	-12166
么	-12167
时	-12168
师	-12169
然	-12170
好	-12171
小	-12172
她	-12173
着	-12174
又	-12175
头	-12176
要	-12177
、	-12178
当	-12179
想	-12180
知	-12181
地	-12182
已	-12183
剑	-12184
们	-12185
此	-12186
可	-12187
听	-12188
起	-12189
两	-12190
向	-12191
如	-12192
天	-12193
却	-12194
后	-12195
为	-12196
将	-12197
老	-12198
三	-12199
但	-12200
和	-12201
笑	-12202
功	-12203
武	-12204
叫	-12205
山	-12206
都	-12207
而	-12208
女	-12209
张	-12210
生	-12211
儿	-12212
!	-12213
前	-12214
郭	-12215
事	-12216
令	-12217
十	-12218
对	-12219
以	-12220
能	-12221
法	-12222
长	-12223
弟	-12224
掌	-12225
门	-12226
口	-12227
二	-12228
力	-12229
再	-12230
气	-12231
相	-12232
没	-12233
真	-12234
杨	-12235
冲	-12236
眼	-12237
多	-12238
就	-12239
里	-12240
黄	-12241
派	-12242
何	-12243
主	-12244
会	-12245
正	-12246
住	-12247
死	-12248
日	-12249
己	-12250
年	-12251
给	-12252
打	-12253
还	-12254
神	-12255
少	-12256
教	-12257
若	-12258
什	-12259
父	-12260
四	-12261
难	-12262
话	-12263
狐	-12264
夫	-12265
所	-12266
明	-12267
靖	-12268
走	-12269
意	-12270
处	-12271
名	-12272
石	-12273
王	-12274
跟	-12275
招	-12276
几	-12277
动	-12278
于	-12279
高	-12280
从	-12281
间	-12282
开	-12283
位	-12284
行	-12285
家	-12286
林	-12287
段	-12288
双	-12289
甚	-12290
成	-12291
回	-12292
点	-12293
面	-12294
白	-12295
方	-12296
左	-12297
伤	-12298
瞧	-12299
兄	-12300
怎	-12301
众	-12302
问	-12303
忌	-12304
定	-12305
蓉	-12306
与	-12307
等	-12308
脸	-12309
全	-12310
数	-12311
帮	-12312
姑	-12313
杀	-12314
情	-12315
内	-12316
马	-12317
半	-12318
才	-12319
本	-12320
轻	-12321
公	-12322
命	-12323
用	-12324
惊	-12325
外	-12326
转	-12327
光	-12328
虽	-12329
分	-12330
哥	-12331
倒	-12332
先	-12333
看	-12334
竟	-12335
发	-12336
微	-12337
快	-12338
即	-12339
步	-12340
风	-12341
咱	-12342
些	-12343
同	-12344
极	-12345
清	-12346
重	-12347
指	-12348
连	-12349
阳	-12350
使	-12351
刀	-12352
入	-12353
七	-12354
娘	-12355
色	-12356
非	-12357
言	-12358
五	-12359
未	-12360
原	-12361
实	-12362
万	-12363
觉	-12364
龙	-12365
毒	-12366
其	-12367
峰	-12368
爹	-12369
平	-12370
喝	-12371
远	-12372
必	-12373
太	-12374
婆	-12375
忽	-12376
急	-12377
别	-12378
更	-12379
右	-12380
怕	-12381
喜	-12382
金	-12383
破	-12384
放	-12385
做	-12386
哪	-12387
般	-12388
暗	-12389
敌	-12390
岳	-12391
花	-12392
阿	-12393
通	-12394
誉	-12395
容	-12396
字	-12397
六	-12398
怪	-12399
余	-12400
旁	-12401
周	-12402
进	-12403
亲	-12404
伯	-12405
害	-12406
群	-12407
啊	-12408
铁	-12409
’	-12410
八	-12411
西	-12412
似	-12413
突	-12414
敢	-12415
‘	-12416
伸	-12417
立	-12418
各	-12419
足	-12420
性	-12421
今	-12422
兵	-12423
样	-12424
虚	-12425
药	-12426
理	-12427
受	-12428
谁	-12429
木	-12430
边	-12431
千	-12432
语	-12433
请	-12434
南	-12435
直	-12436
干	-12437
越	-12438
奇	-12439
经	-12440
吃	-12441
落	-12442
尽	-12443
青	-12444
火	-12445
比	-12446
深	-12447
水	-12448
第	-12449
灵	-12450
势	-12451
作	-12452
恶	-12453
传	-12454
刻	-12455
待	-12456
脚	-12457
谢	-12458
救	-12459
学	-12460
路	-12461
怒	-12462
空	-12463
冷	-12464
百	-12465
酒	-12466
由	-12467
望	-12468
句	-12469
僧	-12470
算	-12471
斗	-12472
齐	-12473
爷	-12474
海	-12475
呼	-12476
把	-12477
飞	-12478
绝	-12479
世	-12480
思	-12481
响	-12482
黑	-12483
早	-12484
并	-12485
击	-12486
朱	-12487
接	-12488
解	-12489
既	-12490
古	-12491
哈	-12492
终	-12493
苦	-12494
背	-12495
竹	-12496
坐	-12497
次	-12498
忙	-12499
决	-12500
站	-12501
念	-12502
加	-12503
随	-12504
衣	-12505
目	-12506
断	-12507
尚	-12508
反	-12509
汉	-12510
满	-12511
江	-12512
东	-12513
音	-12514
啦	-12515
莫	-12516
往	-12517
强	-12518
客	-12519
赵	-12520
奔	-12521
物	-12522
妹	-12523
及	-12524
练	-12525
血	-12526
让	-12527
须	-12528
低	-12529
辈	-12530
刺	-12531
英	-12532
丈	-12533
盈	-12534
洪	-12535
乱	-12536
带	-12537
丁	-12538
阵	-12539
萧	-12540
妈	-12541
答	-12542
者	-12543
提	-12544
雄	-12545
胜	-12546
义	-12547
跃	-12548
拳	-12549
服	-12550
臂	-12551
姓	-12552
穴	-12553
料	-12554
取	-12555
红	-12556
交	-12557
机	-12558
欧	-12559
变	-12560
常	-12561
许	-12562
丐	-12563
慢	-12564
纵	-12565
条	-12566
至	-12567
最	-12568
书	-12569
异	-12570
华	-12571
拿	-12572
感	-12573
侠	-12574
摇	-12575
慕	-12576
因	-12577
总	-12578
胸	-12579
谷	-12580
仙	-12581
寻	-12582
抓	-12583
痛	-12584
劲	-12585
九	-12586
仍	-12587
攻	-12588
素	-12589
登	-12590
国	-12591
片	-12592
近	-12593
紧	-12594
姊	-12595
树	-12596
退	-12597
仇	-12598
任	-12599
错	-12600
安	-12601
首	-12602
玉	-12603
胡	-12604
厉	-12605
锋	-12606
城	-12607
湖	-12608
找	-12609
军	-12610
复	-12611
罢	-12612
士	-12613
闪	-12614
很	-12615
寺	-12616
船	-12617
关	-12618
送	-12619
玄	-12620
李	-12621
缓	-12622
应	-12623
岂	-12624
倘	-12625
被	-12626
晚	-12627
信	-12628
精	-12629
求	-12630
久	-12631
均	-12632
礼	-12633
底	-12634
桃	-12635
计	-12636
蒙	-12637
隐	-12638
孩	-12639
殷	-12640
宝	-12641
爱	-12642
沉	-12643
举	-12644
息	-12645
妇	-12646
顶	-12647
陆	-12648
吧	-12649
禁	-12650
离	-12651
居	-12652
月	-12653
化	-12654
妙	-12655
失	-12656
流	-12657
抢	-12658
挥	-12659
合	-12660
智	-12661
乔	-12662
洞	-12663
骂	-12664
根	-12665
曾	-12666
活	-12667
报	-12668
完	-12669
追	-12670
岛	-12671
北	-12672
果	-12673
猛	-12674
每	-12675
敏	-12676
徒	-12677
易	-12678
渐	-12679
现	-12680
童	-12681
包	-12682
敬	-12683
紫	-12684
件	-12685
推	-12686
星	-12687
避	-12688
肯	-12689
逃	-12690
显	-12691
母	-12692
刚	-12693
官	-12694
耳	-12695
钟	-12696
抱	-12697
鬼	-12698
怀	-12699
丹	-12700
则	-12701
另	-12702
文	-12703
领	-12704
形	-12705
孙	-12706
叹	-12707
拉	-12708
败	-12709
免	-12710
吗	-12711
美	-12712
肩	-12713
雪	-12714
欢	-12715
留	-12716
襄	-12717
险	-12718
种	-12719
刃	-12720
震	-12721
乎	-12722
挡	-12723
宋	-12724
骨	-12725
云	-12726
威	-12727
房	-12728
友	-12729
拍	-12730
罪	-12731
记	-12732
运	-12733
横	-12734
称	-12735
保	-12736
庄	-12737
闻	-12738
块	-12739
叔	-12740
志	-12741
施	-12742
阴	-12743
露	-12744
忍	-12745
脱	-12746
颜	-12747
腿	-12748
毫	-12749
战	-12750
逊	-12751
识	-12752
赶	-12753
呢	-12754
楚	-12755
拜	-12756
该	-12757
遇	-12758
翠	-12759
收	-12760
结	-12761
除	-12762
细	-12763
论	-12764
否	-12765
且	-12766
恩	-12767
认	-12768
镇	-12769
丝	-12770
诸	-12771
体	-12772
撞	-12773
男	-12774
仪	-12775
番	-12776
或	-12777
乘	-12778
贼	-12779
欲	-12780
静	-12781
皇	-12782
观	-12783
像	-12784
柔	-12785
愁	-12786
游	-12787
守	-12788
场	-12789
呆	-12790
魔	-12791
田	-12792
豪	-12793
眉	-12794
芙	-12795
愿	-12796
杖	-12797
影	-12798
屋	-12799
柄	-12800
克	-12801
端	-12802
汗	-12803
摩	-12804
祖	-12805
折	-12806
跳	-12807
棒	-12808
翻	-12809
松	-12810
腰	-12811
烈	-12812
始	-12813
疑	-12814
部	-12815
修	-12816
德	-12817
邪	-12818
止	-12819
布	-12820
草	-12821
号	-12822
纪	-12823
激	-12824
故	-12825
狗	-12826
逼	-12827
夜	-12828
脑	-12829
侧	-12830
扑	-12831
写	-12832
管	-12833
视	-12834
肉	-12835
治	-12836
穿	-12837
哼	-12838
箭	-12839
哭	-12840
单	-12841
秋	-12842
丘	-12843
嫣	-12844
笔	-12845
貌	-12846
壁	-12847
堂	-12848
史	-12849
嘴	-12850
尸	-12851
幸	-12852
牛	-12853
慈	-12854
致	-12855
适	-12856
假	-12857
春	-12858
依	-12859
曲	-12860
索	-12861
波	-12862
纷	-12863
晃	-12864
皮	-12865
颇	-12866
尺	-12867
睡	-12868
帝	-12869
量	-12870
拔	-12871
尖	-12872
持	-12873
惜	-12874
恨	-12875
确	-12876
临	-12877
梅	-12878
热	-12879
凝	-12880
归	-12881
尊	-12882
乃	-12883
角	-12884
贵	-12885
夺	-12886
藏	-12887
珊	-12888
疾	-12889
狠	-12890
岁	-12891
照	-12892
脉	-12893
装	-12894
顾	-12895
候	-12896
斜	-12897
寒	-12898
良	-12899
妻	-12900
虎	-12901
蛇	-12902
偷	-12903
射	-12904
饭	-12905
银	-12906
雕	-12907
轮	-12908
软	-12909
摔	-12910
店	-12911
绿	-12912
怔	-12913
弹	-12914
股	-12915
兴	-12916
氏	-12917
护	-12918
约	-12919
圆	-12920
凶	-12921
康	-12922
抵	-12923
裘	-12924
衫	-12925
挺	-12926
台	-12927
宗	-12928
君	-12929
香	-12930
冰	-12931
灭	-12932
初	-12933
模	-12934
围	-12935
灯	-12936
玩	-12937
架	-12938
封	-12939
芷	-12940
禅	-12941
乐	-12942
摸	-12943
代	-12944
恒	-12945
助	-12946
伙	-12947
散	-12948
盘	-12949
枝	-12950
律	-12951
碗	-12952
伏	-12953
停	-12954
烟	-12955
元	-12956
嘿	-12957
室	-12958
团	-12959
镖	-12960
吟	-12961
袖	-12962
制	-12963
泪	-12964
格	-12965
抬	-12966
鲜	-12967
厚	-12968
座	-12969
吸	-12970
朋	-12971
危	-12972
崖	-12973
厅	-12974
试	-12975
佛	-12976
偏	-12977
旗	-12978
扬	-12979
淡	-12980
切	-12981
胆	-12982
巴	-12983
宫	-12984
婉	-12985
术	-12986
负	-12987
吓	-12988
图	-12989
咬	-12990
善	-12991
淳	-12992
土	-12993
骑	-12994
袋	-12995
袍	-12996
俞	-12997
顺	-12998
独	-12999
《	-13000
凌	-13001
戒	-13002
聪	-13003
踏	-13004
圈	-13005
翁	-13006
腕	-13007
范	-13008
》	-13009
悄	-13010
尼	-13011
稍	-13012
属	-13013
顿	-13014
愈	-13015
傻	-13016
式	-13017
昆	-13018
针	-13019
器	-13020
圣	-13021
局	-13022
短	-13023
擒	-13024
引	-13025
展	-13026
际	-13027
颤	-13028
朝	-13029
输	-13030
医	-13031
吐	-13032
烧	-13033
弱	-13034
盼	-13035
究	-13036
恭	-13037
掷	-13038
食	-13039
;	-13040
新	-13041
腹	-13042
插	-13043
探	-13044
鞭	-13045
滚	-13046
争	-13047
硬	-13048
飘	-13049
差	-13050
程	-13051
逍	-13052
迷	-13053
墙	-13054
琳	-13055
穆	-13056
利	-13057
遭	-13058
醒	-13059
柯	-13060
桌	-13061
躲	-13062
舍	-13063
麻	-13064
恼	-13065
告	-13066
姥	-13067
陈	-13068
板	-13069
投	-13070
密	-13071
尹	-13072
欺	-13073
秘	-13074
刘	-13075
担	-13076
忘	-13077
杯	-13078
梁	-13079
宿	-13080
消	-13081
迎	-13082
乌	-13083
剧	-13084
惨	-13085
砍	-13086
福	-13087
共	-13088
坏	-13089
按	-13090
悲	-13091
踢	-13092
舟	-13093
韩	-13094
病	-13095
闹	-13096
奉	-13097
扶	-13098
亦	-13099
府	-13100
枚	-13101
遥	-13102
尔	-13103
防	-13104
较	-13105
沙	-13106
睛	-13107
严	-13108
朗	-13109
糊	-13110
聚	-13111
艺	-13112
隔	-13113
墓	-13114
迟	-13115
牢	-13116
矮	-13117
耶	-13118
钢	-13119
郎	-13120
改	-13121
画	-13122
驰	-13123
鼻	-13124
犹	-13125
休	-13126
互	-13127
叶	-13128
岩	-13129
野	-13130
彭	-13131
达	-13132
佩	-13133
划	-13134
巨	-13135
表	-13136
河	-13137
晕	-13138
碧	-13139
窗	-13140
缩	-13141
皆	-13142
钱	-13143
奸	-13144
跌	-13145
亮	-13146
授	-13147
茶	-13148
雷	-13149
截	-13150
净	-13151
悔	-13152
毕	-13153
劳	-13154
凭	-13155
节	-13156
臭	-13157
仰	-13158
冠	-13159
殿	-13160
狂	-13161
续	-13162
陪	-13163
况	-13164
巧	-13165
骗	-13166
坦	-13167
养	-13168
排	-13169
历	-13170
饶	-13171
跪	-13172
握	-13173
遍	-13174
鸠	-13175
嵩	-13176
毛	-13177
猜	-13178
规	-13179
习	-13180
套	-13181
证	-13182
丑	-13183
琴	-13184
丛	-13185
执	-13186
缘	-13187
亭	-13188
尘	-13189
捉	-13190
珠	-13191
嗤	-13192
延	-13193
怨	-13194
拆	-13195
粗	-13196
弯	-13197
读	-13198
唉	-13199
苏	-13200
参	-13201
察	-13202
晌	-13203
侍	-13204
赞	-13205
拂	-13206
允	-13207
移	-13208
超	-13209
付	-13210
莲	-13211
境	-13212
楼	-13213
径	-13214
鳄	-13215
哟	-13216
略	-13217
碰	-13218
份	-13219
换	-13220
准	-13221
闭	-13222
固	-13223
借	-13224
铜	-13225
缠	-13226
垂	-13227
迹	-13228
吉	-13229
谈	-13230
荡	-13231
集	-13232
枪	-13233
筋	-13234
钻	-13235
压	-13236
办	-13237
司	-13238
酸	-13239
颈	-13240
肚	-13241
速	-13242
阁	-13243
鹤	-13244
调	-13245
丰	-13246
嘻	-13247
挂	-13248
兀	-13249
奶	-13250
存	-13251
祸	-13252
拖	-13253
俩	-13254
阻	-13255
孤	-13256
舞	-13257
菜	-13258
遗	-13259
饮	-13260
谱	-13261
院	-13262
契	-13263
幼	-13264
懂	-13265
夏	-13266
州	-13267
床	-13268
烦	-13269
劈	-13270
吴	-13271
峨	-13272
抗	-13273
闲	-13274
鼓	-13275
碎	-13276
焦	-13277
注	-13278
熟	-13279
冒	-13280
躬	-13281
弄	-13282
劝	-13283
辰	-13284
创	-13285
挑	-13286
臣	-13287
队	-13288
磕	-13289
鲁	-13290
示	-13291
匹	-13292
恐	-13293
支	-13294
状	-13295
睁	-13296
迅	-13297
嵋	-13298
犯	-13299
透	-13300
悟	-13301
辱	-13302
仞	-13303
味	-13304
托	-13305
混	-13306
砰	-13307
绣	-13308
喂	-13309
查	-13310
罗	-13311
仗	-13312
愤	-13313
谋	-13314
侄	-13315
泥	-13316
踪	-13317
广	-13318
含	-13319
娃	-13320
晓	-13321
具	-13322
丧	-13323
卫	-13324
嗯	-13325
夹	-13326
牙	-13327
抖	-13328
锦	-13329
卷	-13330
涌	-13331
凛	-13332
颊	-13333
御	-13334
降	-13335
稳	-13336
累	-13337
抛	-13338
咐	-13339
仁	-13340
摆	-13341
充	-13342
永	-13343
袭	-13344
贝	-13345
技	-13346
捷	-13347
牵	-13348
鱼	-13349
拦	-13350
帐	-13351
讨	-13352
浑	-13353
珰	-13354
泰	-13355
议	-13356
吹	-13357
贤	-13358
甘	-13359
辽	-13360
率	-13361
彩	-13362
系	-13363
凉	-13364
啪	-13365
讯	-13366
备	-13367
柳	-13368
盖	-13369
梦	-13370
商	-13371
扫	-13372
棋	-13373
颠	-13374
损	-13375
杰	-13376
残	-13377
默	-13378
造	-13379
骇	-13380
寂	-13381
爬	-13382
萼	-13383
够	-13384
怜	-13385
屠	-13386
庆	-13387
忧	-13388
设	-13389
霍	-13390
掉	-13391
顽	-13392
占	-13393
环	-13394
斩	-13395
盛	-13396
乖	-13397
宁	-13398
姐	-13399
联	-13400
副	-13401
材	-13402
油	-13403
烂	-13404
扯	-13405
昏	-13406
温	-13407
抽	-13408
蛋	-13409
谅	-13410
灰	-13411
置	-13412
膝	-13413
委	-13414
扮	-13415
博	-13416
途	-13417
陀	-13418
倚	-13419
某	-13420
溜	-13421
诀	-13422
寸	-13423
迫	-13424
魂	-13425
层	-13426
鹿	-13427
拚	-13428
电	-13429
瞎	-13430
绕	-13431
塞	-13432
庙	-13433
整	-13434
景	-13435
渔	-13436
责	-13437
堆	-13438
孔	-13439
涂	-13440
瘦	-13441
烛	-13442
羞	-13443
车	-13444
诚	-13445
误	-13446
哑	-13447
辣	-13448
鸡	-13449
薄	-13450
驾	-13451
惧	-13452
盗	-13453
逐	-13454
亏	-13455
咽	-13456
基	-13457
禀	-13458
割	-13459
辞	-13460
削	-13461
娇	-13462
羊	-13463
狼	-13464
啸	-13465
斯	-13466
旧	-13467
毙	-13468
潇	-13469
凡	-13470
承	-13471
霎	-13472
桥	-13473
愧	-13474
昭	-13475
鹰	-13476
民	-13477
韦	-13478
坚	-13479
疼	-13480
齿	-13481
赴	-13482
溪	-13483
简	-13484
赤	-13485
刷	-13486
娶	-13487
捏	-13488
讲	-13489
俯	-13490
胖	-13491
户	-13492
陷	-13493
渡	-13494
裂	-13495
闯	-13496
吩	-13497
妖	-13498
罕	-13499
舌	-13500
费	-13501
度	-13502
歇	-13503
沧	-13504
缚	-13505
喉	-13506
秦	-13507
携	-13508
杂	-13509
距	-13510
痴	-13511
皱	-13512
雨	-13513
特	-13514
穷	-13515
荒	-13516
椅	-13517
陡	-13518
惶	-13519
莹	-13520
蛛	-13521
滑	-13522
逸	-13523
屁	-13524
递	-13525
配	-13526
倍	-13527
凤	-13528
扇	-13529
敝	-13530
印	-13531
苍	-13532
薛	-13533
靠	-13534
俱	-13535
务	-13536
村	-13537
喀	-13538
牌	-13539
疯	-13540
颗	-13541
拾	-13542
稀	-13543
慰	-13544
绳	-13545
株	-13546
茫	-13547
宽	-13548
勾	-13549
屈	-13550
耐	-13551
它	-13552
搭	-13553
悬	-13554
掠	-13555
斤	-13556
糟	-13557
瞪	-13558
蜂	-13559
秃	-13560
勉	-13561
蹄	-13562
辟	-13563
喷	-13564
冤	-13565
浅	-13566
积	-13567
抚	-13568
倾	-13569
掩	-13570
盟	-13571
岸	-13572
谭	-13573
亡	-13574
尾	-13575
粉	-13576
勇	-13577
品	-13578
纸	-13579
蓦	-13580
奋	-13581
怦	-13582
泉	-13583
线	-13584
喇	-13585
顷	-13586
私	-13587
丽	-13588
杆	-13589
矩	-13590
誓	-13591
诧	-13592
额	-13593
川	-13594
戴	-13595
腾	-13596
劫	-13597
甲	-13598
耻	-13599
钉	-13600
撕	-13601
梨	-13602
闵	-13603
仑	-13604
扎	-13605
湘	-13606
舱	-13607
载	-13608
逢	-13609
唯	-13610
幽	-13611
舵	-13612
戏	-13613
撑	-13614
枉	-13615
赏	-13616
席	-13617
挣	-13618
策	-13619
增	-13620
洋	-13621
徐	-13622
困	-13623
瑛	-13624
衡	-13625
轰	-13626
援	-13627
躺	-13628
喊	-13629
诡	-13630
鼎	-13631
宜	-13632
朵	-13633
统	-13634
肠	-13635
态	-13636
雅	-13637
诺	-13638
枯	-13639
界	-13640
秀	-13641
伴	-13642
农	-13643
列	-13644
束	-13645
泄	-13646
凄	-13647
喃	-13648
喘	-13649
嫁	-13650
质	-13651
买	-13652
侮	-13653
叛	-13654
惹	-13655
奈	-13656
忠	-13657
滴	-13658
违	-13659
妄	-13660
乾	-13661
侯	-13662
瞒	-13663
网	-13664
挨	-13665
旨	-13666
闷	-13667
撒	-13668
暴	-13669
熊	-13670
饿	-13671
镜	-13672
兽	-13673
辛	-13674
鸣	-13675
俗	-13676
寿	-13677
象	-13678
拼	-13679
逆	-13680
详	-13681
匆	-13682
碍	-13683
业	-13684
脾	-13685
遵	-13686
婴	-13687
振	-13688
跑	-13689
废	-13690
箫	-13691
卧	-13692
暂	-13693
源	-13694
厮	-13695
采	-13696
俊	-13697
辨	-13698
趣	-13699
妨	-13700
婚	-13701
狮	-13702
磨	-13703
匕	-13704
昔	-13705
歌	-13706
戳	-13707
昨	-13708
霸	-13709
午	-13710
爪	-13711
绵	-13712
呜	-13713
唇	-13714
岱	-13715
丫	-13716
吞	-13717
柴	-13718
毁	-13719
瓶	-13720
慧	-13721
扭	-13722
瞬	-13723
继	-13724
彼	-13725
鞘	-13726
惭	-13727
森	-13728
洗	-13729
辩	-13730
燕	-13731
龄	-13732
畔	-13733
钩	-13734
仆	-13735
卖	-13736
拨	-13737
题	-13738
纯	-13739
诗	-13740
锐	-13741
井	-13742
歹	-13743
贫	-13744
附	-13745
邀	-13746
郁	-13747
痕	-13748
荣	-13749
叉	-13750
揭	-13751
丸	-13752
替	-13753
测	-13754
绽	-13755
罩	-13756
醉	-13757
搜	-13758
期	-13759
裹	-13760
贯	-13761
咦	-13762
扰	-13763
衲	-13764
铮	-13765
污	-13766
营	-13767
柱	-13768
舒	-13769
萍	-13770
倏	-13771
减	-13772
郑	-13773
宛	-13774
肌	-13775
弓	-13776
慌	-13777
患	-13778
拱	-13779
触	-13780
贱	-13781
埋	-13782
妃	-13783
述	-13784
乡	-13785
旋	-13786
竭	-13787
冥	-13788
升	-13789
弃	-13790
愕	-13791
限	-13792
缝	-13793
呵	-13794
堪	-13795
剩	-13796
咕	-13797
拥	-13798
罚	-13799
矛	-13800
脏	-13801
京	-13802
唱	-13803
驹	-13804
研	-13805
僵	-13806
域	-13807
汤	-13808
虫	-13809
补	-13810
赫	-13811
咳	-13812
坛	-13813
奥	-13814
希	-13815
批	-13816
殊	-13817
珍	-13818
筝	-13819
类	-13820
赖	-13821
链	-13822
伦	-13823
宾	-13824
捧	-13825
瓜	-13826
米	-13827
妥	-13828
跨	-13829
坡	-13830
胁	-13831
赐	-13832
棍	-13833
钰	-13834
佳	-13835
凑	-13836
蓝	-13837
铺	-13838
搏	-13839
浪	-13840
谨	-13841
遣	-13842
邓	-13843
钦	-13844
弥	-13845
效	-13846
建	-13847
驱	-13848
阔	-13849
专	-13850
焰	-13851
窝	-13852
催	-13853
兰	-13854
堕	-13855
幻	-13856
龟	-13857
窜	-13858
雾	-13859
寨	-13860
锤	-13861
哇	-13862
抹	-13863
潜	-13864
贴	-13865
征	-13866
搂	-13867
儒	-13868
卑	-13869
淋	-13870
爽	-13871
姿	-13872
恳	-13873
莽	-13874
词	-13875
谦	-13876
逝	-13877
济	-13878
襟	-13879
释	-13880
哉	-13881
瞥	-13882
驼	-13883
渊	-13884
蛮	-13885
壮	-13886
晨	-13887
棺	-13888
豹	-13889
族	-13890
权	-13891
贪	-13892
畏	-13893
菩	-13894
训	-13895
隙	-13896
啷	-13897
嫌	-13898
擦	-13899
浓	-13900
章	-13901
嚷	-13902
恰	-13903
悦	-13904
披	-13905
痒	-13906
符	-13907
耗	-13908
魄	-13909
映	-13910
竖	-13911
躁	-13912
宴	-13913
悠	-13914
雁	-13915
棉	-13916
鄙	-13917
爸	-13918
睬	-13919
肿	-13920
虑	-13921
哀	-13922
斧	-13923
嗡	-13924
据	-13925
鞋	-13926
肤	-13927
厌	-13928
揖	-13929
漆	-13930
傲	-13931
幅	-13932
拒	-13933
盆	-13934
访	-13935
赌	-13936
煞	-13937
猎	-13938
缺	-13939
赢	-13940
奏	-13941
富	-13942
工	-13943
蜜	-13944
帖	-13945
扣	-13946
甜	-13947
萨	-13948
挖	-13949
瑶	-13950
畅	-13951
吕	-13952
尤	-13953
漠	-13954
询	-13955
洒	-13956
溅	-13957
僻	-13958
铸	-13959
挤	-13960
潮	-13961
判	-13962
淫	-13963
湿	-13964
漏	-13965
焉	-13966
驴	-13967
勒	-13968
嘶	-13969
寡	-13970
肢	-13971
赔	-13972
艘	-13973
觑	-13974
鹫	-13975
兼	-13976
鞑	-13977
项	-13978
健	-13979
益	-13980
夷	-13981
普	-13982
笼	-13983
悉	-13984
沿	-13985
盒	-13986
恍	-13987
犬	-13988
崔	-13989
狈	-13990
覆	-13991
嘱	-13992
市	-13993
葬	-13994
评	-13995
乞	-13996
吼	-13997
孽	-13998
猴	-13999
肥	-14000
唐	-14001
捣	-14002
昂	-14003
绑	-14004
迦	-14005
典	-14006
惯	-14007
斥	-14008
维	-14009
耿	-14010
迈	-14011
偶	-14012
嫂	-14013
湛	-14014
怖	-14015
擅	-14016
樊	-14017
监	-14018
祝	-14019
芦	-14020
财	-14021
零	-14022
贺	-14023
噗	-14024
恋	-14025
斟	-14026
甫	-14027
霄	-14028
挪	-14029
疏	-14030
疗	-14031
获	-14032
讥	-14033
鸟	-14034
黯	-14035
剪	-14036
卓	-14037
繁	-14038
崆	-14039
措	-14040
浮	-14041
腔	-14042
舅	-14043
轿	-14044
勿	-14045
峒	-14046
演	-14047
缸	-14048
遮	-14049
扳	-14050
摘	-14051
街	-14052
暇	-14053
桨	-14054
诵	-14055
谓	-14056
嘉	-14057
挟	-14058
杵	-14059
潭	-14060
呸	-14061
塔	-14062
葛	-14063
恕	-14064
省	-14065
婢	-14066
末	-14067
猪	-14068
砸	-14069
窟	-14070
粒	-14071
耽	-14072
艳	-14073
坤	-14074
账	-14075
佐	-14076
促	-14077
囚	-14078
班	-14079
冶	-14080
惮	-14081
哨	-14082
囊	-14083
尝	-14084
貂	-14085
饱	-14086
宰	-14087
拐	-14088
搔	-14089
歉	-14090
畜	-14091
叮	-14092
糕	-14093
耀	-14094
郝	-14095
价	-14096
葫	-14097
仔	-14098
夕	-14099
婿	-14100
抄	-14101
挽	-14102
搬	-14103
球	-14104
癫	-14105
纠	-14106
谎	-14107
预	-14108
匠	-14109
筹	-14110
卒	-14111
敲	-14112
吊	-14113
嗔	-14114
陋	-14115
艰	-14116
暖	-14117
眶	-14118
傅	-14119
哲	-14120
汪	-14121
泼	-14122
祟	-14123
隆	-14124
饼	-14125
厨	-14126
帆	-14127
漫	-14128
绘	-14129
羽	-14130
茅	-14131
吵	-14132
尬	-14133
尴	-14134
涉	-14135
瓦	-14136
笨	-14137
考	-14138
裤	-14139
讶	-14140
奴	-14141
拗	-14142
疲	-14143
蚕	-14144
丢	-14145
侵	-14146
召	-14147
园	-14148
歪	-14149
淑	-14150
膀	-14151
膛	-14152
勃	-14153
搁	-14154
矣	-14155
级	-14156
翼	-14157
褚	-14158
霞	-14159
启	-14160
姬	-14161
宣	-14162
帅	-14163
帕	-14164
敷	-14165
资	-14166
辜	-14167
饰	-14168
吁	-14169
阮	-14170
供	-14171
呕	-14172
滋	-14173
甩	-14174
勤	-14175
梢	-14176
陵	-14177
鲍	-14178
黎	-14179
恃	-14180
浸	-14181
竺	-14182
兔	-14183
慨	-14184
敦	-14185
桑	-14186
纹	-14187
庸	-14188
拙	-14189
掳	-14190
脆	-14191
嗽	-14192
政	-14193
窍	-14194
笃	-14195
筷	-14196
趋	-14197
逞	-14198
黝	-14199
呛	-14200
啰	-14201
岔	-14202
愚	-14203
欣	-14204
概	-14205
伶	-14206
姚	-14207
牧	-14208
脊	-14209
蕃	-14210
衰	-14211
诈	-14212
踉	-14213
刹	-14214
坟	-14215
攀	-14216
翅	-14217
觅	-14218
俏	-14219
冯	-14220
区	-14221
唤	-14222
窥	-14223
蛤	-14224
融	-14225
跄	-14226
兜	-14227
弦	-14228
曰	-14229
梯	-14230
盏	-14231
箱	-14232
聋	-14233
蓬	-14234
迸	-14235
篇	-14236
纳	-14237
诛	-14238
诱	-14239
踌	-14240
嗓	-14241
嘛	-14242
泣	-14243
燃	-14244
窄	-14245
躇	-14246
郡	-14247
锁	-14248
魁	-14249
咒	-14250
迢	-14251
彬	-14252
贾	-14253
导	-14254
惑	-14255
腐	-14256
蠢	-14257
赠	-14258
享	-14259
岭	-14260
棚	-14261
肘	-14262
选	-14263
壶	-14264
焚	-14265
狡	-14266
阅	-14267
冈	-14268
怯	-14269
瓷	-14270
笈	-14271
蠡	-14272
蹿	-14273
呀	-14274
帽	-14275
掘	-14276
斑	-14277
洛	-14278
漓	-14279
献	-14280
逾	-14281
厄	-14282
咚	-14283
廷	-14284
浆	-14285
驸	-14286
绸	-14287
芳	-14288
驶	-14289
仅	-14290
您	-14291
涛	-14292
版	-14293
蝠	-14294
钵	-14295
枣	-14296
炉	-14297
煮	-14298
璋	-14299
悍	-14300
惴	-14301
抑	-14302
染	-14303
碑	-14304
虏	-14305
雀	-14306
(	-14307
嗒	-14308
墨	-14309
娴	-14310
孝	-14311
屏	-14312
扁	-14313
旺	-14314
桶	-14315
池	-14316
蓄	-14317
凰	-14318
厢	-14319
喧	-14320
役	-14321
拢	-14322
簌	-14323
纤	-14324
蒲	-14325
诣	-14326
趁	-14327
酣	-14328
锥	-14329
值	-14330
庵	-14331
撤	-14332
粥	-14333
循	-14334
拇	-14335
沾	-14336
炸	-14337
)	-14338
剥	-14339
嚼	-14340
柏	-14341
职	-14342
辉	-14343
庭	-14344
涨	-14345
熄	-14346
猫	-14347
璧	-14348
睹	-14349
铐	-14350
忿	-14351
惟	-14352
申	-14353
躯	-14354
骏	-14355
媚	-14356
拟	-14357
括	-14358
掀	-14359
晶	-14360
蝶	-14361
鞍	-14362
叩	-14363
操	-14364
旦	-14365
盐	-14366
粮	-14367
络	-14368
腻	-14369
鲨	-14370
仲	-14371
凳	-14372
核	-14373
瀑	-14374
聊	-14375
肃	-14376
傍	-14377
叱	-14378
哄	-14379
哎	-14380
巡	-14381
捕	-14382
晋	-14383
汝	-14384
灾	-14385
熬	-14386
耍	-14387
陛	-14388
叠	-14389
坑	-14390
录	-14391
恙	-14392
泽	-14393
卦	-14394
呻	-14395
钧	-14396
寥	-14397
屑	-14398
幕	-14399
描	-14400
杜	-14401
烁	-14402
豫	-14403
刎	-14404
叙	-14405
懒	-14406
泛	-14407
盲	-14408
耸	-14409
蹲	-14410
啼	-14411
案	-14412
缰	-14413
肺	-14414
脖	-14415
藤	-14416
蚣	-14417
蜈	-14418
返	-14419
铃	-14420
册	-14421
刑	-14422
夸	-14423
嫩	-14424
桩	-14425
烤	-14426
猿	-14427
肆	-14428
肝	-14429
警	-14430
吆	-14431
咯	-14432
哗	-14433
嘲	-14434
掏	-14435
标	-14436
痊	-14437
憎	-14438
押	-14439
朽	-14440
灌	-14441
炮	-14442
瑰	-14443
疤	-14444
蜡	-14445
闺	-14446
枕	-14447
柜	-14448
欠	-14449
玫	-14450
砖	-14451
荆	-14452
峻	-14453
札	-14454
朴	-14455
腥	-14456
践	-14457
鼠	-14458
吻	-14459
朦	-14460
滩	-14461
筏	-14462
著	-14463
饥	-14464
凸	-14465
劣	-14466
嗖	-14467
忖	-14468
旷	-14469
荷	-14470
锅	-14471
侣	-14472
卸	-14473
拣	-14474
款	-14475
液	-14476
炼	-14477
胀	-14478
胧	-14479
腊	-14480
唆	-14481
塌	-14482
媳	-14483
忒	-14484
碌	-14485
缈	-14486
膻	-14487
菊	-14488
豁	-14489
匪	-14490
栗	-14491
玑	-14492
秽	-14493
绢	-14494
豆	-14495
骸	-14496
伟	-14497
叽	-14498
呈	-14499
妾	-14500
彻	-14501
拘	-14502
杏	-14503
肋	-14504
霜	-14505
孟	-14506
捡	-14507
盾	-14508
缥	-14509
臀	-14510
侥	-14511
峭	-14512
怠	-14513
棘	-14514
涔	-14515
邦	-14516
骅	-14517
哽	-14518
廖	-14519
沛	-14520
膏	-14521
髯	-14522
鲸	-14523
串	-14524
予	-14525
尿	-14526
履	-14527
巾	-14528
彦	-14529
粘	-14530
脂	-14531
艄	-14532
唷	-14533
昇	-14534
滞	-14535
眩	-14536
督	-14537
宏	-14538
宠	-14539
狞	-14540
苗	-14541
仓	-14542
冬	-14543
撇	-14544
矫	-14545
祁	-14546
缎	-14547
耕	-14548
艮	-14549
译	-14550
贸	-14551
匙	-14552
堵	-14553
戟	-14554
楞	-14555
琢	-14556
肴	-14557
轴	-14558
呐	-14559
寞	-14560
棵	-14561
洁	-14562
滥	-14563
迁	-14564
鸦	-14565
乒	-14566
泊	-14567
蹙	-14568
逗	-14569
鹏	-14570
伍	-14571
崩	-14572
津	-14573
炕	-14574
芒	-14575
颂	-14576
飕	-14577
倦	-14578
卜	-14579
员	-14580
惘	-14581
樵	-14582
绊	-14583
胎	-14584
蟆	-14585
介	-14586
叨	-14587
塘	-14588
暮	-14589
栽	-14590
窒	-14591
诲	-14592
镣	-14593
乓	-14594
例	-14595
唾	-14596
嘟	-14597
梧	-14598
滔	-14599
绰	-14600
肖	-14601
谊	-14602
乍	-14603
伪	-14604
佑	-14605
凿	-14606
季	-14607
枢	-14608
桅	-14609
眨	-14610
篷	-14611
忆	-14612
添	-14613
蕴	-14614
蝴	-14615
韵	-14616
择	-14617
牯	-14618
猾	-14619
禽	-14620
锭	-14621
殴	-14622
灿	-14623
螺	-14624
趟	-14625
跤	-14626
酷	-14627
产	-14628
县	-14629
夭	-14630
姻	-14631
崇	-14632
恻	-14633
拈	-14634
拭	-14635
挫	-14636
摧	-14637
狱	-14638
猬	-14639
社	-14640
窖	-14641
绮	-14642
跷	-14643
销	-14644
雳	-14645
霹	-14646
页	-14647
妒	-14648
帘	-14649
炭	-14650
炯	-14651
磊	-14652
订	-14653
邻	-14654
鉴	-14655
阱	-14656
髅	-14657
凹	-14658
剃	-14659
噩	-14660
巷	-14661
汹	-14662
涕	-14663
炎	-14664
窃	-14665
筵	-14666
腑	-14667
詹	-14668
辆	-14669
骡	-14670
鬓	-14671
俐	-14672
匀	-14673
吾	-14674
奄	-14675
惠	-14676
慷	-14677
涧	-14678
爆	-14679
眯	-14680
绞	-14681
袈	-14682
裟	-14683
霉	-14684
骷	-14685
伐	-14686
慑	-14687
憾	-14688
绪	-14689
蒋	-14690
馆	-14691
黛	-14692
啧	-14693
坳	-14694
筒	-14695
籍	-14696
粪	-14697
蒸	-14698
革	-14699
验	-14700
刮	-14701
哩	-14702
揣	-14703
校	-14704
涩	-14705
跛	-14706
倪	-14707
噜	-14708
曼	-14709
祥	-14710
笛	-14711
虬	-14712
衷	-14713
赛	-14714
蹈	-14715
醋	-14716
惺	-14717
朮	-14718
椎	-14719
榻	-14720
淮	-14721
粽	-14722
编	-14723
雌	-14724
乳	-14725
亢	-14726
宵	-14727
彪	-14728
戮	-14729
煎	-14730
狭	-14731
瘫	-14732
脓	-14733
铲	-14734
冻	-14735
努	-14736
悴	-14737
沸	-14738
浩	-14739
蛟	-14740
诉	-14741
迭	-14742
锚	-14743
骤	-14744
姝	-14745
廊	-14746
憔	-14747
殉	-14748
泻	-14749
涯	-14750
稽	-14751
腋	-14752
荤	-14753
诃	-14754
赦	-14755
遂	-14756
骄	-14757
优	-14758
哦	-14759
噎	-14760
帷	-14761
廿	-14762
构	-14763
梳	-14764
瑟	-14765
眺	-14766
羡	-14767
裳	-14768
餐	-14769
鸳	-14770
党	-14771
嘘	-14772
坠	-14773
填	-14774
嵌	-14775
恢	-14776
懊	-14777
渴	-14778
祭	-14779
罡	-14780
艇	-14781
贞	-14782
闩	-14783
巅	-14784
序	-14785
库	-14786
歼	-14787
渗	-14788
胯	-14789
蚁	-14790
钝	-14791
锄	-14792
麦	-14793
俘	-14794
倔	-14795
剖	-14796
唠	-14797
垣	-14798
恁	-14799
抿	-14800
揪	-14801
昧	-14802
炙	-14803
眷	-14804
碟	-14805
裙	-14806
货	-14807
酿	-14808
钓	-14809
锣	-14810
馒	-14811
嘭	-14812
奖	-14813
检	-14814
橱	-14815
沫	-14816
澄	-14817
睨	-14818
镶	-14819
驳	-14820
驻	-14821
嗫	-14822
扼	-14823
笺	-14824
裸	-14825
乏	-14826
伺	-14827
嚅	-14828
庞	-14829
汴	-14830
沮	-14831
篮	-14832
葵	-14833
袱	-14834
赎	-14835
蹊	-14836
酱	-14837
骆	-14838
剐	-14839
宅	-14840
寄	-14841
巍	-14842
帚	-14843
捺	-14844
煦	-14845
牲	-14846
祷	-14847
胃	-14848
讳	-14849
轩	-14850
锡	-14851
宇	-14852
檐	-14853
浙	-14854
灶	-14855
疆	-14856
轧	-14857
偕	-14858
偿	-14859
奚	-14860
揉	-14861
晦	-14862
润	-14863
淹	-14864
烘	-14865
熙	-14866
禄	-14867
虹	-14868
键	-14869
鬟	-14870
嚓	-14871
壳	-14872
惩	-14873
搅	-14874
撩	-14875
杭	-14876
砂	-14877
踝	-14878
钥	-14879
a	-14880
s	-14881
伽	-14882
兢	-14883
刁	-14884
嗅	-14885
妓	-14886
寝	-14887
忸	-14888
怩	-14889
悯	-14890
籁	-14891
育	-14892
菱	-14893
阶	-14894
鸯	-14895
兮	-14896
搓	-14897
榜	-14898
漂	-14899
睽	-14900
缕	-14901
虐	-14902
蚊	-14903
踱	-14904
魅	-14905
摊	-14906
敛	-14907
斡	-14908
栏	-14909
珑	-14910
瞑	-14911
蝎	-14912
袒	-14913
贻	-14914
郊	-14915
e	-14916
揽	-14917
槐	-14918
汁	-14919
糖	-14920
膂	-14921
讽	-14922
谆	-14923
蹑	-14924
钗	-14925
陶	-14926
障	-14927
鸽	-14928
唔	-14929
垫	-14930
央	-14931
嫡	-14932
慎	-14933
梵	-14934
泡	-14935
瑞	-14936
疚	-14937
窦	-14938
织	-14939
胶	-14940
蔽	-14941
蛙	-14942
辅	-14943
锯	-14944
龚	-14945
匾	-14946
啐	-14947
噤	-14948
症	-14949
眸	-14950
粱	-14951
飒	-14952
—	-14953
俟	-14954
弩	-14955
挚	-14956
溢	-14957
甬	-14958
苟	-14959
蟀	-14960
醺	-14961
驯	-14962
啄	-14963
垢	-14964
擂	-14965
歧	-14966
毡	-14967
祠	-14968
竞	-14969
舷	-14970
蟒	-14971
袜	-14972
韧	-14973
1	-14974
h	-14975
i	-14976
仿	-14977
侃	-14978
偎	-14979
弧	-14980
撰	-14981
沟	-14982
涎	-14983
烫	-14984
爵	-14985
瓣	-14986
稚	-14987
组	-14988
讪	-14989
仄	-14990
咄	-14991
嗬	-14992
噪	-14993
屎	-14994
巢	-14995
愉	-14996
斫	-14997
港	-14998
狰	-14999
稻	-15000
窿	-15001
翘	-15002
藉	-15003
诞	-15004
颏	-15005
坊	-15006
帛	-15007
庇	-15008
怅	-15009
戚	-15010
戾	-15011
搞	-15012
敕	-15013
甥	-15014
窑	-15015
纱	-15016
翩	-15017
芝	-15018
袅	-15019
褴	-15020
诬	-15021
谕	-15022
趾	-15023
钳	-15024
靴	-15025
馨	-15026
鸭	-15027
咭	-15028
哧	-15029
唰	-15030
喻	-15031
弈	-15032
昌	-15033
猝	-15034
窘	-15035
簿	-15036
絮	-15037
署	-15038
聂	-15039
聘	-15040
臼	-15041
蔑	-15042
衍	-15043
褛	-15044
骼	-15045
n	-15046
o	-15047
嬉	-15048
徨	-15049
悚	-15050
摄	-15051
旭	-15052
沓	-15053
沼	-15054
溺	-15055
牟	-15056
玎	-15057
签	-15058
臻	-15059
虞	-15060
阎	-15061
t	-15062
乙	-15063
债	-15064
兆	-15065
剌	-15066
唧	-15067
惕	-15068
戈	-15069
捶	-15070
晒	-15071
晰	-15072
枭	-15073
氓	-15074
獐	-15075
痰	-15076
磋	-15077
科	-15078
秤	-15079
聆	-15080
肮	-15081
胄	-15082
蛭	-15083
迂	-15084
迄	-15085
馋	-15086
伞	-15087
偌	-15088
噫	-15089
届	-15090
沅	-15091
渍	-15092
狯	-15093
磬	-15094
筑	-15095
腮	-15096
蛊	-15097
谛	-15098
雇	-15099
卢	-15100
奕	-15101
妞	-15102
姜	-15103
审	-15104
捆	-15105
控	-15106
汩	-15107
潘	-15108
熏	-15109
碾	-15110
绍	-15111
羹	-15112
莱	-15113
蕾	-15114
诫	-15115
赋	-15116
遁	-15117
黏	-15118
柬	-15119
毅	-15120
狄	-15121
甸	-15122
缆	-15123
翔	-15124
腼	-15125
荫	-15126
蔡	-15127
诏	-15128
踹	-15129
酬	-15130
丞	-15131
俨	-15132
咎	-15133
暑	-15134
烹	-15135
猥	-15136
篓	-15137
篙	-15138
罐	-15139
腆	-15140
购	-15141
钹	-15142
镗	-15143
傀	-15144
咸	-15145
崽	-15146
捋	-15147
澈	-15148
瘴	-15149
砺	-15150
遏	-15151
锵	-15152
企	-15153
吮	-15154
娜	-15155
孕	-15156
峡	-15157
悸	-15158
朔	-15159
樱	-15160
殃	-15161
涵	-15162
皓	-15163
睦	-15164
瞻	-15165
祈	-15166
秉	-15167
航	-15168
艾	-15169
蝇	-15170
蹬	-15171
辔	-15172
酥	-15173
铅	-15174
髻	-15175
鸿	-15176
兹	-15177
匣	-15178
吠	-15179
娟	-15180
媒	-15181
懈	-15182
扒	-15183
播	-15184
昼	-15185
浇	-15186
渺	-15187
溃	-15188
玲	-15189
瘤	-15190
纛	-15191
缨	-15192
胥	-15193
舐	-15194
衅	-15195
裕	-15196
辙	-15197
锈	-15198
靡	-15199
髓	-15200
鹅	-15201
麼	-15202
鼾	-15203
2	-15204
吏	-15205
喏	-15206
嘀	-15207
嘈	-15208
彷	-15209
忤	-15210
忾	-15211
惋	-15212
戕	-15213
旅	-15214
朕	-15215
桓	-15216
殆	-15217
炽	-15218
琐	-15219
盯	-15220
绌	-15221
蚂	-15222
蚌	-15223
蟋	-15224
蠕	-15225
谣	-15226
贮	-15227
跋	-15228
颐	-15229
`	-15230
俺	-15231
儡	-15232
唿	-15233
淙	-15234
煌	-15235
狸	-15236
谜	-15237
逛	-15238
铭	-15239
陕	-15240
饨	-15241
吱	-15242
巫	-15243
悻	-15244
抡	-15245
析	-15246
桐	-15247
槛	-15248
渎	-15249
燥	-15250
胞	-15251
膺	-15252
蚪	-15253
蝌	-15254
鄂	-15255
镔	-15256
馄	-15257
0	-15258
丙	-15259
亵	-15260
內	-15261
剽	-15262
咀	-15263
啥	-15264
嗣	-15265
忏	-15266
懦	-15267
揍	-15268
攒	-15269
枰	-15270
檀	-15271
泗	-15272
灸	-15273
炫	-15274
痣	-15275
瘟	-15276
茗	-15277
虾	-15278
蛾	-15279
蜘	-15280
蝙	-15281
衙	-15282
课	-15283
贡	-15284
贩	-15285
踩	-15286
镯	-15287
协	-15288
卿	-15289
厘	-15290
妆	-15291
崎	-15292
怡	-15293
搽	-15294
撮	-15295
晴	-15296
滨	-15297
疫	-15298
痪	-15299
盔	-15300
睫	-15301
磁	-15302
绷	-15303
缭	-15304
羁	-15305
胭	-15306
臊	-15307
裁	-15308
阖	-15309
隶	-15310
需	-15311
颚	-15312
r	-15313
亚	-15314
仃	-15315
伎	-15316
咧	-15317
唣	-15318
培	-15319
婀	-15320
岖	-15321
挠	-15322
斓	-15323
曳	-15324
梭	-15325
沦	-15326
疮	-15327
税	-15328
簇	-15329
翡	-15330
蒂	-15331
谬	-15332
跚	-15333
蹋	-15334
蹒	-15335
骥	-15336
g	-15337
伊	-15338
俄	-15339
剜	-15340
噼	-15341
坞	-15342
嫉	-15343
徽	-15344
惆	-15345
拄	-15346
桂	-15347
植	-15348
榭	-15349
绎	-15350
茂	-15351
茸	-15352
菌	-15353
藕	-15354
蝮	-15355
诳	-15356
逅	-15357
邂	-15358
醇	-15359
铿	-15360
霆	-15361
咙	-15362
坎	-15363
坪	-15364
姨	-15365
惚	-15366
攘	-15367
桧	-15368
浊	-15369
牡	-15370
璇	-15371
癞	-15372
眠	-15373
矢	-15374
篡	-15375
羔	-15376
舢	-15377
舨	-15378
葱	-15379
蚀	-15380
蜒	-15381
衔	-15382
闽	-15383
颓	-15384
骚	-15385
麾	-15386
·	-15387
○	-15388
兑	-15389
函	-15390
剿	-15391
卉	-15392
咿	-15393
唬	-15394
孰	-15395
峙	-15396
拷	-15397
撅	-15398
旌	-15399
晏	-15400
梓	-15401
濠	-15402
炒	-15403
瓮	-15404
纲	-15405
耆	-15406
萄	-15407
葡	-15408
蘸	-15409
衬	-15410
诊	-15411
诌	-15412
酌	-15413
锻	-15414
颖	-15415
鲤	-15416
3	-15417
噬	-15418
妮	-15419
岗	-15420
斋	-15421
洲	-15422
焕	-15423
皈	-15424
荼	-15425
萦	-15426
蔼	-15427
谀	-15428
赃	-15429
镬	-15430
阐	-15431
靥	-15432
颁	-15433
伉	-15434
俦	-15435
俪	-15436
勘	-15437
啮	-15438
孜	-15439
宥	-15440
庚	-15441
彰	-15442
忡	-15443
恚	-15444
愠	-15445
抒	-15446
拓	-15447
撼	-15448
曹	-15449
溯	-15450
眈	-15451
砌	-15452
笠	-15453
豺	-15454
辗	-15455
逻	-15456
阙	-15457
鹘	-15458
喳	-15459
嘤	-15460
屡	-15461
庐	-15462
庶	-15463
弑	-15464
怫	-15465
愆	-15466
扩	-15467
揿	-15468
搐	-15469
柿	-15470
栈	-15471
棱	-15472
沈	-15473
涡	-15474
湾	-15475
炊	-15476
煤	-15477
熔	-15478
猱	-15479
玷	-15480
琵	-15481
琶	-15482
瘾	-15483
皑	-15484
砚	-15485
竿	-15486
萝	-15487
裔	-15488
隘	-15489
鸾	-15490
估	-15491
励	-15492
匡	-15493
厥	-15494
嗜	-15495
寇	-15496
廉	-15497
掬	-15498
旬	-15499
晤	-15500
槌	-15501
毯	-15502
浴	-15503
渝	-15504
溶	-15505
漾	-15506
澜	-15507
炷	-15508
琅	-15509
瞠	-15510
篾	-15511
簧	-15512
肾	-15513
臆	-15514
舂	-15515
蟠	-15516
褪	-15517
觊	-15518
谄	-15519
谒	-15520
踞	-15521
铄	-15522
锏	-15523
魏	-15524
鳞	-15525
匈	-15526
嗥	-15527
嚏	-15528
型	-15529
垓	-15530
堤	-15531
孺	-15532
弊	-15533
捞	-15534
掣	-15535
栖	-15536
沽	-15537
湍	-15538
磺	-15539
礁	-15540
箍	-15541
箕	-15542
绅	-15543
胚	-15544
胫	-15545
舀	-15546
芥	-15547
萤	-15548
蟹	-15549
觎	-15550
辕	-15551
鄱	-15552
驷	-15553
佯	-15554
俚	-15555
偈	-15556
卡	-15557
叟	-15558
哒	-15559
啾	-15560
喟	-15561
娼	-15562
嫔	-15563
嬛	-15564
嶙	-15565
徵	-15566
敞	-15567
桀	-15568
橇	-15569
泞	-15570
漩	-15571
澡	-15572
犁	-15573
砒	-15574
篆	-15575
缀	-15576
脐	-15577
蜷	-15578
览	-15579
讹	-15580
谏	-15581
谐	-15582
赚	-15583
踊	-15584
酋	-15585
陌	-15586
饲	-15587
馁	-15588
鳅	-15589
4	-15590
w	-15591
倜	-15592
傥	-15593
哂	-15594
嗦	-15595
妩	-15596
娓	-15597
娱	-15598
嫖	-15599
忝	-15600
摹	-15601
楷	-15602
槁	-15603
淘	-15604
滕	-15605
矍	-15606
硝	-15607
祜	-15608
稠	-15609
稼	-15610
糙	-15611
缴	-15612
翎	-15613
胳	-15614
茎	-15615
萃	-15616
萌	-15617
薰	-15618
蜿	-15619
蝉	-15620
袄	-15621
赘	-15622
骛	-15623
8	-15624
亟	-15625
佣	-15626
倨	-15627
储	-15628
凋	-15629
刊	-15630
卯	-15631
吝	-15632
圃	-15633
奠	-15634
屹	-15635
恤	-15636
悼	-15637
搪	-15638
攸	-15639
杠	-15640
档	-15641
殒	-15642
汇	-15643
淤	-15644
玛	-15645
璃	-15646
瘁	-15647
眇	-15648
磷	-15649
绒	-15650
缦	-15651
膜	-15652
膳	-15653
苇	-15654
苔	-15655
莞	-15656
萎	-15657
雍	-15658
鹗	-15659
c	-15660
亿	-15661
剁	-15662
卵	-15663
厕	-15664
垮	-15665
孀	-15666
峋	-15667
嵇	-15668
捻	-15669
梗	-15670
沌	-15671
泫	-15672
猖	-15673
琉	-15674
簪	-15675
绉	-15676
芹	-15677
苹	-15678
葆	-15679
虔	-15680
袂	-15681
褥	-15682
轨	-15683
辖	-15684
邵	-15685
骢	-15686
龊	-15687
k	-15688
亥	-15689
冀	-15690
匿	-15691
塑	-15692
妪	-15693
宦	-15694
寓	-15695
屉	-15696
弛	-15697
怼	-15698
恫	-15699
懵	-15700
扈	-15701
扛	-15702
捐	-15703
掂	-15704
椽	-15705
槃	-15706
汾	-15707
泯	-15708
涅	-15709
犀	-15710
皂	-15711
码	-15712
绩	-15713
脯	-15714
茹	-15715
荐	-15716
菇	-15717
蔬	-15718
蝗	-15719
蟾	-15720
诅	-15721
谤	-15722
贷	-15723
遽	-15724
铎	-15725
隅	-15726
霭	-15727
饵	-15728
骋	-15729
龌	-15730
7	-15731
9	-15732
u	-15733
伕	-15734
俾	-15735
僮	-15736
删	-15737
哮	-15738
喙	-15739
夤	-15740
寐	-15741
巽	-15742
弘	-15743
恪	-15744
愣	-15745
憋	-15746
憨	-15747
撬	-15748
栅	-15749
沥	-15750
湮	-15751
烬	-15752
煽	-15753
笋	-15754
篑	-15755
纭	-15756
绫	-15757
缒	-15758
羲	-15759
薪	-15760
蜀	-15761
衽	-15762
讷	-15763
贰	-15764
贿	-15765
蹦	-15766
逮	-15767
隧	-15768
靓	-15769
颅	-15770
鸢	-15771
麝	-15772
亩	-15773
佬	-15774
佼	-15775
匝	-15776
呒	-15777
咫	-15778
售	-15779
唳	-15780
啜	-15781
堡	-15782
帜	-15783
徊	-15784
怏	-15785
恸	-15786
挛	-15787
旱	-15788
暧	-15789
柢	-15790
栩	-15791
潼	-15792
犒	-15793
獠	-15794
痹	-15795
瘀	-15796
皎	-15797
础	-15798
禹	-15799
稔	-15800
稷	-15801
簸	-15802
粤	-15803
芍	-15804
莺	-15805
蔓	-15806
蜮	-15807
讧	-15808
诘	-15809
钞	-15810
隽	-15811
颦	-15812
骎	-15813
鳌	-15814
f	-15815
y	-15816
〇	-15817
亨	-15818
偻	-15819
劭	-15820
咆	-15821
咤	-15822
哝	-15823
嚣	-15824
垦	-15825
壤	-15826
姗	-15827
娉	-15828
婷	-15829
宪	-15830
尉	-15831
屯	-15832
彀	-15833
徘	-15834
惫	-15835
憩	-15836
戛	-15837
掇	-15838
旖	-15839
柩	-15840
械	-15841
橐	-15842
汽	-15843
浒	-15844
潸	-15845
濂	-15846
濛	-15847
炬	-15848
爿	-15849
獒	-15850
瑕	-15851
畴	-15852
痉	-15853
痞	-15854
瞄	-15855
瞭	-15856
矇	-15857
砾	-15858
硫	-15859
纺	-15860
脍	-15861
舰	-15862
蜇	-15863
谲	-15864
贲	-15865
跶	-15866
辫	-15867
铩	-15868
镫	-15869
陲	-15870
馥	-15871
鳖	-15872
鹊	-15873
5	-15874
6	-15875
d	-15876
l	-15877
冼	-15878
券	-15879
剔	-15880
呱	-15881
喽	-15882
噢	-15883
垒	-15884
奢	-15885
寰	-15886
怆	-15887
懑	-15888
抉	-15889
拊	-15890
拌	-15891
拧	-15892
摒	-15893
旄	-15894
榆	-15895
橛	-15896
歃	-15897
氤	-15898
沐	-15899
洽	-15900
浣	-15901
涤	-15902
淆	-15903
渠	-15904
湃	-15905
澎	-15906
犷	-15907
猩	-15908
町	-15909
癯	-15910
砧	-15911
硕	-15912
篱	-15913
缟	-15914
缤	-15915
翰	-15916
膊	-15917
臃	-15918
莎	-15919
蒜	-15920
藐	-15921
褓	-15922
襁	-15923
豸	-15924
轾	-15925
辍	-15926
迥	-15927
迪	-15928
遑	-15929
钮	-15930
颧	-15931
骁	-15932
鸩	-15933
鸷	-15934
佝	-15935
倡	-15936
僭	-15937
凯	-15938
剂	-15939
厦	-15940
咩	-15941
咪	-15942
喁	-15943
嗲	-15944
坍	-15945
妁	-15946
幡	-15947
徙	-15948
徬	-15949
愫	-15950
戎	-15951
扉	-15952
扔	-15953
挢	-15954
搠	-15955
撵	-15956
擎	-15957
旎	-15958
昊	-15959
昽	-15960
暄	-15961
杳	-15962
枷	-15963
榴	-15964
涣	-15965
淅	-15966
漉	-15967
潦	-15968
灼	-15969
牺	-15970
玻	-15971
瑙	-15972
瑜	-15973
瓢	-15974
疙	-15975
瘩	-15976
皿	-15977
盥	-15978
眬	-15979
睿	-15980
纽	-15981
缅	-15982
缔	-15983
羚	-15984
芬	-15985
菲	-15986
蔚	-15987
裣	-15988
譬	-15989
蹶	-15990
蹻	-15991
轶	-15992
辚	-15993
邋	-15994
邱	-15995
闾	-15996
飓	-15997
饪	-15998
饯	-15999
驮	-16000
驿	-16001
骓	-16002
骰	-16003
仕	-16004
佻	-16005
俭	-16006
倩	-16007
冃	-16008
冑	-16009
冢	-16010
勋	-16011
卤	-16012
厂	-16013
咛	-16014
啃	-16015
喆	-16016
墟	-16017
壑	-16018
弭	-16019
恬	-16020
戌	-16021
掺	-16022
掼	-16023
撄	-16024
昵	-16025
杓	-16026
杞	-16027
棕	-16028
橘	-16029
殓	-16030
氳	-16031
泳	-16032
涓	-16033
焙	-16034
瘪	-16035
癖	-16036
癸	-16037
皙	-16038
盎	-16039
眦	-16040
祯	-16041
窈	-16042
箩	-16043
箸	-16044
绦	-16045
膨	-16046
苓	-16047
茧	-16048
荦	-16049
董	-16050
蓑	-16051
藩	-16052
虱	-16053
蜍	-16054
蝼	-16055
袁	-16056
裴	-16057
诨	-16058
诽	-16059
诿	-16060
谑	-16061
赂	-16062
踵	-16063
辄	-16064
迓	-16065
遐	-16066
遢	-16067
釜	-16068
鏖	-16069
钿	-16070
镂	-16071
阂	-16072
阕	-16073
靶	-16074
飨	-16075
饺	-16076
驭	-16077
骊	-16078
骧	-16079
鬃	-16080
鬣	-16081
鹜	-16082
佞	-16083
侂	-16084
僚	-16085
冉	-16086
冽	-16087
勺	-16088
卩	-16089
厩	-16090
叵	-16091
呰	-16092
啖	-16093
喋	-16094
嘡	-16095
圜	-16096
埃	-16097
墩	-16098
奧	-16099
娈	-16100
孪	-16101
峦	-16102
崭	-16103
彳	-16104
忱	-16105
怂	-16106
恂	-16107
恣	-16108
惦	-16109
愀	-16110
拯	-16111
挲	-16112
揩	-16113
擞	-16114
晖	-16115
暨	-16116
曦	-16117
栋	-16118
桁	-16119
框	-16120
樟	-16121
毋	-16122
毗	-16123
沁	-16124
