<unk>	0
<s>	0
</s>	0
<0x00>	0
<0x01>	0
<0x02>	0
<0x03>	0
<0x04>	0
<0x05>	0
<0x06>	0
<0x07>	0
<0x08>	0
<0x09>	0
<0x0A>	0
<0x0B>	0
<0x0C>	0
<0x0D>	0
<0x0E>	0
<0x0F>	0
<0x10>	0
<0x11>	0
<0x12>	0
<0x13>	0
<0x14>	0
<0x15>	0
<0x16>	0
<0x17>	0
<0x18>	0
<0x19>	0
<0x1A>	0
<0x1B>	0
<0x1C>	0
<0x1D>	0
<0x1E>	0
<0x1F>	0
<0x20>	0
<0x21>	0
<0x22>	0
<0x23>	0
<0x24>	0
<0x25>	0
<0x26>	0
<0x27>	0
<0x28>	0
<0x29>	0
<0x2A>	0
<0x2B>	0
<0x2C>	0
<0x2D>	0
<0x2E>	0
<0x2F>	0
<0x30>	0
<0x31>	0
<0x32>	0
<0x33>	0
<0x34>	0
<0x35>	0
<0x36>	0
<0x37>	0
<0x38>	0
<0x39>	0
<0x3A>	0
<0x3B>	0
<0x3C>	0
<0x3D>	0
<0x3E>	0
<0x3F>	0
<0x40>	0
<0x41>	0
<0x42>	0
<0x43>	0
<0x44>	0
<0x45>	0
<0x46>	0
<0x47>	0
<0x48>	0
<0x49>	0
<0x4A>	0
<0x4B>	0
<0x4C>	0
<0x4D>	0
<0x4E>	0
<0x4F>	0
<0x50>	0
<0x51>	0
<0x52>	0
<0x53>	0
<0x54>	0
<0x55>	0
<0x56>	0
<0x57>	0
<0x58>	0
<0x59>	0
<0x5A>	0
<0x5B>	0
<0x5C>	0
<0x5D>	0
<0x5E>	0
<0x5F>	0
<0x60>	0
<0x61>	0
<0x62>	0
<0x63>	0
<0x64>	0
<0x65>	0
<0x66>	0
<0x67>	0
<0x68>	0
<0x69>	0
<0x6A>	0
<0x6B>	0
<0x6C>	0
<0x6D>	0
<0x6E>	0
<0x6F>	0
<0x70>	0
<0x71>	0
<0x72>	0
<0x73>	0
<0x74>	0
<0x75>	0
<0x76>	0
<0x77>	0
<0x78>	0
<0x79>	0
<0x7A>	0
<0x7B>	0
<0x7C>	0
<0x7D>	0
<0x7E>	0
<0x7F>	0
<0x80>	0
<0x81>	0
<0x82>	0
<0x83>	0
<0x84>	0
<0x85>	0
<0x86>	0
<0x87>	0
<0x88>	0
<0x89>	0
<0x8A>	0
<0x8B>	0
<0x8C>	0
<0x8D>	0
<0x8E>	0
<0x8F>	0
<0x90>	0
<0x91>	0
<0x92>	0
<0x93>	0
<0x94>	0
<0x95>	0
<0x96>	0
<0x97>	0
<0x98>	0
<0x99>	0
<0x9A>	0
<0x9B>	0
<0x9C>	0
<0x9D>	0
<0x9E>	0
<0x9F>	0
<0xA0>	0
<0xA1>	0
<0xA2>	0
<0xA3>	0
<0xA4>	0
<0xA5>	0
<0xA6>	0
<0xA7>	0
<0xA8>	0
<0xA9>	0
<0xAA>	0
<0xAB>	0
<0xAC>	0
<0xAD>	0
<0xAE>	0
<0xAF>	0
<0xB0>	0
<0xB1>	0
<0xB2>	0
<0xB3>	0
<0xB4>	0
<0xB5>	0
<0xB6>	0
<0xB7>	0
<0xB8>	0
<0xB9>	0
<0xBA>	0
<0xBB>	0
<0xBC>	0
<0xBD>	0
<0xBE>	0
<0xBF>	0
<0xC0>	0
<0xC1>	0
<0xC2>	0
<0xC3>	0
<0xC4>	0
<0xC5>	0
<0xC6>	0
<0xC7>	0
<0xC8>	0
<0xC9>	0
<0xCA>	0
<0xCB>	0
<0xCC>	0
<0xCD>	0
<0xCE>	0
<0xCF>	0
<0xD0>	0
<0xD1>	0
<0xD2>	0
<0xD3>	0
<0xD4>	0
<0xD5>	0
<0xD6>	0
<0xD7>	0
<0xD8>	0
<0xD9>	0
<0xDA>	0
<0xDB>	0
<0xDC>	0
<0xDD>	0
<0xDE>	0
<0xDF>	0
<0xE0>	0
<0xE1>	0
<0xE2>	0
<0xE3>	0
<0xE4>	0
<0xE5>	0
<0xE6>	0
<0xE7>	0
<0xE8>	0
<0xE9>	0
<0xEA>	0
<0xEB>	0
<0xEC>	0
<0xED>	0
<0xEE>	0
<0xEF>	0
<0xF0>	0
<0xF1>	0
<0xF2>	0
<0xF3>	0
<0xF4>	0
<0xF5>	0
<0xF6>	0
<0xF7>	0
<0xF8>	0
<0xF9>	0
<0xFA>	0
<0xFB>	0
<0xFC>	0
<0xFD>	0
<0xFE>	0
<0xFF>	0
主义	-0
我们	-1
中国	-2
人民	-3
革命	-4
阶级	-5
他们	-6
--	-7
战争	-8
一个	-9
国民	-10
一九	-11
问题	-12
没有	-13
就是	-14
产阶级	-15
国民党	-16
这个	-17
共产	-18
工作	-19
民主	-20
社会	-21
共产党	-22
国主义	-23
一切	-24
帝国主义	-25
抗日	-26
政府	-27
发展	-28
这种	-29
斗争	-30
资产阶级	-31
群众	-32
政治	-33
----	-34
不是	-35
现在	-36
但是	-37
必须	-38
方面	-39
解放	-40
不能	-41
这是	-42
领导	-43
农民	-44
反对	-45
对于	-46
这些	-47
敌人	-48
这样	-49
▁〔	-50
日本	-51
民族	-52
可以	-53
我们的	-54
自己	-55
主义的	-56
大的	-57
什么	-58
全国	-59
政策	-60
错误	-61
同志	-62
统一	-63
分子	-64
军队	-65
运动	-66
合作	-67
国家	-68
经济	-69
中央	-70
▁(	-71
矛盾	-72
革命的	-73
组织	-74
”,	-75
可能	-76
因为	-77
部分	-78
胜利	-79
反动	-80
介石	-81
蒋介石	-82
已经	-83
许多	-84
根据	-85
起来	-86
),	-87
力量	-88
时期	-89
地方	-90
进攻	-91
实行	-92
条件	-93
生产	-94
人民的	-95
土地	-96
第一	-97
团结	-98
世界	-99
一九四	-100
如果	-101
思想	-102
要的	-103
社会主义	-104
这一	-105
战线	-106
情况	-107
的人	-108
解决	-109
党的	-110
红军	-111
进行	-112
游击	-113
第二	-114
代表	-115
会议	-116
阶段	-117
应当	-118
中的	-119
资本	-120
任务	-121
完全	-122
战争的	-123
你们	-124
建立	-125
上的	-126
方法	-127
都是	-128
只有	-129
美国	-130
干部	-131
克思	-132
马克思	-133
军事	-134
应该	-135
中国的	-136
根据地	-137
二十	-138
东西	-139
正确	-140
一九三	-141
的时	-142
中国共产党	-143
工人	-144
无产阶级	-145
所谓	-146
方针	-147
不要	-148
准备	-149
封建	-150
一定	-151
也是	-152
战略	-153
经验	-154
基本	-155
历史	-156
和平	-157
有些	-158
以后	-159
▁#	-160
统一战线	-161
地主	-162
毛泽	-163
毛泽东	-164
知识	-165
合作社	-166
--------	-167
文化	-168
作战	-169
抗战	-170
他们的	-171
路线	-172
一种	-173
要求	-174
主要	-175
过去	-176
关于	-177
因此	-178
其他	-179
关系	-180
统治	-181
解放区	-182
七年	-183
而且	-184
还是	-185
苏联	-186
采取	-187
一些	-188
原则	-189
发生	-190
工业	-191
地区	-192
自己的	-193
的问题	-194
城市	-195
农业	-196
或者	-197
”。	-198
存在	-199
是不	-200
制度	-201
中国人民	-202
两个	-203
一部分	-204
计划	-205
一九二	-206
为了	-207
所以	-208
能够	-209
五年	-210
列宁	-211
不同	-212
还有	-213
委员	-214
实际	-215
日本帝国主义	-216
侵略	-217
提出	-218
来的	-219
这就是	-220
由于	-221
反革命	-222
第三	-223
中间	-224
任何	-225
目的	-226
知识分子	-227
建设	-228
农村	-229
消灭	-230
争取	-231
开始	-232
武装	-233
分之	-234
注意	-235
困难	-236
教育	-237
投降	-238
机关	-239
资本主义	-240
改造	-241
见本	-242
需要	-243
决定	-244
到了	-245
坚决	-246
党内	-247
解放军	-248
是在	-249
一月	-250
基础	-251
一年	-252
内战	-253
才能	-254
失败	-255
当时	-256
参加	-257
经过	-258
政权	-259
自由	-260
生活	-261
同时	-262
地位	-263
批评	-264
的时候	-265
不但	-266
中农	-267
比较	-268
中共	-269
国内	-270
)。	-271
积极	-272
研究	-273
继续	-274
集中	-275
人的	-276
巩固	-277
成了	-278
国际	-279
劳动	-280
势力	-281
国的	-282
部队	-283
一点	-284
大会	-285
。”	-286
的东西	-287
改革	-288
反动派	-289
进步	-290
战役	-291
:“	-292
办法	-293
破坏	-294
形势	-295
这里	-296
八年	-297
意见	-298
目前	-299
少数	-300
广大	-301
新的	-302
之间	-303
联合	-304
利益	-305
并且	-306
结果	-307
性的	-308
——	-309
发动	-310
多数	-311
一方面	-312
百分之	-313
认为	-314
形式	-315
过程	-316
正确的	-317
有了	-318
人民解放军	-319
〕。	-320
而是	-321
也不	-322
压迫	-323
十二	-324
内部	-325
认识	-326
例如	-327
整个	-328
严重	-329
党派	-330
那些	-331
▁##	-332
取得	-333
一般	-334
学习	-335
三个	-336
实现	-337
的矛盾	-338
一九五	-339
努力	-340
变化	-341
态度	-342
殖民	-343
坚持	-344
战斗	-345
理论	-346
殖民地	-347
的革命	-348
具体	-349
的斗争	-350
几个	-351
委员会	-352
及其	-353
执行	-354
这样的	-355
它的	-356
就要	-357
全部	-358
彻底	-359
所有	-360
青年	-361
敌人的	-362
之下	-363
互相	-364
反共	-365
最后	-366
长期	-367
各种	-368
宣传	-369
错误的	-370
六年	-371
帮助	-372
特别	-373
完成	-374
愿意	-375
群众的	-376
三民	-377
性质	-378
边区	-379
好的	-380
成为	-381
资产阶级的	-382
工农	-383
抗日战争	-384
事物	-385
围剿	-386
事业	-387
▁在	-388
的工作	-389
只要	-390
为什么	-391
还没有	-392
对的	-393
承认	-394
之后	-395
不可	-396
三年	-397
先生	-398
主张	-399
改变	-400
达到	-401
是一个	-402
主观	-403
十月	-404
时间	-405
专政	-406
克服	-407
人们	-408
加以	-409
军的	-410
包括	-411
南京	-412
这次	-413
有的	-414
虽然	-415
还要	-416
一样	-417
很多	-418
纲领	-419
规定	-420
游击战争	-421
兵力	-422
提高	-423
真正	-424
歼灭	-425
独立	-426
它们	-427
希望	-428
行动	-429
的方法	-430
一次	-431
实践	-432
的政策	-433
中国革命	-434
共和	-435
四年	-436
集团	-437
富农	-438
有利	-439
的大	-440
三民主义	-441
以及	-442
指挥	-443
影响	-444
扩大	-445
事情	-446
今天	-447
防御	-448
领导的	-449
就不	-450
根本	-451
说的	-452
活动	-453
援助	-454
一百	-455
曾经	-456
贫农	-457
当然	-458
表现	-459
新民主	-460
特点	-461
也有	-462
了解	-463
主要的	-464
国民党的	-465
十年	-466
首先	-467
万人	-468
作用	-469
机会	-470
中共中央	-471
知道	-472
必要的	-473
我党	-474
观点	-475
重要	-476
全国人民	-477
中华	-478
共同	-479
命令	-480
大家	-481
斗争的	-482
懂得	-483
正规	-484
九年	-485
右派	-486
动员	-487
学生	-488
策略	-489
事变	-490
人员	-491
党员	-492
路军	-493
东北	-494
民众	-495
程度	-496
联系	-497
的政治	-498
官僚	-499
就会	-500
时候	-501
普遍	-502
合作化	-503
在中国	-504
伟大的	-505
马克思列宁	-506
占领	-507
如此	-508
成立	-509
▁见本	-510
的领导	-511
出版	-512
某些	-513
▁我们	-514
一定要	-515
一致	-516
区域	-517
那个	-518
那末	-519
土地改革	-520
马克思主义	-521
利用	-522
中国革命的	-523
国民党政府	-524
是有	-525
谈判	-526
广大的	-527
九月	-528
只是	-529
一九二七年	-530
以为	-531
增加	-532
打击	-533
起义	-534
情形	-535
科学	-536
第五	-537
以前	-538
正在	-539
那里	-540
社会主义的	-541
分析	-542
指导	-543
这个问题	-544
,“	-545
的发展	-546
顽固	-547
这一点	-548
阶级的	-549
举行	-550
依靠	-551
然而	-552
三十	-553
全体	-554
报告	-555
指示	-556
的和	-557
小资产阶级	-558
四军	-559
▁这是	-560
的方针	-561
八月	-562
决议	-563
接受	-564
延安	-565
都要	-566
▁>	-567
不得	-568
危险	-569
口号	-570
奋斗	-571
迅速	-572
大林	-573
暂时	-574
斯大林	-575
一日	-576
事实	-577
法西	-578
现象	-579
法西斯	-580
的战争	-581
七月	-582
各地	-583
规模	-584
下去	-585
主力	-586
表示	-587
八路军	-588
同志们	-589
的情况	-590
精神	-591
一步	-592
出来	-593
的任务	-594
重要的	-595
军阀	-596
团体	-597
得到	-598
估计	-599
意义	-600
范围	-601
还不	-602
国家的	-603
基本上	-604
▁注	-605
为着	-606
各个	-607
打倒	-608
文艺	-609
十二月	-610
战胜	-611
优势	-612
区别	-613
获得	-614
革命战争	-615
▁--------	-616
停止	-617
变为	-618
商业	-619
讨论	-620
就不能	-621
的条件	-622
也要	-623
如何	-624
侵略者	-625
今年	-626
汉奸	-627
共和国	-628
兵团	-629
其中	-630
处理	-631
客观	-632
怎样	-633
方向	-634
缺点	-635
调查	-636
道路	-637
共产党员	-638
;(	-639
包围	-640
按照	-641
那样	-642
第一次	-643
恢复	-644
的民主	-645
中山	-646
我军	-647
的一	-648
可能的	-649
产生	-650
人口	-651
以来	-652
剥削	-653
同盟	-654
学校	-655
指出	-656
赞成	-657
的人民	-658
▁这是毛泽东	-659
全党	-660
证明	-661
政治上	-662
中国人民的	-663
全会	-664
结合	-665
孙中山	-666
一八	-667
中心	-668
拥护	-669
等等	-670
发展的	-671
将来	-672
第四	-673
主动	-674
乡村	-675
孤立	-676
的地方	-677
工人阶级	-678
因而	-679
大多数	-680
六月	-681
是要	-682
就可以	-683
很大的	-684
民族的	-685
问题的	-686
帝国主义的	-687
个人	-688
五月	-689
他的	-690
充分	-691
协定	-692
文章	-693
适当	-694
十一月	-695
半殖民地	-696
民族统一战线	-697
倾向	-698
陕甘	-699
上述	-700
前进	-701
一下	-702
发表	-703
特殊	-704
”(	-705
三月	-706
两种	-707
相反	-708
出版社	-709
蒋介石的	-710
》。	-711
原因	-712
反攻	-713
成绩	-714
觉悟	-715
说来	-716
的错误	-717
仍然	-718
对立	-719
整风	-720
责任	-721
逐步	-722
中全会	-723
书第一	-724
工作的	-725
代表大会	-726
动摇	-727
外国	-728
无论	-729
和人民	-730
新四军	-731
司令	-732
矛盾的	-733
书第一卷	-734
十五	-735
必要	-736
持久	-737
是否	-738
主义和	-739
的人们	-740
)、	-741
。(	-742
今后	-743
华北	-744
个旅	-745
因素	-746
教条	-747
江西	-748
相当	-749
实际上	-750
人民出版社	-751
▁释	-752
作为	-753
粮食	-754
都有	-755
的中国	-756
----------	-757
二年	-758
企图	-759
去年	-760
左右	-761
而不	-762
那么	-763
全世界	-764
民族资产阶级	-765
直接	-766
避免	-767
我们在	-768
胜利的	-769
国民党军队	-770
后来	-771
大战	-772
艺术	-773
野战	-774
除了	-775
在这个	-776
一天	-777
敌军	-778
起了	-779
辩证	-780
农民的	-781
陕甘宁	-782
之一	-783
前途	-784
妥协	-785
有一个	-786
了的	-787
得很	-788
然后	-789
结束	-790
造成	-791
抗日的	-792
。“	-793
我国	-794
来说	-795
真理	-796
〇年	-797
不过	-798
我看	-799
若干	-800
阵地	-801
政府的	-802
的原则	-803
上海	-804
叫做	-805
大众	-806
湖南	-807
规律	-808
存在着	-809
的时间	-810
新民主主义的	-811
十九	-812
只能	-813
环境	-814
那时	-815
我们是	-816
民主党派	-817
马克思主义的	-818
书记	-819
更加	-820
联盟	-821
脱离	-822
甚至	-823
落后	-824
和其他	-825
工商业	-826
我们要	-827
的经验	-828
陕甘宁边区	-829
人士	-830
使用	-831
全面	-832
农会	-833
宣言	-834
容易	-835
来了	-836
转变	-837
主义者	-838
的国家	-839
这样做	-840
以上	-841
在这	-842
宪法	-843
必然	-844
西北	-845
..	-846
内容	-847
取消	-848
四月	-849
属于	-850
推翻	-851
纠正	-852
第一个	-853
顽固派	-854
根据地的	-855
爱国	-856
百万	-857
限制	-858
以外	-859
武器	-860
相信	-861
纪律	-862
财政	-863
高潮	-864
特别是	-865
公开	-866
出发	-867
总是	-868
的是	-869
配合	-870
方面的	-871
帝国主义和	-872
互助	-873
至于	-874
日本侵略者	-875
▁“	-876
九十	-877
件事	-878
的新	-879
逐渐	-880
面前	-881
他们是	-882
一条	-883
保护	-884
出现	-885
加强	-886
立场	-887
要有	-888
队伍	-889
和发展	-890
所说的	-891
有些人	-892
第二次	-893
而不是	-894
抗日民族统一战线	-895
不足	-896
批判	-897
清楚	-898
缺乏	-899
负责	-900
坚决地	-901
以便	-902
退却	-903
非常	-904
利于	-905
右倾	-906
富裕	-907
战术	-908
打败	-909
自然	-910
我们就	-911
现在的	-912
运动的	-913
日本帝国主义的	-914
作风	-915
分裂	-916
步骤	-917
站在	-918
通过	-919
不会	-920
不好	-921
保存	-922
别的	-923
在全国	-924
时期内	-925
运动战	-926
反映	-927
性和	-928
状态	-929
▁(《	-930
红军的	-931
野战军	-932
共产党人	-933
、“	-934
双方	-935
对付	-936
敌我	-937
说明	-938
了一个	-939
的基础	-940
又是	-941
召开	-942
后方	-943
在于	-944
多少	-945
宗派	-946
怎么	-947
结论	-948
阴谋	-949
游击队	-950
的思想	-951
许多人	-952
世界大战	-953
农业生产	-954
五十	-955
党委	-956
八股	-957
局部	-958
毫无	-959
认真	-960
镇压	-961
民主革命	-962
一九四八年	-963
则是	-964
声明	-965
片面	-966
相同	-967
也没有	-968
马克思列宁主义的	-969
从事	-970
唯物	-971
处于	-972
支持	-973
不同的	-974
一九四六年	-975
各级	-976
服务	-977
的军队	-978
一九三七年	-979
一九四九年	-980
作了	-981
分散	-982
国共	-983
成功	-984
看来	-985
就是说	-986
的一个	-987
处在	-988
战场	-989
攻击	-990
究竟	-991
严重的	-992
手工业	-993
的关系	-994
问题上	-995
机会主义	-996
五四	-997
并不	-998
是很	-999
二月	-1000
伟大	-1001
十分	-1002
十四	-1003
在内	-1004
宣布	-1005
正是	-1006
精卫	-1007
七日	-1008
即是	-1009
变成	-1010
成分	-1011
技术	-1012
那种	-1013
第三次	-1014
过程中	-1015
不论	-1016
人类	-1017
具有	-1018
尤其	-1019
就有	-1020
提倡	-1021
改善	-1022
材料	-1023
比如	-1024
离开	-1025
第六	-1026
绝对	-1027
是没有	-1028
大量	-1029
对待	-1030
报纸	-1031
的力量	-1032
国民政府	-1033
不到	-1034
人家	-1035
总结	-1036
明白	-1037
现时	-1038
难道	-1039
也可以	-1040
是完全	-1041
汪精卫	-1042
十八	-1043
减租	-1044
发言	-1045
学会	-1046
者的	-1047
政策的	-1048
是什么	-1049
的一切	-1050
见本卷	-1051
创造	-1052
协商	-1053
往往	-1054
数量	-1055
时代	-1056
是指	-1057
权力	-1058
物质	-1059
边界	-1060
选集	-1061
在我们	-1062
的进攻	-1063
的国民党	-1064
上面	-1065
丧失	-1066
各项	-1067
山东	-1068
文学	-1069
集体	-1070
党内的	-1071
少数民族	-1072
俄国	-1073
劣绅	-1074
同意	-1075
同样	-1076
它是	-1077
理由	-1078
的事	-1079
还在	-1080
”、“	-1081
的土地	-1082
的态度	-1083
的结果	-1084
的胜利	-1085
▁见本书第一卷	-1086
党和	-1087
大批	-1088
损失	-1089
放弃	-1090
时局	-1091
权利	-1092
的话	-1093
英国	-1094
在这里	-1095
民主的	-1096
买办	-1097
保证	-1098
召集	-1099
号召	-1100
控制	-1101
超过	-1102
斗争中	-1103
是不能	-1104
犯错误	-1105
另一方面	-1106
》(	-1107
六日	-1108
奇逊	-1109
放在	-1110
条约	-1111
训练	-1112
道理	-1113
主要地	-1114
发生了	-1115
艾奇逊	-1116
规模的	-1117
辩证法	-1118
大资产阶级	-1119
下面	-1120
出了	-1121
北京	-1122
原来	-1123
拒绝	-1124
适合	-1125
阶层	-1126
半封建	-1127
时期的	-1128
两年	-1129
也就	-1130
保卫	-1131
几年	-1132
各国	-1133
土豪	-1134
强迫	-1135
抵抗	-1136
敌之	-1137
极端	-1138
立即	-1139
经常	-1140
那就	-1141
重新	-1142
历史上	-1143
否则	-1144
多的	-1145
而在	-1146
行政	-1147
事物的	-1148
极大的	-1149
相结合	-1150
▁见本卷	-1151
一面	-1152
五日	-1153
军民	-1154
分配	-1155
受到	-1156
善于	-1157
定的	-1158
工厂	-1159
平衡	-1160
当前	-1161
服从	-1162
的对	-1163
组成	-1164
选举	-1165
他们不	-1166
他们在	-1167
出来的	-1168
取得了	-1169
这些人	-1170
一九四七年	-1171
游击战争的	-1172
有一	-1173
看见	-1174
谈话	-1175
”,“	-1176
军队的	-1177
进行了	-1178
马克思列宁主义	-1179
个月	-1180
仅仅	-1181
使得	-1182
北平	-1183
危机	-1184
国防	-1185
当地	-1186
政党	-1187
走狗	-1188
地主阶级	-1189
社会主义改造	-1190
之外	-1191
方式	-1192
日寇	-1193
有人	-1194
深入	-1195
红色	-1196
自卫	-1197
自我	-1198
艰苦	-1199
采用	-1200
世界上	-1201
大部分	-1202
所有制	-1203
协商会议	-1204
新民主主义	-1205
下的	-1206
也好	-1207
了一	-1208
党外	-1209
到底	-1210
局面	-1211
广泛	-1212
开展	-1213
▁关于	-1214
三日	-1215
同一	-1216
西安	-1217
这两	-1218
中国人	-1219
持久战	-1220
有许多	-1221
社会的	-1222
资本家	-1223
进一步	-1224
一九四五年	-1225
反革命分子	-1226
国民党反动	-1227
资本主义的	-1228
十一	-1229
卖国	-1230
士兵	-1231
平等	-1232
总之	-1233
的反	-1234
行为	-1235
说服	-1236
五年计划	-1237
余人	-1238
夺取	-1239
年版	-1240
朋友	-1241
期间	-1242
确定	-1243
确实	-1244
等项	-1245
可能性	-1246
是不是	-1247
每一个	-1248
的经济	-1249
进攻的	-1250
我们必须	-1251
》,	-1252
主席	-1253
交通	-1254
决心	-1255
北伐	-1256
否认	-1257
我之	-1258
改正	-1259
爆发	-1260
在这种	-1261
有利于	-1262
积极性	-1263
人民大众	-1264
团结起来	-1265
联合政府	-1266
国民党反动派	-1267
:(	-1268
不多	-1269
保持	-1270
几十	-1271
宪政	-1272
打破	-1273
标准	-1274
每个	-1275
河北	-1276
的不	-1277
着重	-1278
给以	-1279
被动	-1280
转入	-1281
使他们	-1282
反封建	-1283
战争中	-1284
正规军	-1285
的办法	-1286
的地位	-1287
的意见	-1288
解决了	-1289
决不	-1290
大约	-1291
平均	-1292
独裁	-1293
这么	-1294
这就	-1295
。”(	-1296
也不能	-1297
并不是	-1298
我们党	-1299
正确地	-1300
第二个	-1301
人民民主	-1302
人民群众	-1303
富裕中农	-1304
国民党统治	-1305
二百	-1306
亡国	-1307
企业	-1308
决战	-1309
前线	-1310
大体	-1311
德国	-1312
是一	-1313
粉碎	-1314
系统	-1315
言论	-1316
都不	-1317
高级	-1318
在一个	-1319
工作中	-1320
工作和	-1321
提出了	-1322
的主要	-1323
的农民	-1324
的目的	-1325
主观主义	-1326
国民大会	-1327
土豪劣绅	-1328
一起	-1329
减少	-1330
割据	-1331
建议	-1332
是从	-1333
水平	-1334
消极	-1335
自治	-1336
财产	-1337
转化	-1338
里头	-1339
发生的	-1340
如果不	-1341
总司令	-1342
的作战	-1343
的历史	-1344
人民内部	-1345
共产主义	-1346
有些同志	-1347
全国人民的	-1348
政治协商会议	-1349
七十	-1350
到达	-1351
句话	-1352
各界	-1353
有所	-1354
残酷	-1355
由此	-1356
看到	-1357
辩论	-1358
强大的	-1359
的生产	-1360
需要的	-1361
共产党的	-1362
国民党军	-1363
人民共和国	-1364
一律	-1365
四十	-1366
在其	-1367
教训	-1368
牺牲	-1369
了许多	-1370
我们现在	-1371
一文	-1372
依然	-1373
尚未	-1374
欢迎	-1375
管理	-1376
经营	-1377
这时	-1378
主要是	-1379
提出的	-1380
人民政府	-1381
之间的矛盾	-1382
抗日战争的	-1383
▁一	-1384
一道	-1385
加入	-1386
半年	-1387
向着	-1388
手段	-1389
敌后	-1390
模范	-1391
特务	-1392
目标	-1393
要把	-1394
起草	-1395
过渡	-1396
进入	-1397
里面	-1398
不愿意	-1399
唯物论	-1400
并没有	-1401
而奋斗	-1402
这两个	-1403
反革命的	-1404
反对日本帝国主义的	-1405
人物	-1406
允许	-1407
加上	-1408
去做	-1409
当作	-1410
战犯	-1411
月第	-1412
本质	-1413
给予	-1414
英雄	-1415
解释	-1416
第五卷	-1417
起来的	-1418
一九三一年	-1419
毛泽东选集	-1420
下级	-1421
不管	-1422
事件	-1423
写的	-1424
合法	-1425
外交	-1426
容许	-1427
感觉	-1428
纵队	-1429
肃清	-1430
规划	-1431
过的	-1432
▁现在	-1433
中间派	-1434
倾路线	-1435
几个月	-1436
在那里	-1437
统一的	-1438
这件事	-1439
所有这些	-1440
经济建设	-1441
阶级斗争	-1442
一九二四年	-1443
论反对日本帝国主义的	-1444
论反对日本帝国主义的策略	-1445
”;	-1446
外线	-1447
大地	-1448
忽视	-1449
明确	-1450
没收	-1451
状况	-1452
英勇	-1453
一般地	-1454
力量的	-1455
及其他	-1456
有什么	-1457
游击战	-1458
的反动	-1459
临时	-1460
保守	-1461
分别	-1462
协会	-1463
各省	-1464
同年	-1465
山西	-1466
工具	-1467
引起	-1468
形成	-1469
手里	-1470
日益	-1471
欺骗	-1472
符合	-1473
能力	-1474
▁中国	-1475
和中国	-1476
在抗日	-1477
就没有	-1478
抗战的	-1479
条件下	-1480
适当的	-1481
解放区的	-1482
这是一个	-1483
领导机关	-1484
全国代表大会	-1485
三大	-1486
不起	-1487
促进	-1488
冒险	-1489
化的	-1490
反帝	-1491
合理	-1492
吸收	-1493
好地	-1494
部的	-1495
一九一	-1496
作战的	-1497
农村中	-1498
一九三五年	-1499
一万	-1500
不敢	-1501
从前	-1502
先进	-1503
分为	-1504
又有	-1505
反抗	-1506
可是	-1507
唯心	-1508
情绪	-1509
既然	-1510
明年	-1511
歼敌	-1512
考虑	-1513
行的	-1514
下中农	-1515
少数人	-1516
彻底地	-1517
的社会	-1518
范围内	-1519
如果我们	-1520
帝国主义者	-1521
资产阶级民主	-1522
不许	-1523
于是	-1524
包含	-1525
官兵	-1526
密切	-1527
广东	-1528
式的	-1529
最近	-1530
检查	-1531
相互	-1532
立三	-1533
维持	-1534
补充	-1535
负担	-1536
锻炼	-1537
的敌人	-1538
起来了	-1539
封建主义	-1540
工作人员	-1541
教条主义	-1542
这次会议	-1543
一九三六年	-1544
孙中山先生	-1545
无产阶级的	-1546
统一战线的	-1547
▁这是毛泽东为	-1548
两条	-1549
个别	-1550
国焘	-1551
欧洲	-1552
消耗	-1553
犯了	-1554
空前	-1555
违背	-1556
发展了	-1557
各方面	-1558
大城市	-1559
张国焘	-1560
是为了	-1561
的代表	-1562
革命和	-1563
▁我们的	-1564
一九三九年	-1565
一九三八年	-1566
两党	-1567
保障	-1568
值得	-1569
单位	-1570
多了	-1571
好处	-1572
希特	-1573
强调	-1574
才有	-1575
支部	-1576
无法	-1577
灭亡	-1578
灵活	-1579
禁止	-1580
重庆	-1581
但是在	-1582
劳动力	-1583
大地主	-1584
希特勒	-1585
得到了	-1586
思想上	-1587
迅速地	-1588
造成了	-1589
阶段中	-1590
战略问题	-1591
是不可能的	-1592
▁二	-1593
▁第	-1594
一部	-1595
上层	-1596
世纪	-1597
个师	-1598
供给	-1599
俘虏	-1600
全局	-1601
打仗	-1602
按语	-1603
推动	-1604
文件	-1605
正义	-1606
演说	-1607
着的	-1608
等地	-1609
违反	-1610
逮捕	-1611
部门	-1612
存在的	-1613
就是要	-1614
干部和	-1615
是因为	-1616
的决议	-1617
美国的	-1618
苏联的	-1619
逐步地	-1620
五四运动	-1621
自我批评	-1622
解放战争	-1623
之敌	-1624
偏向	-1625
光明	-1626
六十	-1627
内的	-1628
区的	-1629
应用	-1630
当着	-1631
才是	-1632
整编	-1633
某种	-1634
此种	-1635
现代	-1636
直到	-1637
省委	-1638
省的	-1639
罢工	-1640
英美	-1641
说过	-1642
之所以	-1643
他们就	-1644
党八股	-1645
和一切	-1646
在一定	-1647
尽可能	-1648
工作者	-1649
工农兵	-1650
性质的	-1651
生产力	-1652
的和平	-1653
这种情况	-1654
不利	-1655
但在	-1656
劣势	-1657
千万	-1658
参政	-1659
告诉	-1660
四日	-1661
实施	-1662
尾巴	-1663
干涉	-1664
开会	-1665
强大	-1666
得不	-1667
忘记	-1668
掌握	-1669
机械	-1670
永远	-1671
河南	-1672
被迫	-1673
▁第二	-1674
不得不	-1675
也不是	-1676
你们的	-1677
政权的	-1678
现在是	-1679
的口号	-1680
的同志	-1681
采取了	-1682
领导者	-1683
共和国的	-1684
农业合作化	-1685
反帝反封建	-1686
抗日根据地	-1687
毛泽东同志	-1688
不去	-1689
不断	-1690
丰富	-1691
其实	-1692
华东	-1693
单纯	-1694
教员	-1695
机构	-1696
武汉	-1697
残余	-1698
缩小	-1699
阵线	-1700
骨干	-1701
建立了	-1702
而斗争	-1703
代表会议	-1704
官僚主义	-1705
一九五五年	-1706
革命根据地	-1707
八十	-1708
去了	-1709
受了	-1710
打了	-1711
普及	-1712
福建	-1713
绅士	-1714
讲话	-1715
转移	-1716
了这个	-1717
决不能	-1718
和战斗	-1719
和经济	-1720
十月革命	-1721
在政治上	-1722
广大群众	-1723
我们应当	-1724
是错误的	-1725
▁三	-1726
中日	-1727
为主	-1728
似乎	-1729
先后	-1730
即使	-1731
头脑	-1732
妨碍	-1733
展开	-1734
形态	-1735
永新	-1736
派的	-1737
自给	-1738
轻视	-1739
一个是	-1740
内战的	-1741
发展到	-1742
差不多	-1743
的正确	-1744
的统一	-1745
党的组织	-1746
这样一个	-1747
一九四一年	-1748
社会主义国家	-1749
城市小资产阶级	-1750
两面	-1751
为首	-1752
代替	-1753
会有	-1754
停战	-1755
同情	-1756
向前	-1757
命运	-1758
年的	-1759
接近	-1760
整顿	-1761
的最	-1762
破产	-1763
秩序	-1764
草案	-1765
过来	-1766
之间的	-1767
反动的	-1768
和我们	-1769
战争和	-1770
的民族	-1771
宗派主义	-1772
不久	-1773
东方	-1774
个体	-1775
井冈	-1776
改为	-1777
有效	-1778
英法	-1779
觉得	-1780
议论	-1781
长的	-1782
骄傲	-1783
高兴	-1784
不应当	-1785
井冈山	-1786
什么人	-1787
任务的	-1788
作斗争	-1789
地方的	-1790
是可以	-1791
现阶段	-1792
的军事	-1793
第五次	-1794
一部分人	-1795
农民协会	-1796
合作社的	-1797
一九四〇年	-1798
不仅	-1799
亲日	-1800
侵犯	-1801
六届	-1802
减息	-1803
制止	-1804
南方	-1805
各县	-1806
同胞	-1807
总统	-1808
独秀	-1809
疑义	-1810
秘密	-1811
至今	-1812
解散	-1813
一些人	-1814
专政的	-1815
也就是	-1816
全中国	-1817
指挥员	-1818
陈独秀	-1819
各民主党派	-1820
无产阶级和	-1821
▁这是毛泽东同志	-1822
不够	-1823
中去	-1824
做了	-1825
公元	-1826
别人	-1827
到处	-1828
宁冈	-1829
尖锐	-1830
废除	-1831
得了	-1832
救国	-1833
有其	-1834
电报	-1835
给了	-1836
观察	-1837
订立	-1838
遇到	-1839
都在	-1840
重大	-1841
不了解	-1842
分之一	-1843
变成了	-1844
和政治	-1845
情况的	-1846
游击区	-1847
的观点	-1848
的重要	-1849
绝对的	-1850
还不是	-1851
但是我们	-1852
这就是说	-1853
领导之下	-1854
▁四	-1855
不怕	-1856
中所	-1857
之时	-1858
从来	-1859
借以	-1860
全集	-1861
原子	-1862
将要	-1863
尊重	-1864
就在	-1865
得好	-1866
整党	-1867
此外	-1868
波兰	-1869
深刻	-1870
百姓	-1871
罪犯	-1872
胜仗	-1873
西南	-1874
西方	-1875
辛亥	-1876
这类	-1877
一种是	-1878
不过是	-1879
在这些	-1880
的基本	-1881
老百姓	-1882
认真地	-1883
劳动人民	-1884
中央委员会	-1885
百分之九十	-1886
南京国民政府	-1887
社会主义革命	-1888
中国革命战争的	-1889
一时	-1890
乃是	-1891
之中	-1892
二日	-1893
作品	-1894
八日	-1895
具备	-1896
军力	-1897
又不	-1898
和不	-1899
和新	-1900
始终	-1901
实在	-1902
小的	-1903
少的	-1904
常常	-1905
必需	-1906
意志	-1907
日军	-1908
早已	-1909
朝鲜	-1910
本来	-1911
照顾	-1912
现实	-1913
私人	-1914
领土	-1915
领袖	-1916
发言人	-1917
在延安	-1918
尤其是	-1919
必须在	-1920
有计划	-1921
条件的	-1922
的作用	-1923
的形势	-1924
经济上	-1925
那就是	-1926
....	-1927
▁###	-1928
反共高潮	-1929
大规模的	-1930
在中国共产党	-1931
小资产阶级的	-1932
见本书第一卷	-1933
中华人民共和国	-1934
不对	-1935
以至	-1936
修改	-1937
党在	-1938
削弱	-1939
复杂	-1940
大概	-1941
对象	-1942
恩格	-1943
战士	-1944
损害	-1945
推广	-1946
暴露	-1947
破裂	-1948
积累	-1949
自觉	-1950
迫切	-1951
驱逐	-1952
制度的	-1953
和组织	-1954
团结的	-1955
很好的	-1956
恩格斯	-1957
我们有	-1958
暂时的	-1959
相对的	-1960
运动中	-1961
青年团	-1962
二十五日	-1963
因为他们	-1964
是正确的	-1965
军事委员会	-1966
一带	-1967
不顾	-1968
之上	-1969
九日	-1970
习惯	-1971
人数	-1972
你的	-1973
内外	-1974
十日	-1975
变动	-1976
叛变	-1977
好了	-1978
如同	-1979
对抗	-1980
封锁	-1981
屠杀	-1982
干净	-1983
把它	-1984
担负	-1985
时机	-1986
本身	-1987
湘南	-1988
的速	-1989
至少	-1990
资料	-1991
战斗力	-1992
的事情	-1993
的战略	-1994
的阶级	-1995
减租减息	-1996
和国民党	-1997
一九三三年	-1998
的知识分子	-1999
帝国主义国家	-2000
也许	-2001
从此	-2002
使之	-2003
关心	-2004
发现	-2005
天津	-2006
对外	-2007
将是	-2008
很大	-2009
收复	-2010
晋绥	-2011
有时	-2012
民国	-2013
率领	-2014
第七	-2015
说是	-2016
长征	-2017
高岗	-2018
我们说	-2019
政治局	-2020
的文化	-2021
的精神	-2022
的自由	-2023
而且是	-2024
自治区	-2025
这也是	-2026
逐渐地	-2027
人民团体	-2028
在中国的	-2029
民主人士	-2030
解决问题	-2031
中华民族的	-2032
中国共产党的	-2033
中国人民解放军	-2034
一件	-2035
一党	-2036
一类	-2037
万万	-2038
不愿	-2039
作出	-2040
假如	-2041
出去	-2042
北洋	-2043
危害	-2044
发挥	-2045
吃饭	-2046
多次	-2047
大学	-2048
威胁	-2049
得多	-2050
悲观	-2051
惩办	-2052
成的	-2053
攻势	-2054
派遣	-2055
流动	-2056
的小	-2057
称为	-2058
自愿	-2059
舆论	-2060
让步	-2061
适应	-2062
防止	-2063
鲁迅	-2064
▁第一	-2065
▁第三	-2066
不但是	-2067
十五日	-2068
参政会	-2069
发动了	-2070
和革命	-2071
新中国	-2072
是中国	-2073
的所谓	-2074
统治者	-2075
规定了	-2076
让他们	-2077
我们认为	-2078
组织起来	-2079
这是因为	-2080
美帝国主义	-2081
▁答	-2082
▁问	-2083
不如	-2084
以北	-2085
党政	-2086
出路	-2087
动手	-2088
又在	-2089
喜欢	-2090
国营	-2091
增产	-2092
天下	-2093
妇女	-2094
定了	-2095
广州	-2096
开明	-2097
意思	-2098
抛弃	-2099
无疑	-2100
汉族	-2101
清朝	-2102
界限	-2103
痛苦	-2104
简单	-2105
缘故	-2106
老虎	-2107
适用	-2108
▁这里	-2109
不相同	-2110
不赞成	-2111
为人民	-2112
产生了	-2113
出来了	-2114
我们所	-2115
日本的	-2116
普遍地	-2117
阶级和	-2118
的问题上	-2119
西安事变	-2120
许多同志	-2121
一九四三年	-2122
中国解放区	-2123
农业生产合作社	-2124
一套	-2125
三种	-2126
上学	-2127
上级	-2128
专门	-2129
中等	-2130
争论	-2131
几乎	-2132
加紧	-2133
县的	-2134
回到	-2135
太平	-2136
强的	-2137
感到	-2138
所属	-2139
把握	-2140
更多	-2141
有关	-2142
有力	-2143
有益	-2144
武力	-2145
毛病	-2146
突然	-2147
签订	-2148
袭击	-2149
要使	-2150
许可	-2151
豪绅	-2152
那是	-2153
长江	-2154
陕北	-2155
随着	-2156
飞机	-2157
高涨	-2158
黑暗	-2159
什么是	-2160
内部的	-2161
利益的	-2162
和地方	-2163
完全的	-2164
总路线	-2165
我国的	-2166
长期的	-2167
革命军	-2168
首先是	-2169
我们党的	-2170
的反革命	-2171
国民党统治区	-2172
▁[	-2173
一概	-2174
伪军	-2175
内线	-2176
匈牙	-2177
历来	-2178
古代	-2179
唯一	-2180
多年	-2181
对日	-2182
并在	-2183
意的	-2184
成一	-2185
排斥	-2186
改良	-2187
数目	-2188
新闻	-2189
日报	-2190
每一	-2191
毒草	-2192
湖北	-2193
湘赣	-2194
皖南	-2195
看作	-2196
私有	-2197
种种	-2198
表面	-2199
言之	-2200
记者	-2201
选择	-2202
闹事	-2203
陷于	-2204
黄河	-2205
不可以	-2206
互助组	-2207
具体地	-2208
匈牙利	-2209
去解决	-2210
实行了	-2211
很多的	-2212
的指示	-2213
的时期	-2214
的许多	-2215
这一次	-2216
阵地战	-2217
一文按语	-2218
共产党和	-2219
国民经济	-2220
战略防御	-2221
的基础上	-2222
一九三四年	-2223
我们的任务	-2224
战役和战斗	-2225
国民党反动政府	-2226
第二次世界大战	-2227
▁参	-2228
一批	-2229
不满	-2230
中立	-2231
今日	-2232
分化	-2233
怀疑	-2234
接着	-2235
改编	-2236
最高	-2237
浪费	-2238
热烈	-2239
等于	-2240
答复	-2241
自从	-2242
顺利	-2243
不利于	-2244
中央局	-2245
也不要	-2246
使我们	-2247
党中央	-2248
大体上	-2249
工业化	-2250
政策和	-2251
的地区	-2252
的声明	-2253
的认识	-2254
真正的	-2255
被压迫	-2256
北洋军阀	-2257
反人民的	-2258
团结一致	-2259
已经有了	-2260
第一阶段	-2261
辛亥革命	-2262
知识分子的	-2263
美国帝国主义	-2264
一二	-2265
不了	-2266
不应	-2267
不然	-2268
两国	-2269
中有	-2270
信心	-2271
做到	-2272
全军	-2273
分局	-2274
协议	-2275
台湾	-2276
后者	-2277
哲学	-2278
将军	-2279
就能	-2280
工会	-2281
形而	-2282
放手	-2283
本地	-2284
每年	-2285
民权	-2286
释放	-2287
雇农	-2288
不应该	-2289
不懂得	-2290
不能不	-2291
军队和	-2292
农民和	-2293
和社会	-2294
在目前	-2295
失败了	-2296
就是在	-2297
形成了	-2298
改变了	-2299
理论和	-2300
第二种	-2301
获得了	-2302
这一个	-2303
进步的	-2304
占百分之	-2305
及其走狗	-2306
地主富农	-2307
的一部分	-2308
美国政府	-2309
这种情形	-2310
一九二八年	-2311
在抗日战争	-2312
资产阶级和	-2313
至一九二七年	-2314
!”	-2315
三次	-2316
下来	-2317
两次	-2318
两省	-2319
严格	-2320
人不	-2321
他在	-2322
依照	-2323
其余	-2324
兼顾	-2325
冒进	-2326
冬季	-2327
击破	-2328
制造	-2329
反而	-2330
各派	-2331
四个	-2332
增强	-2333
实质	-2334
引导	-2335
很快	-2336
星期	-2337
样子	-2338
正面	-2339
沈阳	-2340
法国	-2341
省市	-2342
设想	-2343
语言	-2344
资格	-2345
走向	-2346
部署	-2347
锦州	-2348
附近	-2349
三十日	-2350
十二日	-2351
十四日	-2352
同盟者	-2353
和文化	-2354
在一切	-2355
我们也	-2356
战争是	-2357
提高了	-2358
特殊的	-2359
的报告	-2360
篇文章	-2361
能不能	-2362
进行的	-2363
反动派的	-2364
如果没有	-2365
广大人民	-2366
形而上学	-2367
我们应该	-2368
最后胜利	-2369
有些地方	-2370
武装斗争	-2371
的条件下	-2372
红色区域	-2373
蒋介石在	-2374
的游击战争	-2375
、《	-2376
二者	-2377
五千	-2378
修正	-2379
做的	-2380
出的	-2381
前面	-2382
南部	-2383
合乎	-2384
境内	-2385
大举	-2386
好事	-2387
我说	-2388
所作	-2389
掉了	-2390
攻克	-2391
救济	-2392
是以	-2393
来源	-2394
用以	-2395
白色	-2396
贸易	-2397
足以	-2398
迫使	-2399
迷信	-2400
里的	-2401
限度	-2402
两党的	-2403
先生们	-2404
军事上	-2405
只有在	-2406
在过去	-2407
坚决的	-2408
基础上	-2409
增加了	-2410
工人和	-2411
意义的	-2412
战线上	-2413
批评和	-2414
把他们	-2415
方面军	-2416
是一种	-2417
的变化	-2418
的可能	-2419
的方面	-2420
第三个	-2421
还不能	-2422
重工业	-2423
领导下	-2424
三中全会	-2425
国共合作	-2426
在我们的	-2427
没有什么	-2428
右倾机会主义	-2429
马克思主义者	-2430
次全国代表大会	-2431
资产阶级民主革命	-2432
▁五	-2433
一千	-2434
不少	-2435
不行	-2436
为止	-2437
为此	-2438
他说	-2439
依据	-2440
出卖	-2441
切实	-2442
前者	-2443
办事	-2444
卢沟	-2445
又要	-2446
地去	-2447
大部	-2448
天天	-2449
察冀	-2450
愿望	-2451
挽救	-2452
推进	-2453
明了	-2454
明显	-2455
是为	-2456
极其	-2457
某一	-2458
梁漱	-2459
漱石	-2460
生动	-2461
纪念	-2462
考察	-2463
胡风	-2464
节约	-2465
西藏	-2466
质量	-2467
走上	-2468
重点	-2469
铁路	-2470
阻止	-2471
三个月	-2472
不知道	-2473
中间的	-2474
事实上	-2475
以上的	-2476
十一日	-2477
卖国贼	-2478
卢沟桥	-2479
唯心论	-2480
困难的	-2481
完成了	-2482
巩固的	-2483
或者是	-2484
晋察冀	-2485
来一个	-2486
梁漱溟	-2487
比较地	-2488
消灭了	-2489
的具体	-2490
的特点	-2491
的要求	-2492
的道路	-2493
见列宁	-2494
轻工业	-2495
还是要	-2496
非常之	-2497
饶漱石	-2498
列宁全集	-2499
发动群众	-2500
开明绅士	-2501
我们的党	-2502
战略进攻	-2503
文学艺术	-2504
统治阶级	-2505
这些东西	-2506
这些同志	-2507
这些都是	-2508
一九五六年	-2509
中共中央起草	-2510
社会主义社会	-2511
一看	-2512
万个	-2513
业已	-2514
中原	-2515
五个	-2516
人和	-2517
人心	-2518
什维	-2519
倒退	-2520
入社	-2521
公私	-2522
关门	-2523
冲突	-2524
几次	-2525
出身	-2526
力争	-2527
十七	-2528
即在	-2529
原料	-2530
反面	-2531
发布	-2532
发扬	-2533
可靠	-2534
大字	-2535
大小	-2536
威信	-2537
宇宙	-2538
宗仁	-2539
布尔	-2540
带着	-2541
幻想	-2542
弱的	-2543
当局	-2544
很好	-2545
很有	-2546
徐州	-2547
担任	-2548
普通	-2549
直至	-2550
说法	-2551
赞助	-2552
▁这个	-2553
》、《	-2554
为代表	-2555
什维克	-2556
几十年	-2557
各党派	-2558
团结和	-2559
多数人	-2560
大大地	-2561
大规模	-2562
情况下	-2563
更大的	-2564
李宗仁	-2565
的利益	-2566
的宣传	-2567
过程的	-2568
这种人	-2569
中国社会	-2570
农民群众	-2571
农民运动	-2572
土地革命	-2573
投降主义	-2574
日本侵略	-2575
有计划地	-2576
积极分子	-2577
那个时候	-2578
布尔什维克	-2579
▁中国共产党	-2580
资本主义国家	-2581
民族资产阶级的	-2582
不在	-2583
侵入	-2584
其次	-2585
军区	-2586
几千	-2587
凡是	-2588
分兵	-2589
初期	-2590
十六	-2591
反复	-2592
商量	-2593
增长	-2594
大事	-2595
安徽	-2596
平分	-2597
废止	-2598
揭露	-2599
敢于	-2600
旧的	-2601
民生	-2602
白皮	-2603
监督	-2604
紧急	-2605
绥远	-2606
要在	-2607
观念	-2608
贪污	-2609
身上	-2610
高度	-2611
一个人	-2612
不可能	-2613
不对的	-2614
两方面	-2615
九一八	-2616
以来的	-2617
充分地	-2618
全国的	-2619
反人民	-2620
变化的	-2621
和群众	-2622
在革命	-2623
大字报	-2624
孙先生	-2625
应该是	-2626
必然要	-2627
政府和	-2628
时期中	-2629
时间内	-2630
是能够	-2631
特殊性	-2632
白皮书	-2633
的一种	-2634
组织上	-2635
解决的	-2636
这一条	-2637
重大的	-2638
为什么要	-2639
主要地是	-2640
和平谈判	-2641
集中兵力	-2642
反对帝国主义	-2643
殖民地半殖民地	-2644
▁我	-2645
不大	-2646
冀鲁	-2647
军长	-2648
到来	-2649
勇敢	-2650
如下	-2651
崩溃	-2652
市场	-2653
开辟	-2654
弱点	-2655
提议	-2656
教授	-2657
机器	-2658
沦陷	-2659
生命	-2660
相对	-2661
磨擦	-2662
紧张	-2663
综合	-2664
美援	-2665
著名	-2666
讲的	-2667
过了	-2668
错了	-2669
▁为了	-2670
》(《	-2671
一定的	-2672
不承认	-2673
今天的	-2674
冀鲁豫	-2675
同盟军	-2676
在人民	-2677
外国的	-2678
对他们	-2679
投降派	-2680
敌军的	-2681
新文化	-2682
是我们	-2683
没有了	-2684
的困难	-2685
的时代	-2686
贫农和	-2687
这不是	-2688
这样就	-2689
都应该	-2690
集中制	-2691
也是这样	-2692
北伐战争	-2693
反动势力	-2694
发展生产	-2695
就是因为	-2696
日本投降	-2697
有一部分	-2698
武装力量	-2699
一九五三年	-2700
三民主义的	-2701
工人阶级和	-2702
土地革命战争	-2703
在全国范围内	-2704
一九二四年至一九二七年	-2705
三百	-2706
下列	-2707
丝毫	-2708
之内	-2709
也会	-2710
予以	-2711
他是	-2712
信仰	-2713
做好	-2714
共有	-2715
剩下	-2716
华中	-2717
后的	-2718
国外	-2719
失业	-2720
头上	-2721
延长	-2722
当的	-2723
意识	-2724
成熟	-2725
打退	-2726
效果	-2727
是最	-2728
来看	-2729
根源	-2730
正式	-2731
此次	-2732
淮海	-2733
熟悉	-2734
瓦解	-2735
看不	-2736
空军	-2737
通讯	-2738
随时	-2739
颁布	-2740
世界观	-2741
为首的	-2742
亡国论	-2743
党组织	-2744
其结果	-2745
决不可	-2746
向他们	-2747
和世界	-2748
将来的	-2749
必须是	-2750
怎么样	-2751
成一片	-2752
战略的	-2753
是不会	-2754
的偏向	-2755
的必要	-2756
的生活	-2757
的组织	-2758
积极地	-2759
这两种	-2760
都应当	-2761
坚决反对	-2762
工人农民	-2763
必须注意	-2764
是不对的	-2765
是什么呢	-2766
是必要的	-2767
现在已经	-2768
现在我们	-2769
第二阶段	-2770
觉悟程度	-2771
许多地方	-2772
一九四二年	-2773
一九四四年	-2774
共产主义的	-2775
在这个问题	-2776
这里所说的	-2777
一直	-2778
一级	-2779
三省	-2780
们的	-2781
优越	-2782
勾结	-2783
县委	-2784
发起	-2785
另外	-2786
唤起	-2787
回答	-2788
大为	-2789
宗教	-2790
建筑	-2791
异党	-2792
忠实	-2793
快要	-2794
接收	-2795
收入	-2796
时的	-2797
是非	-2798
满足	-2799
热情	-2800
白区	-2801
盲动	-2802
老实	-2803
营垒	-2804
警察	-2805
证据	-2806
诚意	-2807
转到	-2808
还会	-2809
遗嘱	-2810
阵营	-2811
面貌	-2812
▁但是	-2813
了中国	-2814
事业的	-2815
二十年	-2816
亲日派	-2817
具体的	-2818
召开的	-2819
当时的	-2820
思想的	-2821
政治的	-2822
有一些	-2823
的全部	-2824
的因素	-2825
的干部	-2826
的时机	-2827
的路线	-2828
看问题	-2829
给他们	-2830
美援朝	-2831
胜利了	-2832
还可以	-2833
全体会议	-2834
反动分子	-2835
在国民党	-2836
帮助他们	-2837
我们就要	-2838
战争罪犯	-2839
消灭敌人	-2840
的合作社	-2841
的社会主义改造	-2842
);	-2843
一想	-2844
世凯	-2845
中小	-2846
五百	-2847
以致	-2848
保安	-2849
信任	-2850
先锋	-2851
全力	-2852
关键	-2853
军政	-2854
即将	-2855
各党	-2856
和各	-2857
坏事	-2858
失地	-2859
已被	-2860
我的	-2861
提到	-2862
此项	-2863
浙江	-2864
王明	-2865
的有	-2866
而使	-2867
背叛	-2868
蒙古	-2869
跟着	-2870
逃跑	-2871
通知	-2872
逻辑	-2873
遂川	-2874
重视	-2875
面目	-2876
了这种	-2877
人们的	-2878
十三日	-2879
占领地	-2880
同一性	-2881
和他们	-2882
因为它	-2883
如果说	-2884
就必须	-2885
怎么办	-2886
根本上	-2887
正义的	-2888
独立性	-2889
的形式	-2890
的现象	-2891
的群众	-2892
第一种	-2893
袁世凯	-2894
三分之一	-2895
也是如此	-2896
共同纲领	-2897
反法西斯	-2898
团结一切	-2899
在共产党	-2900
抗美援朝	-2901
政治上的	-2902
百分之十	-2903
社会经济	-2904
立三路线	-2905
这样的人	-2906
基本上完成	-2907
恢复和发展	-2908
我们一定要	-2909
辩证唯物论	-2910
社会主义建设	-2911
批评和自我批评	-2912
中国革命战争的战略问题	-2913
”“	-2914
▁见	-2915
一小	-2916
乱子	-2917
五反	-2918
军委	-2919
前提	-2920
十大	-2921
另一	-2922
和在	-2923
商人	-2924
围攻	-2925
坏人	-2926
坏的	-2927
大放	-2928
大鸣	-2929
完整	-2930
实力	-2931
很少	-2932
德意	-2933
我想	-2934
战区	-2935
所在	-2936
是由	-2937
是说	-2938
曲折	-2939
汇报	-2940
消息	-2941
理解	-2942
盲目	-2943
统统	-2944
老区	-2945
联共	-2946
肃反	-2947
肯定	-2948
艰难	-2949
调动	-2950
谨慎	-2951
贯彻	-2952
走到	-2953
运输	-2954
遭到	-2955
遭受	-2956
鸦片	-2957
▁对于	-2958
一句话	-2959
一致的	-2960
万人口	-2961
不但在	-2962
不论是	-2963
严重地	-2964
任何的	-2965
十九日	-2966
千余人	-2967
原子弹	-2968
另一个	-2969
在一起	-2970
它们的	-2971
实现了	-2972
巨大的	-2973
我们和	-2974
是这样	-2975
最大的	-2976
有一种	-2977
歼灭战	-2978
的命令	-2979
的阶段	-2980
而来的	-2981
过去的	-2982
造成的	-2983
重要性	-2984
集中的	-2985
集团军	-2986
二十六日	-2987
全党同志	-2988
只要我们	-2989
国际形势	-2990
实际上是	-2991
封建制度	-2992
封建势力	-2993
生产关系	-2994
相互关系	-2995
艰苦奋斗	-2996
一九五二年	-2997
主观主义的	-2998
机会主义的	-2999
的三民主义	-3000
八路军新四军	-3001
▁六	-3002
一书	-3003
一项	-3004
上说	-3005
不住	-3006
人力	-3007
兴趣	-3008
军和	-3009
刊物	-3010
厉害	-3011
名义	-3012
周围	-3013
哈尔	-3014
国土	-3015
处置	-3016
大国	-3017
工商	-3018
已有	-3019
建国	-3020
抽象	-3021
捣乱	-3022
文字	-3023
新华	-3024
旗帜	-3025
暴动	-3026
杀人	-3027
死了	-3028
永久	-3029
社员	-3030
第八	-3031
耕者	-3032
自主	-3033
装备	-3034
要是	-3035
要看	-3036
违法	-3037
遵守	-3038
长春	-3039
▁注释	-3040
▁第四	-3041
一个师	-3042
不平衡	-3043
不断地	-3044
人民和	-3045
估计到	-3046
出现了	-3047
十八年	-3048
压迫和	-3049
国内的	-3050
地区的	-3051
城市和	-3052
基本的	-3053
好好地	-3054
干部的	-3055
彻底的	-3056
成功的	-3057
有其田	-3058
河北省	-3059
片面性	-3060
的程度	-3061
达到了	-3062
这一切	-3063
部分人	-3064
错误地	-3065
一党专政	-3066
一天一天	-3067
二十二日	-3068
但是这种	-3069
土地问题	-3070
对于这些	-3071
工作中的	-3072
我们对于	-3073
所领导的	-3074
晋冀鲁豫	-3075
武装起义	-3076
武装部队	-3077
犯错误的	-3078
生产运动	-3079
脱离群众	-3080
革命力量	-3081
国民党中央	-3082
国民参政会	-3083
宗派主义的	-3084
我们的工作	-3085
耕者有其田	-3086
革命战争的	-3087
国民党政府的	-3088
大资产阶级的	-3089
我们共产党人	-3090
蒋介石的进攻	-3091
一方	-3092
不准	-3093
不动	-3094
中美	-3095
产品	-3096
以南	-3097
休整	-3098
充当	-3099
勉强	-3100
协助	-3101
占了	-3102
发出	-3103
只好	-3104
地和	-3105
地要	-3106
大大	-3107
学说	-3108
完结	-3109
就得	-3110
帽子	-3111
待遇	-3112
恐怕	-3113
所说	-3114
据点	-3115
掠夺	-3116
推行	-3117
改组	-3118
敌伪	-3119
斯科	-3120
方案	-3121
有个	-3122
本书	-3123
法律	-3124
注重	-3125
热河	-3126
犯过	-3127
用的	-3128
界的	-3129
皇帝	-3130
经历	-3131
者和	-3132
而以	-3133
议会	-3134
讲了	-3135
诺言	-3136
赤卫	-3137
距离	-3138
较之	-3139
辅助	-3140
遵义	-3141
重复	-3142
钳制	-3143
长沙	-3144
”;“	-3145
二十五	-3146
人口的	-3147
使自己	-3148
即是说	-3149
同志的	-3150
同我们	-3151
和工作	-3152
和平的	-3153
在他们	-3154
在整个	-3155
在这一	-3156
地发展	-3157
大民主	-3158
存在于	-3159
完全是	-3160
很多人	-3161
总是要	-3162
把自己	-3163
文汇报	-3164
有两个	-3165
的准备	-3166
的危险	-3167
的抗日	-3168
的结论	-3169
的运动	-3170
程度的	-3171
第二卷	-3172
表现在	-3173
被敌人	-3174
都可以	-3175
集团的	-3176
不可避免	-3177
中华民族	-3178
共产国际	-3179
就是这样	-3180
抗日力量	-3181
是主要的	-3182
毫无疑义	-3183
生产资料	-3184
还有一个	-3185
这是一种	-3186
一九五一年	-3187
倾机会主义	-3188
人民民主专政	-3189
革命的三民主义	-3190
不开	-3191
不相	-3192
不讲	-3193
之前	-3194
也应	-3195
作家	-3196
依赖	-3197
八个	-3198
八项	-3199
军官	-3200
判断	-3201
办社	-3202
北方	-3203
南昌	-3204
县城	-3205
反党	-3206
可见	-3207
固定	-3208
坚固	-3209
士气	-3210
对比	-3211
布置	-3212
师长	-3213
应付	-3214
恶霸	-3215
所得	-3216
打到	-3217
放松	-3218
朱德	-3219
污蔑	-3220
沿海	-3221
爱好	-3222
相持	-3223
看得	-3224
示威	-3225
稳定	-3226
空气	-3227
而要	-3228
苏北	-3229
蒋氏	-3230
说到	-3231
跑到	-3232
过分	-3233
还须	-3234
重心	-3235
锡山	-3236
阻碍	-3237
随后	-3238
▁一切	-3239
一定会	-3240
为中心	-3241
克服了	-3242
十六日	-3243
历史的	-3244
和斗争	-3245
土地法	-3246
在这次	-3247
地进行	-3248
失败的	-3249
开始了	-3250
引起了	-3251
忘记了	-3252
战役的	-3253
抗日救	-3254
改变为	-3255
普遍的	-3256
有两种	-3257
的兵力	-3258
的计划	-3259
统治的	-3260
请你们	-3261
阎锡山	-3262
阶段的	-3263
二十七日	-3264
冒险主义	-3265
农村中的	-3266
坚持抗战	-3267
实行民主	-3268
我们希望	-3269
政治工作	-3270
是不行的	-3271
正规战争	-3272
没有一个	-3273
第五次反	-3274
自由主义	-3275
这个方针	-3276
一九三二年	-3277
封建主义的	-3278
次代表大会	-3279
镇压反革命	-3280
共产党领导的	-3281
▁要	-3282
。《	-3283
一篇	-3284
万岁	-3285
上是	-3286
不知	-3287
专制	-3288
何应	-3289
全民	-3290
减轻	-3291
几天	-3292
刘少	-3293
力求	-3294
勤俭	-3295
千人	-3296
却是	-3297
参谋	-3298
反日	-3299
地委	-3300
地点	-3301
堡垒	-3302
好像	-3303
家庭	-3304
平津	-3305
必定	-3306
情报	-3307
惧怕	-3308
惨案	-3309
扶助	-3310
明的	-3311
未能	-3312
权的	-3313
每天	-3314
海军	-3315
班牙	-3316
眼睛	-3317
简直	-3318
而又	-3319
讲演	-3320
评论	-3321
说一	-3322
贵州	-3323
趋势	-3324
这三	-3325
这点	-3326
进到	-3327
通商	-3328
降低	-3329
陕西	-3330
鼓励	-3331
产生的	-3332
他们要	-3333
会议上	-3334
何应钦	-3335
使中国	-3336
决不会	-3337
决不是	-3338
分子的	-3339
包含着	-3340
十七日	-3341
发展为	-3342
同他们	-3343
宇宙观	-3344
对我们	-3345
想一想	-3346
我以为	-3347
我们对	-3348
扩大的	-3349
旧社会	-3350
有人说	-3351
服务的	-3352
李立三	-3353
沦陷区	-3354
生活的	-3355
目前的	-3356
给我们	-3357
美国人	-3358
而言之	-3359
落后的	-3360
西班牙	-3361
证明了	-3362
赤卫队	-3363
都没有	-3364
长期地	-3365
问题是	-3366
一切力量	-3367
上层建筑	-3368
二中全会	-3369
互助合作	-3370
停战协定	-3371
取得胜利	-3372
国内和平	-3373
国内战争	-3374
国民党人	-3375
基本原则	-3376
实际情况	-3377
宪法草案	-3378
我们可以	-3379
我们这个	-3380
所需要的	-3381
打成一片	-3382
特别是在	-3383
独立自主	-3384
的斗争中	-3385
绝大多数	-3386
这个口号	-3387
进步势力	-3388
各人民团体	-3389
在抗日时期	-3390
文艺工作者	-3391
阶级斗争的	-3392
在一九二七年	-3393
届中央委员会	-3394
社会主义制度	-3395
资本主义经济	-3396
一九四六年七月	-3397
半殖民地半封建	-3398
无产阶级领导的	-3399
第一次世界大战	-3400
资本主义工商业	-3401
一经	-3402
不打	-3403
做得	-3404
光荣	-3405
公布	-3406
凡属	-3407
压倒	-3408
和无	-3409
商品	-3410
在新	-3411
多万	-3412
孙科	-3413
安排	-3414
尔利	-3415
平民	-3416
归于	-3417
想法	-3418
成就	-3419
撤退	-3420
无数	-3421
有过	-3422
此时	-3423
狭隘	-3424
留下	-3425
疲劳	-3426
糊涂	-3427
而为	-3428
职业	-3429
联军	-3430
计算	-3431
详细	-3432
豫皖	-3433
败仗	-3434
过左	-3435
运用	-3436
部长	-3437
长处	-3438
限于	-3439
障碍	-3440
一九〇	-3441
世界的	-3442
二十日	-3443
他们也	-3444
代表团	-3445
以后的	-3446
十八日	-3447
占领了	-3448
和巩固	-3449
和战争	-3450
在党内	-3451
学会了	-3452
察哈尔	-3453
就在于	-3454
广泛的	-3455
形势和	-3456
思想和	-3457
斗争和	-3458
新阶段	-3459
是当时	-3460
普遍性	-3461
最后地	-3462
此目的	-3463
注意的	-3464
的性质	-3465
的权利	-3466
看一看	-3467
科学的	-3468
第一步	-3469
第二条	-3470
纸老虎	-3471
经验的	-3472
而且要	-3473
见本书	-3474
赫尔利	-3475
转化为	-3476
那里的	-3477
▁同志们	-3478
主要的是	-3479
二十三日	-3480
全国性的	-3481
全民族的	-3482
对于我们	-3483
尽可能地	-3484
总而言之	-3485
我们已经	-3486
政治路线	-3487
普遍真理	-3488
淮海战役	-3489
爱国主义	-3490
的进攻战	-3491
红色政权	-3492
联合起来	-3493
一九二九年	-3494
一九五七年	-3495
十一中全会	-3496
反共顽固派	-3497
和全国人民	-3498
广大群众的	-3499
我们的同志	-3500
人民解放军的	-3501
在这个问题上	-3502
抗日统一战线	-3503
大地主大资产阶级	-3504
抗日民族统一战线的	-3505
资产阶级民主革命的	-3506
▁从	-3507
一〇	-3508
一半	-3509
三反	-3510
不给	-3511
不肯	-3512
与此	-3513
之久	-3514
书本	-3515
交换	-3516
产量	-3517
他就	-3518
优点	-3519
做法	-3520
健全	-3521
几百	-3522
几种	-3523
划分	-3524
办的	-3525
动力	-3526
十三	-3527
协同	-3528
吸引	-3529
四百	-3530
土匪	-3531
培养	-3532
外来	-3533
外部	-3534
大了	-3535
好些	-3536
好转	-3537
少了	-3538
工资	-3539
左派	-3540
并将	-3541
建成	-3542
张家	-3543
志愿	-3544
我在	-3545
扫荡	-3546
摧残	-3547
支援	-3548
故事	-3549
晓得	-3550
本文	-3551
束缚	-3552
江苏	-3553
流血	-3554
特委	-3555
现有	-3556
看出	-3557
缩短	-3558
自动	-3559
说话	-3560
谦虚	-3561
软弱	-3562
辽宁	-3563
进了	-3564
进来	-3565
进犯	-3566
酃县	-3567
野蛮	-3568
▁由此	-3569
▁这种	-3570
主动权	-3571
之目的	-3572
仍然是	-3573
任务是	-3574
优越性	-3575
全民族	-3576
写文章	-3577
农村的	-3578
刘少奇	-3579
制度和	-3580
劳动者	-3581
区域的	-3582
占优势	-3583
原则的	-3584
四十年	-3585
在东北	-3586
在华北	-3587
在南京	-3588
在我国	-3589
大革命	-3590
实行的	-3591
实际的	-3592
巩固和	-3593
建立在	-3594
开始的	-3595
才能使	-3596
执行了	-3597
指出了	-3598
敌人是	-3599
无论在	-3600
生产的	-3601
破坏了	-3602
程度上	-3603
纠正了	-3604
组织了	-3605
经过了	-3606
群众中	-3607
胜利地	-3608
表示了	-3609
部队和	-3610
上的讲话	-3611
中央政府	-3612
主动地位	-3613
了中国的	-3614
农民阶级	-3615
合法地位	-3616
命令主义	-3617
就是一个	-3618
战线上的	-3619
民主主义	-3620
民主政府	-3621
湘赣边界	-3622
的时间内	-3623
矛盾着的	-3624
这个目的	-3625
这些条件	-3626
一九二一年	-3627
一九五四年	-3628
和资产阶级	-3629
地主阶级的	-3630
坚决的斗争	-3631
官僚主义的	-3632
的对党内的	-3633
社会主义和	-3634
......	-3635
粉碎蒋介石的进攻	-3636
▁这是毛泽东为中共中央起草	-3637
”[	-3638
▁七	-3639
一贯	-3640
上去	-3641
上有	-3642
不变	-3643
不正	-3644
之于	-3645
也在	-3646
争夺	-3647
争鸣	-3648
仁政	-3649
以利	-3650
休息	-3651
会要	-3652
传统	-3653
借口	-3654
公道	-3655
写了	-3656
则有	-3657
剥夺	-3658
加重	-3659
区和	-3660
反击	-3661
只占	-3662
右翼	-3663
后头	-3664
后退	-3665
否定	-3666
地下	-3667
地球	-3668
垄断	-3669
处的	-3670
守势	-3671
宣告	-3672
害怕	-3673
尚有	-3674
尽量	-3675
并使	-3676
强弱	-3677
把他	-3678
拚命	-3679
接触	-3680
措施	-3681
支队	-3682
新式	-3683
方能	-3684
无非	-3685
是个	-3686
显著	-3687
极大	-3688
法令	-3689
法则	-3690
济南	-3691
物的	-3692
猖狂	-3693
百家	-3694
石头	-3695
私营	-3696
空洞	-3697
等的	-3698
终于	-3699
联结	-3700
调整	-3701
近代	-3702
都应	-3703
银行	-3704
集会	-3705
一八九	-3706
一八八	-3707
一般的	-3708
下半年	-3709
不同了	-3710
不好的	-3711
不注意	-3712
为基础	-3713
五百万	-3714
他们说	-3715
全党的	-3716
共同的	-3717
危险的	-3718
参加了	-3719
各国的	-3720
和日本	-3721
在战争	-3722
在敌人	-3723
在日本	-3724
局部的	-3725
张家口	-3726
必须使	-3727
总结了	-3728
把中国	-3729
文化的	-3730
是应该	-3731
有些是	-3732
有利的	-3733
的决定	-3734
的影响	-3735
的机会	-3736
的红军	-3737
究竟是	-3738
符合于	-3739
经济和	-3740
范围的	-3741
莫斯科	-3742
蒋先生	-3743
行动的	-3744
行政院	-3745
表现为	-3746
表现了	-3747
贫雇农	-3748
转变为	-3749
这对于	-3750
都不能	-3751
问题和	-3752
队伍中	-3753
中华民国	-3754
二十一日	-3755
互相转化	-3756
他们自己	-3757
以及其他	-3758
停止内战	-3759
全体人民	-3760
分配土地	-3761
又一方面	-3762
在思想上	-3763
官僚资本	-3764
工农联盟	-3765
战略反攻	-3766
战略方针	-3767
战胜敌人	-3768
才有可能	-3769
文化教育	-3770
毛泽东在	-3771
百家争鸣	-3772
自卫战争	-3773
被动地位	-3774
财政经济	-3775
错误思想	-3776
革命高潮	-3777
▁中国人民	-3778
国民革命军	-3779
建立根据地	-3780
的作战方针	-3781
和中国共产党	-3782
官僚资本主义	-3783
抗日战争时期	-3784
社会主义工业化	-3785
一段	-3786
不杀	-3787
不纯	-3788
不良	-3789
中外	-3790
主任	-3791
之以	-3792
也将	-3793
互不	-3794
位置	-3795
你要	-3796
做出	-3797
其一	-3798
冈村	-3799
农工	-3800
出击	-3801
前夜	-3802
南北	-3803
及时	-3804
友谊	-3805
司徒	-3806
各位	-3807
周年	-3808
和对	-3809
四亿	-3810
回去	-3811
地理	-3812
多人	-3813
多余	-3814
大利	-3815
奖励	-3816
好人	-3817
尼亚	-3818
年来	-3819
广播	-3820
开了	-3821
很久	-3822
得太	-3823
房子	-3824
所能	-3825
打得	-3826
打算	-3827
托洛	-3828
挫折	-3829
敌对	-3830
文是	-3831
无从	-3832
显然	-3833
核心	-3834
激烈	-3835
的了	-3836
的呢	-3837
看了	-3838
看待	-3839
看成	-3840
社和	-3841
等人	-3842
缓和	-3843
胡宗	-3844
腐败	-3845
自耕	-3846
茨基	-3847
贵党	-3848
轨道	-3849
轻易	-3850
这条	-3851
采纳	-3852
雷登	-3853
须知	-3854
首领	-3855
龙江	-3856
一八四	-3857
一样的	-3858
下决心	-3859
不但要	-3860
两部分	-3861
中央和	-3862
主力军	-3863
优势和	-3864
充分的	-3865
几十个	-3866
到现在	-3867
区别的	-3868
十五年	-3869
合作的	-3870
同时又	-3871
在将来	-3872
大辩论	-3873
广泛地	-3874
应当是	-3875
形势的	-3876
成立了	-3877
我党的	-3878
是好的	-3879
是有的	-3880
有可能	-3881
然后再	-3882
片面地	-3883
的抗战	-3884
的状态	-3885
看不起	-3886
着重地	-3887
红军和	-3888
统一于	-3889
自以为	-3890
许可的	-3891
这样说	-3892
适当地	-3893
▁国民党	-3894
不正确的	-3895
中央委员	-3896
中间势力	-3897
二十八日	-3898
任何一个	-3899
任国民党	-3900
保存自己	-3901
党外人士	-3902
关门主义	-3903
反动统治	-3904
发展阶段	-3905
只有一个	-3906
司徒雷登	-3907
各中央局	-3908
和共产党	-3909
外线作战	-3910
工农群众	-3911
战略退却	-3912
托洛茨基	-3913
这些就是	-3914
这是完全	-3915
鸦片战争	-3916
一九五〇年	-3917
九一八事变	-3918
卢沟桥事变	-3919
我们的方针	-3920
民主共和国	-3921
民主集中制	-3922
百分之八十	-3923
中国无产阶级	-3924
人民共和国的	-3925
国内革命战争	-3926
无产阶级专政	-3927
民主联合政府	-3928
资产阶级思想	-3929
革命根据地的	-3930
打败日本侵略者	-3931
革命军事委员会	-3932
第一次全国代表大会	-3933
不及	-3934
不懂	-3935
东南	-3936
中说	-3937
之类	-3938
乡的	-3939
了吗	-3940
以求	-3941
典型	-3942
再有	-3943
分割	-3944
分区	-3945
分歧	-3946
初步	-3947
前委	-3948
剿共	-3949
和非	-3950
响应	-3951
在一	-3952
在此	-3953
多个	-3954
宁次	-3955
审查	-3956
宣称	-3957
封信	-3958
山区	-3959
带有	-3960
并无	-3961
幼稚	-3962
应以	-3963
总的	-3964
想要	-3965
我就	-3966
扫除	-3967
抓住	-3968
投机	-3969
支配	-3970
政令	-3971
政协	-3972
春季	-3973
最低	-3974
最好	-3975
最有	-3976
本国	-3977
极为	-3978
果实	-3979
歌颂	-3980
死的	-3981
每人	-3982
比例	-3983
比西	-3984
民兵	-3985
爱护	-3986
独占	-3987
现状	-3988
百花	-3989
真实	-3990
稳步	-3991
空话	-3992
等到	-3993
维埃	-3994
而把	-3995
苏德	-3996
范畴	-3997
读者	-3998
资金	-3999
进军	-4000
速决	-4001
速胜	-4002
醴陵	-4003
鉴于	-4004
难免	-4005
齐放	-4006
了一些	-4007
全部地	-4008
准备着	-4009
动摇的	-4010
势力的	-4011
发表了	-4012
和民主	-4013
和统一	-4014
和苏联	-4015
国家和	-4016
在苏联	-4017
地主的	-4018
城市的	-4019
外国人	-4020
大家都	-4021
学习和	-4022
密切地	-4023
对立面	-4024
意大利	-4025
打胜仗	-4026
是如此	-4027
是对的	-4028
有一天	-4029
有步骤	-4030
有那么	-4031
消灭的	-4032
清楚的	-4033
灵活性	-4034
的内容	-4035
的努力	-4036
第四次	-4037
苏维埃	-4038
适合于	-4039
革命党	-4040
领导权	-4041
。”(《	-4042
个人主义	-4043
中共方面	-4044
了自己的	-4045
什么地方	-4046
冈村宁次	-4047
农村工作	-4048
各解放区	-4049
各阶级的	-4050
四中全会	-4051
就不可能	-4052
抗日民主	-4053
有很大的	-4054
犯了错误	-4055
百花齐放	-4056
盲动主义	-4057
还是一个	-4058
这一方面	-4059
这样一种	-4060
这种意见	-4061
遵义会议	-4062
高级干部	-4063
之间的关系	-4064
人民的利益	-4065
人民群众的	-4066
华东野战军	-4067
教条主义的	-4068
三个五年计划	-4069
中国共产党在	-4070
中央人民政府	-4071
是完全必要的	-4072
日本帝国主义和	-4073
的对党内的指示	-4074
▁为	-4075
▁指	-4076
〕《	-4077
一齐	-4078
三千	-4079
下旬	-4080
不使	-4081
不必	-4082
乃至	-4083
事先	-4084
二万	-4085
伯伦	-4086
你看	-4087
例子	-4088
儿庄	-4089
六个	-4090
六亿	-4091
出于	-4092
出兵	-4093
击溃	-4094
北上	-4095
卫生	-4096
去掉	-4097
又说	-4098
友军	-4099
变更	-4100
变革	-4101
各有	-4102
周密	-4103
和小	-4104
四面	-4105
它将	-4106
官污	-4107
实事	-4108
家庄	-4109
就把	-4110
尼黑	-4111
崇禧	-4112
差别	-4113
开放	-4114
张皮	-4115
总部	-4116
恩来	-4117
才会	-4118
找到	-4119
整理	-4120
是大	-4121
是无	-4122
暗藏	-4123
更为	-4124
最大	-4125
有害	-4126
有点	-4127
极力	-4128
概念	-4129
清查	-4130
清算	-4131
生意	-4132
留在	-4133
的吗	-4134
祖国	-4135
突击	-4136
结成	-4137
给养	-4138
罪恶	-4139
联俄	-4140
胜负	-4141
能动	-4142
舒服	-4143
蒋军	-4144
要想	-4145
调剂	-4146
贡献	-4147
起见	-4148
迷惑	-4149
退让	-4150
部和	-4151
里去	-4152
间接	-4153
陈毅	-4154
集合	-4155
▁由于	-4156
。”“	-4157
三个师	-4158
不是说	-4159
丧失了	-4160
中国有	-4161
中央的	-4162
什么叫	-4163
什么呢	-4164
公开的	-4165
农民在	-4166
出发点	-4167
区别于	-4168
参加的	-4169
反映了	-4170
发表的	-4171
台儿庄	-4172
各阶层	-4173
和坚持	-4174
和敌人	-4175
国内外	-4176
在今天	-4177
在各个	-4178
地主和	-4179
官污吏	-4180
对立的	-4181
就有了	-4182
工人的	-4183
张伯伦	-4184
影响到	-4185
慕尼黑	-4186
我们同	-4187
所规定	-4188
报纸上	-4189
数量上	-4190
文学家	-4191
日本人	-4192
旧中国	-4193
是一切	-4194
是怎样	-4195
是比较	-4196
极大地	-4197
比过去	-4198
爱国的	-4199
白崇禧	-4200
的分子	-4201
的原因	-4202
的工人	-4203
的教育	-4204
的这个	-4205
相反的	-4206
离开了	-4207
第一条	-4208
粮食和	-4209
结束了	-4210
绝大的	-4211
路军的	-4212
还不够	-4213
这句话	-4214
黑龙江	-4215
▁为什么	-4216
一百二十	-4217
他们认为	-4218
优势兵力	-4219
军事上的	-4220
军事力量	-4221
各党各派	-4222
向前发展	-4223
告诉我们	-4224
国民党内	-4225
地方武装	-4226
建立一个	-4227
建立起来	-4228
必须采取	-4229
我们过去	-4230
有利条件	-4231
的中国人	-4232
的大多数	-4233
的新中国	-4234
联系起来	-4235
贪官污吏	-4236
这个政府	-4237
青年学生	-4238
一九二五年	-4239
一九二六年	-4240
百分之七十	-4241
中国共产党人	-4242
解决这个问题	-4243
社会主义革命的	-4244
资本主义国家的	-4245
反对日本帝国主义	-4246
新民主主义的国家	-4247
],	-4248
▁《	-4249
一来	-4250
七千	-4251
上了	-4252
不加	-4253
不通	-4254
两大	-4255
产业	-4256
人人	-4257
亿斤	-4258
代价	-4259
以东	-4260
使人	-4261
侵占	-4262
便于	-4263
兄弟	-4264
充满	-4265
先行	-4266
八百	-4267
关头	-4268
军令	-4269
农具	-4270
分期	-4271
分离	-4272
刚刚	-4273
刚才	-4274
制定	-4275
剿匪	-4276
南下	-4277
南线	-4278
占有	-4279
印度	-4280
反苏	-4281
台山	-4282
名称	-4283
后期	-4284
和风	-4285
固然	-4286
地带	-4287
壮大	-4288
好好	-4289
子的	-4290
孩子	-4291
就越	-4292
山脉	-4293
平江	-4294
并非	-4295
广西	-4296
意地	-4297
战的	-4298
操纵	-4299
敌以	-4300
敌占	-4301
施行	-4302
更大	-4303
杀了	-4304
欧美	-4305
歇尔	-4306
民选	-4307
汽车	-4308
治病	-4309
活泼	-4310
潮流	-4311
物力	-4312
理性	-4313
生长	-4314
男女	-4315
神圣	-4316
给他	-4317
耐心	-4318
莲花	-4319
要点	-4320
要用	-4321
论者	-4322
设立	-4323
身体	-4324
过高	-4325
进去	-4326
退出	-4327
酝酿	-4328
错的	-4329
间的	-4330
限共	-4331
陷入	-4332
青岛	-4333
▁目前	-4334
▁第五	-4335
一九六	-4336
上半年	-4337
不需要	-4338
中国是	-4339
为中国	-4340
做工作	-4341
八个旅	-4342
关系上	-4343
准备在	-4344
几十万	-4345
几百万	-4346
反对的	-4347
发言权	-4348
和建设	-4349
四个月	-4350
坏分子	-4351
多一点	-4352
太平洋	-4353
对人民	-4354
就不会	-4355
就应当	-4356
已经在	-4357
已经是	-4358
形式上	-4359
很好地	-4360
我们将	-4361
我军的	-4362
新华社	-4363
是不可	-4364
暂时地	-4365
最好的	-4366
的封建	-4367
的局面	-4368
的统治	-4369
社会上	-4370
经济的	-4371
群众和	-4372
而且在	-4373
自耕农	-4374
要注意	-4375
说明了	-4376
这三个	-4377
阿比西	-4378
马歇尔	-4379
▁蒋介石	-4380
一步一步	-4381
中间阶级	-4382
互不侵犯	-4383
他们对于	-4384
但是现在	-4385
具体情况	-4386
参见本卷	-4387
反动政府	-4388
发展起来	-4389
和平解决	-4390
和蒋介石	-4391
唤起民众	-4392
国共两党	-4393
地主土地	-4394
存在着的	-4395
对于一切	-4396
对于中国	-4397
对立统一	-4398
必须反对	-4399
成为一个	-4400
抗日时期	-4401
政权机关	-4402
是革命的	-4403
有许多人	-4404
民权主义	-4405
没有这种	-4406
的同志们	-4407
皖南事变	-4408
破坏抗战	-4409
经济基础	-4410
结合起来	-4411
胜利以后	-4412
调查研究	-4413
辩证法的	-4414
达此目的	-4415
这个运动	-4416
这些矛盾	-4417
问题上的	-4418
革命事业	-4419
▁参见本卷	-4420
中农中间的	-4421
主要的矛盾	-4422
和帝国主义	-4423
国共两党的	-4424
地主阶级和	-4425
抗日救国的	-4426
阿比西尼亚	-4427
中国资产阶级	-4428
人民代表会议	-4429
六届四中全会	-4430
广大人民群众	-4431
抗日游击战争	-4432
统一战线中的	-4433
中国人民政治协商会议	-4434
]。	-4435
一是	-4436
一派	-4437
一股	-4438
三万	-4439
三国	-4440
不合	-4441
不着	-4442
不让	-4443
两重	-4444
主意	-4445
也和	-4446
二千	-4447
从而	-4448
他不	-4449
以此	-4450
会合	-4451
但又	-4452
体系	-4453
作者	-4454
充实	-4455
八条	-4456
共存	-4457
农户	-4458
几万	-4459
划归	-4460
制裁	-4461
前方	-4462
劳资	-4463
勇气	-4464
区委	-4465
十万	-4466
十个	-4467
厉行	-4468
压力	-4469
又将	-4470
变工	-4471
叙述	-4472
可惜	-4473
各次	-4474
商店	-4475
商谈	-4476
四万	-4477
四川	-4478
土改	-4479
地说	-4480
场合	-4481
坦克	-4482
型的	-4483
基地	-4484
复兴	-4485
大军	-4486
太多	-4487
守法	-4488
宝贵	-4489
小平	-4490
就将	-4491
工夫	-4492
已在	-4493
希腊	-4494
庆祝	-4495
应有	-4496
廷锴	-4497
开除	-4498
很不	-4499
心理	-4500
恶劣	-4501
批准	-4502
抗议	-4503
指定	-4504
挑拨	-4505
提起	-4506
改进	-4507
散布	-4508
旧式	-4509
是用	-4510
本党	-4511
果然	-4512
标志	-4513
死刑	-4514
气力	-4515
求是	-4516
流寇	-4517
混乱	-4518
灾荒	-4519
生存	-4520
番号	-4521
看法	-4522
真是	-4523
竞赛	-4524
等待	-4525
算是	-4526
精兵	-4527
细雨	-4528
而已	-4529
聪明	-4530
茶陵	-4531
荫蔽	-4532
资源	-4533
走了	-4534
还能	-4535
这项	-4536
▁然而	-4537
一个旅	-4538
不容许	-4539
个人的	-4540
中国之	-4541
举行了	-4542
也只有	-4543
乡村中	-4544
以前的	-4545
光明的	-4546
其目的	-4547
内蒙古	-4548
农业和	-4549
千百万	-4550
原来的	-4551
各民族	-4552
和生产	-4553
在今后	-4554
委员长	-4555
孤立的	-4556
就叫做	-4557
就是指	-4558
巩固了	-4559
帮助了	-4560
并且在	-4561
彻底性	-4562
必须有	-4563
情况和	-4564
情形下	-4565
战略上	-4566
才能够	-4567
打倒了	-4568
打败了	-4569
找到了	-4570
指挥的	-4571
政党的	-4572
是处在	-4573
是属于	-4574
更多的	-4575
歼灭性	-4576
残酷的	-4577
理论家	-4578
生力量	-4579
的事件	-4580
的作风	-4581
的失败	-4582
的批评	-4583
的理论	-4584
的青年	-4585
立场上	-4586
第三种	-4587
第四军	-4588
老干部	-4589
而采取	-4590
蔡廷锴	-4591
表面上	-4592
被我们	-4593
被称为	-4594
要反对	-4595
解放了	-4596
认识的	-4597
过去了	-4598
过来了	-4599
还需要	-4600
部队的	-4601
领导了	-4602
一些同志	-4603
一切爱国	-4604
三大政策	-4605
两条路线	-4606
兵力不足	-4607
南京政府	-4608
历史上的	-4609
另一部分	-4610
和风细雨	-4611
国际国内	-4612
实事求是	-4613
工商业者	-4614
已经不是	-4615
建设一个	-4616
政治委员	-4617
本地干部	-4618
民主政治	-4619
民族解放	-4620
生产自给	-4621
的重要性	-4622
的领导者	-4623
研究一下	-4624
私有财产	-4625
绝大部分	-4626
老解放区	-4627
达到目的	-4628
过渡时期	-4629
还有许多	-4630
这些问题	-4631
进行教育	-4632
革命失败	-4633
革命斗争	-4634
顽固分子	-4635
伟大的胜利	-4636
国民党当局	-4637
在土地改革	-4638
封建主义和	-4639
我们的军队	-4640
战争的胜利	-4641
日本侵略军	-4642
百分之五十	-4643
美国反动派	-4644
人民解放战争	-4645
共产党的领导	-4646
国家资本主义	-4647
毛泽东在这里	-4648
一九四九年一月	-4649
打倒日本帝国主义	-4650
▁八	-4651
一群	-4652
上升	-4653
下令	-4654
不出	-4655
不受	-4656
严肃	-4657
之为	-4658
乘机	-4659
优劣	-4660
估量	-4661
住了	-4662
何处	-4663
何种	-4664
侦察	-4665
侵华	-4666
兴国	-4667
其所	-4668
内政	-4669
册子	-4670
军人	-4671
军团	-4672
军舰	-4673
到会	-4674
化为	-4675
医生	-4676
华侨	-4677
华南	-4678
原辖	-4679
参看	-4680
发给	-4681
名为	-4682
名单	-4683
和最	-4684
和谈	-4685
国务	-4686
地形	-4687
太行	-4688
奴隶	-4689
好象	-4690
孔夫	-4691
富强	-4692
对内	-4693
就使	-4694
尽管	-4695
平原	-4696
开头	-4697
强制	-4698
很长	-4699
必将	-4700
急性	-4701
抗击	-4702
拯救	-4703
描写	-4704
揭穿	-4705
搞好	-4706
撤销	-4707
改称	-4708
效力	-4709
整军	-4710
新民	-4711
无可	-4712
是小	-4713
正常	-4714
死亡	-4715
民意	-4716
派别	-4717
湘潭	-4718
灰尘	-4719
物资	-4720
特权	-4721
甘肃	-4722
的无	-4723
空谈	-4724
突破	-4725
立刻	-4726
精力	-4727
终点	-4728
继承	-4729
而无	-4730
著作	-4731
虽有	-4732
衡山	-4733
西部	-4734
要向	-4735
警惕	-4736
讲一	-4737
讲过	-4738
这篇	-4739
速度	-4740
雇佣	-4741
▁反对	-4742
▁必须	-4743
▁第六	-4744
一万年	-4745
不统一	-4746
两个旅	-4747
中央社	-4748
也应该	-4749
他们又	-4750
作用的	-4751
先锋队	-4752
党员和	-4753
决定的	-4754
分子和	-4755
分析了	-4756
创造了	-4757
占全国	-4758
即所谓	-4759
发展和	-4760
只剩下	-4761
只能是	-4762
可靠的	-4763
和战术	-4764
在上海	-4765
大批的	-4766
大量地	-4767
实践中	-4768
对中国	-4769
就一定	-4770
平均每	-4771
形式的	-4772
得很好	-4773
必须用	-4774
总指挥	-4775
我认为	-4776
把这个	-4777
新干部	-4778
方面来	-4779
无条件	-4780
无疑地	-4781
明确地	-4782
是由于	-4783
有各种	-4784
有没有	-4785
治病救	-4786
现在有	-4787
生产和	-4788
的对象	-4789
的政府	-4790
的某些	-4791
的研究	-4792
的行动	-4793
的谈话	-4794
的这种	-4795
的速决	-4796
而是在	-4797
联合会	-4798
胡宗南	-4799
负责人	-4800
超过了	-4801
转变到	-4802
这一套	-4803
这是很	-4804
那样的	-4805
鄂豫皖	-4806
一切可能	-4807
一百五十	-4808
三十一日	-4809
争取抗战	-4810
二十四日	-4811
什么东西	-4812
但是他们	-4813
但是没有	-4814
准备反攻	-4815
加以区别	-4816
十大纲领	-4817
发展工业	-4818
团结他们	-4819
坚决抗战	-4820
大举进攻	-4821
广大地区	-4822
我们党内	-4823
抗日党派	-4824
抗日救国	-4825
是国民党	-4826
是我们的	-4827
有步骤地	-4828
民主改革	-4829
民众运动	-4830
爱国运动	-4831
的情况下	-4832
经济地位	-4833
美国人民	-4834
考察报告	-4835
还有什么	-4836
这一部分	-4837
这个政策	-4838
这种方法	-4839
陷于孤立	-4840
一九三〇年	-4841
世界革命的	-4842
中国国民党	-4843
以自卫战争	-4844
全国规模的	-4845
共产主义者	-4846
匈牙利事件	-4847
和人民群众	-4848
工人阶级的	-4849
新三民主义	-4850
百分之二十	-4851
的错误思想	-4852
自己的力量	-4853
革命的胜利	-4854
内蒙古自治区	-4855
半社会主义的	-4856
在抗日战争中	-4857
湖南农民运动	-4858
资本主义社会	-4859
十二月二十五日	-4860
第一个五年计划	-4861
新民主主义的革命	-4862
资产阶级民主主义	-4863
中国革命和中国共产党	-4864
湖南农民运动考察报告	-4865
以自卫战争粉碎蒋介石的进攻	-4866
一波	-4867
不分	-4868
不用	-4869
专家	-4870
两点	-4871
两项	-4872
之处	-4873
也算	-4874
互利	-4875
产物	-4876
亲自	-4877
以下	-4878
便利	-4879
停顿	-4880
六千	-4881
共党	-4882
冀东	-4883
出席	-4884
出钱	-4885
则将	-4886
创立	-4887
动作	-4888
发了	-4889
吉安	-4890
向我	-4891
回事	-4892
团员	-4893
困苦	-4894
在华	-4895
均须	-4896
大使	-4897
大纲	-4898
奇怪	-4899
如像	-4900
对敌	-4901
对方	-4902
对着	-4903
左翼	-4904
恰当	-4905
感性	-4906
成效	-4907
我是	-4908
战时	-4909
抓紧	-4910
指南	-4911
放下	-4912
敌强	-4913
救亡	-4914
数字	-4915
早就	-4916
早日	-4917
正如	-4918
比起	-4919
沙皇	-4920
治安	-4921
法庭	-4922
津浦	-4923
派出	-4924
清理	-4925
清醒	-4926
湘鄂	-4927
物价	-4928
生气	-4929
的总	-4930
的老	-4931
确保	-4932
确立	-4933
社论	-4934
神话	-4935
秋收	-4936
策动	-4937
简政	-4938
纲要	-4939
纷纷	-4940
统帅	-4941
统计	-4942
老是	-4943
脑子	-4944
脑筋	-4945
良心	-4946
节省	-4947
要靠	-4948
讨伐	-4949
诱敌	-4950
说得	-4951
调和	-4952
调节	-4953
较为	-4954
辽沈	-4955
迁就	-4956
远东	-4957
连续	-4958
退步	-4959
选为	-4960
都被	-4961
长官	-4962
陆军	-4963
饭吃	-4964
香花	-4965
马上	-4966
鸣放	-4967
三十五	-4968
不反对	-4969
不同意	-4970
不认识	-4971
个别的	-4972
也可能	-4973
作战线	-4974
你们看	-4975
侵略的	-4976
全面的	-4977
军队中	-4978
决定了	-4979
减少了	-4980
口头上	-4981
另一种	-4982
同盟国	-4983
向我们	-4984
和全国	-4985
和农民	-4986
和反对	-4987
和团结	-4988
和国内	-4989
和国际	-4990
国民主	-4991
土地的	-4992
在党的	-4993
在农民	-4994
在政治	-4995
在许多	-4996
在这点	-4997
地反对	-4998
坚持了	-4999
大汉族	-5000
太平天	-5001
完成的	-5002
实践论	-5003
小孩子	-5004
师师长	-5005
必需的	-5006
急性病	-5007
恢复了	-5008
我党在	-5009
战斗的	-5010
扩大了	-5011
政治犯	-5012
整个的	-5013
是必须	-5014
是非常	-5015
有矛盾	-5016
有这种	-5017
极少数	-5018
武汉失	-5019
流动性	-5020
独立的	-5021
现在要	-5022
的宣言	-5023
的成绩	-5024
的模范	-5025
的联系	-5026
的那种	-5027
看不见	-5028
确定了	-5029
空前的	-5030
第三卷	-5031
第二年	-5032
系统的	-5033
组成的	-5034
而不能	-5035
而没有	-5036
英国的	-5037
被消灭	-5038
要不要	-5039
计划性	-5040
负责任	-5041
选举权	-5042
通过了	-5043
部分的	-5044
都必须	-5045
防御战	-5046
▁中国的	-5047
▁见本书	-5048
一九一九	-5049
世界革命	-5050
为代表的	-5051
买办阶级	-5052
二十九日	-5053
人民生活	-5054
什么时候	-5055
从来没有	-5056
克服困难	-5057
党的建设	-5058
全国各地	-5059
八路军的	-5060
内线作战	-5061
军事进攻	-5062
农村人口	-5063
原辖地区	-5064
各方面的	-5065
各级党委	-5066
在农村中	-5067
城市工作	-5068
客观实际	-5069
对抗性的	-5070
工作方法	-5071
应当采取	-5072
必须实行	-5073
我们曾经	-5074
战争中的	-5075
战略上的	-5076
所造成的	-5077
把自己的	-5078
投降危险	-5079
机关学校	-5080
歼灭敌人	-5081
民主自由	-5082
游击部队	-5083
的可能性	-5084
社会上的	-5085
精兵简政	-5086
群众路线	-5087
这个任务	-5088
这个协定	-5089
这个革命	-5090
这次大会	-5091
这种态度	-5092
这种矛盾	-5093
进一步地	-5094
需要一个	-5095
领导方法	-5096
一部分同志	-5097
主义的革命	-5098
和中国人民	-5099
工作和整党	-5100
广大人民的	-5101
是帝国主义	-5102
的革命战争	-5103
统一的民主	-5104
自治区党委	-5105
这是我们的	-5106
于一九四八年	-5107
六届三中全会	-5108
动员一切力量	-5109
社会主义道路	-5110
▁这是毛泽东在	-5111
中共中央政治局	-5112
第三次世界大战	-5113
美国帝国主义的	-5114
资产阶级知识分子	-5115
帝国主义和封建主义	-5116
(《	-5117
”?	-5118
▁对	-5119
一事	-5120
一句	-5121
一块	-5122
一省	-5123
上旬	-5124
下降	-5125
下马	-5126
不以	-5127
不犯	-5128
不问	-5129
两类	-5130
中苏	-5131
主权	-5132
之战	-5133
之点	-5134
之际	-5135
乱纪	-5136
云南	-5137
亚洲	-5138
亦即	-5139
以西	-5140
传播	-5141
但这	-5142
位于	-5143
何以	-5144
何时	-5145
余万	-5146
余地	-5147
作过	-5148
侮辱	-5149
八七	-5150
公债	-5151
决然	-5152
分清	-5153
划清	-5154
列强	-5155
创作	-5156
利亚	-5157
前后	-5158
力更	-5159
办好	-5160
包袱	-5161
匪帮	-5162
参考	-5163
反蒋	-5164
发达	-5165
只会	-5166
只在	-5167
只顾	-5168
同蒲	-5169
和派	-5170
唐山	-5171
坦白	-5172
城乡	-5173
基层	-5174
多月	-5175
大队	-5176
太原	-5177
失去	-5178
守备	-5179
对此	-5180
小块	-5181
小时	-5182
小说	-5183
就其	-5184
局势	-5185
山地	-5186
并为	-5187
店员	-5188
建社	-5189
异常	-5190
很难	-5191
得着	-5192
忧虑	-5193
总理	-5194
总要	-5195
感谢	-5196
慎重	-5197
或不	-5198
战后	-5199
所未	-5200
打不	-5201
找出	-5202
拖延	-5203
敌于	-5204
敷衍	-5205
新疆	-5206
显得	-5207
本卷	-5208
杆子	-5209
来得	-5210
林彪	-5211
树立	-5212
毫不	-5213
求得	-5214
洛阳	-5215
清除	-5216
游行	-5217
湘乡	-5218
灾难	-5219
甚多	-5220
用了	-5221
电影	-5222
的路	-5223
福利	-5224
租界	-5225
稳固	-5226
签字	-5227
结社	-5228
编辑	-5229
腐朽	-5230
要打	-5231
解除	-5232
警告	-5233
贫苦	-5234
这件	-5235
那一	-5236
难于	-5237
面积	-5238
驳斥	-5239
麻雀	-5240
▁以上	-5241
▁所谓	-5242
一切有	-5243
一条是	-5244
一百零	-5245
下去了	-5246
不同于	-5247
不许可	-5248
两年内	-5249
为群众	-5250
主张的	-5251
也不行	-5252
也是不	-5253
交通线	-5254
人民为	-5255
人民以	-5256
代表的	-5257
任何人	-5258
使红军	-5259
六十五	-5260
出中国	-5261
前进的	-5262
力更生	-5263
司令官	-5264
司令部	-5265
各阶级	-5266
同时也	-5267
周恩来	-5268
和教育	-5269
和方法	-5270
大量的	-5271
就不是	-5272
就是不	-5273
工业和	-5274
工业品	-5275
巩固地	-5276
庞大的	-5277
建立的	-5278
得不到	-5279
懂得了	-5280
我们不	-5281
战场上	-5282
打破了	-5283
打败仗	-5284
批判了	-5285
投降的	-5286
推翻了	-5287
教育了	-5288
文艺家	-5289
时代的	-5290
明显的	-5291
是农民	-5292
是对于	-5293
更好地	-5294
有多少	-5295
有效地	-5296
有缺点	-5297
机械化	-5298
次要的	-5299
没有呢	-5300
的倾向	-5301
的分析	-5302
的实践	-5303
的情形	-5304
的意义	-5305
的教训	-5306
的标准	-5307
的行为	-5308
的部分	-5309
目的是	-5310
积极的	-5311
第一届	-5312
红军中	-5313
组织的	-5314
胜利后	-5315
自然界	-5316
艺术家	-5317
表现于	-5318
贫农团	-5319
还可能	-5320
这一年	-5321
通讯社	-5322
那时候	-5323
部分地	-5324
都不是	-5325
都是从	-5326
集中于	-5327
需要有	-5328
一切敌人	-5329
不要以为	-5330
与此相反	-5331
世界各国	-5332
五月四日	-5333
他们中间	-5334
但是必须	-5335
作战方法	-5336
党的任务	-5337
党的政策	-5338
党的领导	-5339
全面规划	-5340
几个月内	-5341
劳动互助	-5342
十年内战	-5343
反动政策	-5344
只有这种	-5345
可不可以	-5346
向国民党	-5347
和全世界	-5348
国民党在	-5349
大多数人	-5350
大鸣大放	-5351
太平天国	-5352
封建社会	-5353
工农民主	-5354
总有一天	-5355
总结经验	-5356
我们没有	-5357
我们能够	-5358
我们自己	-5359
我党中央	-5360
政治形势	-5361
是中国的	-5362
民众团体	-5363
没有这个	-5364
社会制度	-5365
社会秩序	-5366
经济问题	-5367
经验主义	-5368
群众中去	-5369
群众生活	-5370
自力更生	-5371
诱敌深入	-5372
负责同志	-5373
起了变化	-5374
过程中的	-5375
这样大的	-5376
这种形式	-5377
违法乱纪	-5378
革命势力	-5379
革命运动	-5380
革命阶级	-5381
中共发言人	-5382
人民大众的	-5383
反革命战争	-5384
发展起来的	-5385
同资产阶级	-5386
土地改革的	-5387
在无产阶级	-5388
坚决地反对	-5389
外线的速决	-5390
是不正确的	-5391
正确的政策	-5392
歼灭性打击	-5393
汉奸卖国贼	-5394
消灭敌人的	-5395
游击根据地	-5396
犯错误的人	-5397
的基础之上	-5398
的统一战线	-5399
苏联共产党	-5400
中共中央关于	-5401
原辖地区划归	-5402
国民党军队的	-5403
小资产阶级和	-5404
抗日根据地的	-5405
日本投降以后	-5406
犯错误的同志	-5407
的人民解放军	-5408
资产阶级右派	-5409
一九四九年四月	-5410
人民内部的矛盾	-5411
日本帝国主义者	-5412
中农中间的下中农	-5413
南京国民政府所属	-5414
▁这是毛泽东同志在	-5415
南京国民党反动政府	-5416
土地改革工作和整党	-5417
外线的速决的进攻战	-5418
第七次全国代表大会	-5419
马克思列宁主义的普遍真理	-5420
?”	-5421
一一	-5422
一支	-5423
不为	-5424
不改	-5425
不易	-5426
之多	-5427
五多	-5428
交给	-5429
亲密	-5430
仇恨	-5431
他要	-5432
代理	-5433
优良	-5434
会的	-5435
低级	-5436
作义	-5437
入党	-5438
全歼	-5439
公式	-5440
六万	-5441
几点	-5442
前的	-5443
动机	-5444
区乡	-5445
单独	-5446
压制	-5447
原有	-5448
叶挺	-5449
各军	-5450
各大	-5451
吉林	-5452
名词	-5453
后面	-5454
听到	-5455
呼吁	-5456
和反	-5457
哪里	-5458
因其	-5459
地域	-5460
坚定	-5461
坚强	-5462
夏季	-5463
大力	-5464
大势	-5465
奴役	-5466
如不	-5467
姿态	-5468
它在	-5469
它就	-5470
安全	-5471
山上	-5472
干的	-5473
平汉	-5474
年年	-5475
应在	-5476
当权	-5477
彼此	-5478
征服	-5479
必能	-5480
成员	-5481
报复	-5482
据说	-5483
掩护	-5484
提法	-5485
援敌	-5486
新区	-5487
无力	-5488
未免	-5489
本人	-5490
本军	-5491
机动	-5492
杂文	-5493
构成	-5494
格勒	-5495
榜样	-5496
步枪	-5497
武训	-5498
毁灭	-5499
水利	-5500
法宝	-5501
淮河	-5502
猛烈	-5503
疑问	-5504
的党	-5505
看的	-5506
突围	-5507
等处	-5508
统制	-5509
美军	-5510
美洲	-5511
考验	-5512
而定	-5513
肥料	-5514
能在	-5515
舞台	-5516
被我	-5517
认清	-5518
讲到	-5519
说了	-5520
财经	-5521
贫困	-5522
赶快	-5523
起的	-5524
越好	-5525
足够	-5526
较少	-5527
迂回	-5528
过多	-5529
遵照	-5530
都能	-5531
酌量	-5532
陇海	-5533
香港	-5534
▁中央	-5535
▁农民	-5536
▁总之	-5537
▁最后	-5538
一切都	-5539
一直到	-5540
上中农	-5541
不干涉	-5542
不满意	-5543
不要怕	-5544
两个月	-5545
两面派	-5546
丰富的	-5547
为主要	-5548
主观地	-5549
也不敢	-5550
五台山	-5551
他自己	-5552
件大事	-5553
俄国的	-5554
公元前	-5555
军队在	-5556
几千年	-5557
努力于	-5558
包围中	-5559
十个月	-5560
单纯的	-5561
取守势	-5562
变工队	-5563
只是在	-5564
只要是	-5565
同一的	-5566
固定的	-5567
在农村	-5568
在现在	-5569
坚强的	-5570
复杂的	-5571
实质上	-5572
对农民	-5573
封建的	-5574
就完全	-5575
就成了	-5576
展开了	-5577
开辟了	-5578
当前的	-5579
必要和	-5580
我们则	-5581
战斗员	-5582
打击了	-5583
承认了	-5584
抗日和	-5585
报告和	-5586
改造的	-5587
新民报	-5588
无非是	-5589
有益的	-5590
有相当	-5591
机关和	-5592
梁先生	-5593
民众的	-5594
活动的	-5595
清楚了	-5596
现在还	-5597
用各种	-5598
的两个	-5599
的对比	-5600
的时局	-5601
的速度	-5602
的部队	-5603
石家庄	-5604
科学家	-5605
第三条	-5606
经营的	-5607
而努力	-5608
联系的	-5609
自觉的	-5610
薄一波	-5611
被打倒	-5612
讲一讲	-5613
谁要是	-5614
跟他们	-5615
过来的	-5616
运动和	-5617
速决战	-5618
邓小平	-5619
那一套	-5620
都有了	-5621
阶段上	-5622
阶段内	-5623
革命是	-5624
顺利地	-5625
一定能够	-5626
一般号召	-5627
中心任务	-5628
中心城市	-5629
中日战争	-5630
也不可能	-5631
了他们的	-5632
今年一月	-5633
以蒋介石	-5634
侵略中国	-5635
侵略势力	-5636
农民起义	-5637
列宁主义	-5638
十九路军	-5639
十八个旅	-5640
发动内战	-5641
发展到了	-5642
向解放区	-5643
因为这是	-5644
在实际上	-5645
孙中山的	-5646
并不是说	-5647
建设工作	-5648
异党活动	-5649
我们不是	-5650
我们相信	-5651
我们要求	-5652
战略战术	-5653
手工业者	-5654
扩大红军	-5655
提出来的	-5656
援助中国	-5657
改正错误	-5658
教育工作	-5659
无论如何	-5660
最重要的	-5661
条件之下	-5662
爱国分子	-5663
片面抗战	-5664
物质生活	-5665
由于中国	-5666
的根据地	-5667
经济工作	-5668
解放区和	-5669
这个方法	-5670
错误路线	-5671
长期共存	-5672
间的矛盾	-5673
阶级关系	-5674
阶级社会	-5675
难道不是	-5676
革命时期	-5677
领导人民	-5678
一步一步地	-5679
为人民服务	-5680
他们不知道	-5681
内部的矛盾	-5682
我们的国家	-5683
战胜敌人的	-5684
抗日战争中	-5685
斯大林格勒	-5686
的条件之下	-5687
蒋介石先生	-5688
中国革命战争	-5689
人民内部矛盾	-5690
国内和平协定	-5691
在人民解放军	-5692
官僚资产阶级	-5693
抗日战争中的	-5694
矛盾的普遍性	-5695
社会主义事业	-5696
官僚资本主义的	-5697
资产阶级专政的	-5698
中国共产党领导的	-5699
第六届中央委员会	-5700
▁这是毛泽东同志为	-5701
。’	-5702
一大	-5703
下了	-5704
不听	-5705
不致	-5706
不错	-5707
两者	-5708
严禁	-5709
为其	-5710
为好	-5711
义务	-5712
也还	-5713
乡里	-5714
产者	-5715
人为	-5716
价格	-5717
会上	-5718
伤亡	-5719
但其	-5720
你就	-5721
你说	-5722
供应	-5723
侧面	-5724
便是	-5725
六百	-5726
兵员	-5727
兵士	-5728
农场	-5729
刺激	-5730
前毖	-5731
办了	-5732
办理	-5733
功利	-5734
务使	-5735
务必	-5736
单是	-5737
去看	-5738
参战	-5739
友好	-5740
双十	-5741
取缔	-5742
可知	-5743
各部	-5744
和大	-5745
城镇	-5746
处罚	-5747
大有	-5748
大陆	-5749
天的	-5750
威力	-5751
守敌	-5752
安定	-5753
宗旨	-5754
审判	-5755
客籍	-5756
寻找	-5757
将使	-5758
将其	-5759
市委	-5760
布告	-5761
幸福	-5762
应由	-5763
得出	-5764
恐怖	-5765
感情	-5766
所提	-5767
所述	-5768
打死	-5769
抵制	-5770
拥政	-5771
拥有	-5772
拿破	-5773
挺进	-5774
敌情	-5775
断绝	-5776
新鲜	-5777
无能	-5778
是同	-5779
是和	-5780
暴雨	-5781
更有	-5782
曾任	-5783
有为	-5784
检讨	-5785
横行	-5786
死硬	-5787
每日	-5788
法子	-5789
海外	-5790
混入	-5791
混淆	-5792
爱民	-5793
牛鬼	-5794
犯罪	-5795
的长	-5796
真心	-5797
真相	-5798
税收	-5799
立于	-5800
统筹	-5801
罗斯	-5802
罢了	-5803
至此	-5804
菩萨	-5805
蛇神	-5806
表明	-5807
被歼	-5808
要从	-5809
要大	-5810
诱降	-5811
请你	-5812
诸位	-5813
谁要	-5814
贵族	-5815
路上	-5816
较多	-5817
近百	-5818
还很	-5819
还想	-5820
这在	-5821
迫害	-5822
追击	-5823
适宜	-5824
造谣	-5825
道德	-5826
金融	-5827
闽西	-5828
防共	-5829
预备	-5830
骂人	-5831
▁第七	-5832
一下子	-5833
一个月	-5834
一件事	-5835
一八五	-5836
一开始	-5837
不实行	-5838
不得了	-5839
不论在	-5840
为主体	-5841
为单位	-5842
举行的	-5843
之必要	-5844
也应当	-5845
也还是	-5846
了不起	-5847
但是它	-5848
使人民	-5849
使革命	-5850
依然是	-5851
傅作义	-5852
农产品	-5853
决议案	-5854
出身的	-5855
分之二	-5856
分离的	-5857
分配给	-5858
利益和	-5859
别人的	-5860
前毖后	-5861
包括了	-5862
区党委	-5863
压迫的	-5864
参议会	-5865
召集的	-5866
可以不	-5867
可以说	-5868
司令员	-5869
各地方	-5870
同日本	-5871
向人民	-5872
和军事	-5873
和过去	-5874
和进攻	-5875
在中央	-5876
在农会	-5877
在各种	-5878
在国内	-5879
在现时	-5880
在群众	-5881
城市中	-5882
大后方	-5883
如果是	-5884
实现的	-5885
容易的	-5886
就不要	-5887
就是从	-5888
工作队	-5889
工商户	-5890
希望的	-5891
干部中	-5892
总任务	-5893
总动员	-5894
我希望	-5895
所包围	-5896
打下去	-5897
打退了	-5898
把这些	-5899
把革命	-5900
抽象的	-5901
拿破仑	-5902
接近于	-5903
是这个	-5904
最基本	-5905
有成绩	-5906
有这么	-5907
根据的	-5908
次大会	-5909
歼灭了	-5910
没有人	-5911
洋八股	-5912
消极的	-5913
消耗战	-5914
灵活地	-5915
环境中	-5916
的人口	-5917
的农业	-5918
的建议	-5919
的文章	-5920
的表现	-5921
的调查	-5922
私有制	-5923
第二步	-5924
精神上	-5925
而不要	-5926
而这种	-5927
说服力	-5928
说的是	-5929
起草的	-5930
转移到	-5931
这又是	-5932
这是不	-5933
适用于	-5934
配合作	-5935
防御的	-5936
青年人	-5937
领导和	-5938
高度的	-5939
▁这就是	-5940
七月七日	-5941
三大纪律	-5942
不同意见	-5943
个体经济	-5944
也是一样	-5945
争取和平	-5946
互相联结	-5947
代表人物	-5948
任何别的	-5949
伟大斗争	-5950
假如没有	-5951
党的路线	-5952
全国青年	-5953
六亿人口	-5954
具体实践	-5955
内部矛盾	-5956
决不可以	-5957
办合作社	-5958
加以分析	-5959
劳动英雄	-5960
单纯军事	-5961
发展成为	-5962
各个击破	-5963
各界人民	-5964
各项工作	-5965
同国民党	-5966
和人民的	-5967
和他们的	-5968
和半封建	-5969
和发展的	-5970
和斯大林	-5971
团结中农	-5972
国防政府	-5973
在军事上	-5974
在历史上	-5975
在斗争中	-5976
在这方面	-5977
大不相同	-5978
大城市和	-5979
如果不是	-5980
实行起来	-5981
对于那些	-5982
巩固起来	-5983
惩前毖后	-5984
意识形态	-5985
我们今天	-5986
我们反对	-5987
所以我们	-5988
扶助农工	-5989
抗日军队	-5990
拥政爱民	-5991
政治影响	-5992
文艺作品	-5993
日本战犯	-5994
是不好的	-5995
根据地内	-5996
武汉失守	-5997
比较起来	-5998
民主力量	-5999
治病救人	-6000
湖南省委	-6001
牛鬼蛇神	-6002
独裁统治	-6003
突然事变	-6004
第三阶段	-6005
统治集团	-6006
自以为是	-6007
被蒋介石	-6008
这一点上	-6009
这个战争	-6010
这个矛盾	-6011
这种思想	-6012
这篇文章	-6013
长期战争	-6014
一九二二年	-6015
加入合作社	-6016
占三分之一	-6017
反帝国主义	-6018
在帝国主义	-6019
大汉族主义	-6020
建立起来的	-6021
投降主义者	-6022
敌人的进攻	-6023
教条主义者	-6024
斯大林选集	-6025
是资产阶级	-6026
毛泽东主席	-6027
法西斯主义	-6028
的工作人员	-6029
的政治路线	-6030
知识分子和	-6031
解决问题的	-6032
这个革命的	-6033
这是不对的	-6034
重要的问题	-6035
反帝反封建的	-6036
在一九四六年	-6037
帝国主义列强	-6038
民族革命战争	-6039
的方法去解决	-6040
至一九三四年	-6041
集中优势兵力	-6042
一九三五年一月	-6043
一九四五年八月	-6044
国民党一党专政	-6045
帝国主义国家的	-6046
抗日统一战线的	-6047
社会主义性质的	-6048
中华人民共和国的	-6049
国民党反动政府的	-6050
在抗日时期的任务	-6051
驱逐日本帝国主义	-6052
第六次全国代表大会	-6053
)(	-6054
:‘	-6055
”、	-6056
▁九	-6057
一则	-6058
一到	-6059
一场	-6060
一旦	-6061
一谈	-6062
一边	-6063
七七	-6064
七百	-6065
三人	-6066
不作	-6067
不待	-6068
业务	-6069
丢掉	-6070
中段	-6071
乃器	-6072
之不	-6073
之分	-6074
之地	-6075
之役	-6076
之日	-6077
之曰	-6078
九个	-6079
九百	-6080
也很	-6081
二次	-6082
于敌	-6083
五项	-6084
人材	-6085
仍旧	-6086
他所	-6087
以不	-6088
优待	-6089
传单	-6090
何等	-6091
例外	-6092
健康	-6093
充足	-6094
党部	-6095
冈乡	-6096
再来	-6097
写作	-6098
冷水	-6099
减弱	-6100
则应	-6101
利害	-6102
北部	-6103
半个	-6104
合营	-6105
吓倒	-6106
听了	-6107
听说	-6108
和团	-6109
回来	-6110
国会	-6111
国难	-6112
圈子	-6113
在座	-6114
地步	-6115
地的	-6116
地租	-6117
基于	-6118
外援	-6119
大恶	-6120
失掉	-6121
夸大	-6122
好比	-6123
如有	-6124
学风	-6125
完了	-6126
完备	-6127
官吏	-6128
害了	-6129
将领	-6130
小型	-6131
小组	-6132
就来	-6133
就行	-6134
巨大	-6135
市镇	-6136
常识	-6137
干了	-6138
年人	-6139
序言	-6140
弱小	-6141
弹药	-6142
当了	-6143
得以	-6144
急躁	-6145
急风	-6146
慢慢	-6147
成千	-6148
战法	-6149
战败	-6150
才溪	-6151
打下	-6152
打通	-6153
折点	-6154
招致	-6155
按其	-6156
挣扎	-6157
撕毁	-6158
收获	-6159
收集	-6160
文明	-6161
斯特	-6162
无所	-6163
无罪	-6164
无限	-6165
日子	-6166
日用	-6167
时刻	-6168
明天	-6169
晋南	-6170
朝的	-6171
期内	-6172
杜聿	-6173
杜鲁	-6174
条文	-6175
杭州	-6176
棍子	-6177
正当	-6178
毕业	-6179
民间	-6180
水准	-6181
求和	-6182
河防	-6183
流氓	-6184
浓厚	-6185
渡江	-6186
炮兵	-6187
热忱	-6188
环节	-6189
用于	-6190
用心	-6191
痛恨	-6192
空想	-6193
章程	-6194
等省	-6195
筹备	-6196
简明	-6197
算起	-6198
系列	-6199
练兵	-6200
经费	-6201
绥靖	-6202
罢课	-6203
罪状	-6204
老子	-6205
老爷	-6206
而其	-6207
职员	-6208
联络	-6209
苏南	-6210
薄弱	-6211
虚心	-6212
要杀	-6213
见解	-6214
论文	-6215
论点	-6216
该军	-6217
谣言	-6218
费用	-6219
辨别	-6220
这几	-6221
这和	-6222
进剿	-6223
远的	-6224
连同	-6225
郑州	-6226
郑重	-6227
针锋	-6228
陇东	-6229
随便	-6230
预算	-6231
高利	-6232
高等	-6233
麻烦	-6234
鼓舞	-6235
▁这些	-6236
一个大	-6237
一个省	-6238
一百年	-6239
不喜欢	-6240
不容易	-6241
不得的	-6242
不相信	-6243
严格地	-6244
也不会	-6245
也已经	-6246
也都是	-6247
二百万	-6248
他们同	-6249
他们将	-6250
他没有	-6251
以利于	-6252
以外的	-6253
以平等	-6254
你们是	-6255
使人们	-6256
使农民	-6257
做生意	-6258
全面地	-6259
具备了	-6260
内容是	-6261
分散的	-6262
南京的	-6263
原来是	-6264
反对了	-6265
和个别	-6266
和华北	-6267
和客观	-6268
和必须	-6269
和改造	-6270
和民族	-6271
和汉奸	-6272
和美国	-6273
在军队	-6274
在北京	-6275
在北平	-6276
在山东	-6277
在开始	-6278
在新的	-6279
在民族	-6280
在江西	-6281
在重庆	-6282
地估计	-6283
地位的	-6284
大恶极	-6285
套办法	-6286
妥协的	-6287
学习的	-6288
完全地	-6289
实践的	-6290
宣传部	-6291
富农和	-6292
左右的	-6293
已不是	-6294
开展了	-6295
很快地	-6296
得多了	-6297
得来的	-6298
总方针	-6299
意义上	-6300
我相信	-6301
战胜了	-6302
指当时	-6303
接受了	-6304
收到了	-6305
政策是	-6306
敌人和	-6307
敌强我	-6308
方针是	-6309
无所谓	-6310
无政府	-6311
是十分	-6312
是反对	-6313
是应当	-6314
是所谓	-6315
有一点	-6316
有决定	-6317
有很多	-6318
服从于	-6319
杜聿明	-6320
杜鲁门	-6321
构成的	-6322
枪杆子	-6323
根本的	-6324
残酷地	-6325
汉奸和	-6326
游击性	-6327
的主张	-6328
的势力	-6329
的大小	-6330
的头脑	-6331
的存在	-6332
的援助	-6333
的最后	-6334
的第一	-6335
的责任	-6336
的过程	-6337
省政府	-6338
章乃器	-6339
第二是	-6340
给敌以	-6341
统一论	-6342
被打败	-6343
要经过	-6344
规律性	-6345
计划的	-6346
认为是	-6347
赞成的	-6348
跟我们	-6349
转折点	-6350
较大的	-6351
过渡到	-6352
运动是	-6353
这一类	-6354
进攻和	-6355
遭到了	-6356
长期性	-6357
▁我们要	-6358
一个地方	-6359
一方面是	-6360
三个阶段	-6361
不是别的	-6362
个旅左右	-6363
中央军委	-6364
主义倾向	-6365
也就可以	-6366
二十世纪	-6367
互相排斥	-6368
互相监督	-6369
人民解放	-6370
侵略战争	-6371
全中国的	-6372
农业发展	-6373
到国民党	-6374
前面已经	-6375
剥削制度	-6376
历史时期	-6377
反党联盟	-6378
反对一切	-6379
反对我们	-6380
反面教员	-6381
同年十月	-6382
和无党派	-6383
因为我们	-6384
因为这种	-6385
国民革命	-6386
在现阶段	-6387
增加生产	-6388
外交关系	-6389
大家知道	-6390
宣传工作	-6391
对共产党	-6392
就是为了	-6393
就是我们	-6394
就是这种	-6395
工作方面	-6396
应该采取	-6397
强迫他们	-6398
彻底实现	-6399
思想斗争	-6400
急风暴雨	-6401
我们还要	-6402
扩大会议	-6403
收复失地	-6404
政治斗争	-6405
新中国的	-6406
新闻记者	-6407
时局好转	-6408
是很大的	-6409
是持久战	-6410
是这样的	-6411
最广大的	-6412
正确处理	-6413
正规军的	-6414
民族主义	-6415
永久和平	-6416
没有任何	-6417
法西斯的	-6418
物质基础	-6419
的任务是	-6420
的反动派	-6421
第三部分	-6422
等领导的	-6423
红军主力	-6424
罪大恶极	-6425
至十一月	-6426
西北战场	-6427
辽沈战役	-6428
这个条件	-6429
这些敌人	-6430
这些特点	-6431
这是由于	-6432
这种现象	-6433
进步分子	-6434
逃跑主义	-6435
都是为了	-6436
领导骨干	-6437
一九一七年	-6438
一九一九年	-6439
一八四〇年	-6440
东北野战军	-6441
中国之命运	-6442
中国是一个	-6443
中国的历史	-6444
全国委员会	-6445
劳动人民的	-6446
反革命势力	-6447
土地法大纲	-6448
必要的条件	-6449
我们的政策	-6450
我们的敌人	-6451
执行委员会	-6452
整编委员会	-6453
最后胜利的	-6454
现在还没有	-6455
的领导机关	-6456
中国人民解放	-6457
于一九四七年	-6458
互不侵犯条约	-6459
人民代表大会	-6460
各阶级的分析	-6461
团结全国人民	-6462
在这种情形下	-6463
帝国主义战争	-6464
异党活动办法	-6465
无产阶级领导	-6466
百分之九十的	-6467
的反革命分子	-6468
矛盾的特殊性	-6469
见本书第二卷	-6470
马克思恩格斯	-6471
▁见本书第二卷	-6472
一九三八年十月	-6473
反对帝国主义的	-6474
布尔什维克化的	-6475
新民主主义的政治	-6476
中华人民共和国成立	-6477
小资产阶级知识分子	-6478
中国共产党在抗日时期的任务	-6479
一九二四年至一九二七年的革命	-6480
▁十	-6481
一团	-6482
一度	-6483
一战	-6484
一番	-6485
七万	-6486
三八	-6487
三点	-6488
上来	-6489
不再	-6490
不来	-6491
不见	-6492
与否	-6493
东部	-6494
两军	-6495
严密	-6496
也被	-6497
了呢	-6498
五万	-6499
人是	-6500
他又	-6501
休养	-6502
会计	-6503
伯承	-6504
作的	-6505
保留	-6506
信用	-6507
元旦	-6508
公营	-6509
公路	-6510
共计	-6511
内地	-6512
内有	-6513
再则	-6514
再加	-6515
再去	-6516
出口	-6517
分批	-6518
则在	-6519
初级	-6520
前头	-6521
前年	-6522
动向	-6523
化了	-6524
危急	-6525
去找	-6526
去的	-6527
县长	-6528
又如	-6529
各点	-6530
各自	-6531
同它	-6532
君主	-6533
和三	-6534
和被	-6535
善意	-6536
四千	-6537
国情	-6538
在不	-6539
地盘	-6540
均应	-6541
大局	-6542
失了	-6543
头子	-6544
好似	-6545
妥当	-6546
嫡系	-6547
将会	-6548
尚能	-6549
就算	-6550
就被	-6551
岂非	-6552
工程	-6553
年内	-6554
并把	-6555
庐山	-6556
应是	-6557
座谈	-6558
庸俗	-6559
开幕	-6560
征收	-6561
急于	-6562
恩伯	-6563
愚公	-6564
手中	-6565
才算	-6566
打援	-6567
托派	-6568
把持	-6569
拥军	-6570
拿出	-6571
拿着	-6572
指使	-6573
接管	-6574
推移	-6575
搞了	-6576
政纲	-6577
敌的	-6578
料到	-6579
新军	-6580
无不	-6581
无理	-6582
是做	-6583
更好	-6584
有节	-6585
末年	-6586
本本	-6587
杀死	-6588
杨虎	-6589
欢喜	-6590
段祺	-6591
每次	-6592
气候	-6593
求恩	-6594
汉口	-6595
江山	-6596
法的	-6597
法统	-6598
波茨	-6599
活跃	-6600
流行	-6601
浏阳	-6602
海陆	-6603
满洲	-6604
牵涉	-6605
特洛	-6606
用处	-6607
益的	-6608
着手	-6609
知事	-6610
祝同	-6611
积蓄	-6612
穷的	-6613
第十	-6614
管制	-6615
紧紧	-6616
约束	-6617
维新	-6618
缴枪	-6619
美蒋	-6620
而只	-6621
而对	-6622
腐化	-6623
自发	-6624
自满	-6625
被人	-6626
要道	-6627
见了	-6628
见的	-6629
让他	-6630
让它	-6631
论断	-6632
证实	-6633
该敌	-6634
请示	-6635
请问	-6636
谁呢	-6637
财富	-6638
贺龙	-6639
走路	-6640
达成	-6641
这支	-6642
逐年	-6643
通电	-6644
闹得	-6645
项目	-6646
顾虑	-6647
题目	-6648
首长	-6649
高的	-6650
鼓动	-6651
一万万	-6652
一二九	-6653
三省的	-6654
上所作	-6655
不到的	-6656
不抵抗	-6657
不符合	-6658
不能说	-6659
不适合	-6660
与和平	-6661
中国将	-6662
主动性	-6663
主和派	-6664
也必须	-6665
也是要	-6666
也还有	-6667
五千万	-6668
亡国奴	-6669
人员的	-6670
今日之	-6671
以一个	-6672
以拯救	-6673
以苏联	-6674
但是不	-6675
例如在	-6676
促进会	-6677
保证了	-6678
停止了	-6679
克服的	-6680
党政军	-6681
全国性	-6682
公开地	-6683
其中的	-6684
其原因	-6685
农业的	-6686
准备了	-6687
几个人	-6688
刘伯承	-6689
到中国	-6690
到来了	-6691
包含了	-6692
区域内	-6693
又可以	-6694
及一切	-6695
及时地	-6696
取消了	-6697
受到了	-6698
变化了	-6699
可以在	-6700
可以把	-6701
合理的	-6702
同一切	-6703
后来又	-6704
向一切	-6705
和历史	-6706
和城市	-6707
和干部	-6708
和思想	-6709
和接收	-6710
和提高	-6711
和某些	-6712
和错误	-6713
哪一个	-6714
四军的	-6715
四十条	-6716
在军事	-6717
在去年	-6718
在当时	-6719
在某种	-6720
在长期	-6721
在陕北	-6722
处死刑	-6723
外部的	-6724
大概是	-6725
太行山	-6726
孔夫子	-6727
孤立了	-6728
实力派	-6729
对美国	-6730
就应该	-6731
已开始	-6732
干什么	-6733
当时任	-6734
很长的	-6735
德国的	-6736
志愿军	-6737
情报局	-6738
我们还	-6739
改名为	-6740
政治家	-6741
数百万	-6742
是为着	-6743
是可能	-6744
是革命	-6745
普通的	-6746
有问题	-6747
本来是	-6748
杨虎城	-6749
正规战	-6750
武装的	-6751
歼灭和	-6752
段祺瑞	-6753
民主和	-6754
汤恩伯	-6755
波茨坦	-6756
注意力	-6757
消灭之	-6758
理由的	-6759
白求恩	-6760
的严重	-6761
的党内	-6762
的名义	-6763
的战斗	-6764
的方向	-6765
的积极	-6766
盲目地	-6767
相反地	-6768
相同的	-6769
相当的	-6770
相比较	-6771
研究和	-6772
破坏的	-6773
确实的	-6774
第一位	-6775
第一是	-6776
第二位	-6777
经济学	-6778
经济是	-6779
统一和	-6780
继续地	-6781
而是要	-6782
能动性	-6783
自卫军	-6784
自觉地	-6785
至六月	-6786
著名的	-6787
行动上	-6788
计算到	-6789
订立了	-6790
认真的	-6791
记者的	-6792
许多的	-6793
说什么	-6794
说我们	-6795
说过了	-6796
起变化	-6797
这几个	-6798
迫切地	-6799
通过的	-6800
错误和	-6801
长时间	-6802
问题呢	-6803
限度的	-6804
青年们	-6805
革命性	-6806
顾祝同	-6807
骗人的	-6808
高级社	-6809
一切困难	-6810
三分之二	-6811
不但没有	-6812
世界上的	-6813
世界和平	-6814
争取他们	-6815
争取群众	-6816
亡国论者	-6817
交通警察	-6818
人民武装	-6819
人民痛苦	-6820
人的认识	-6821
从根本上	-6822
他们不是	-6823
但是如果	-6824
使我们的	-6825
保卫祖国	-6826
修正主义	-6827
党内党外	-6828
公私合营	-6829
军事政治	-6830
军队中的	-6831
副总司令	-6832
动员群众	-6833
动摇分子	-6834
劳动生产	-6835
历史特点	-6836
反动军队	-6837
反对投降	-6838
发动民众	-6839
只有这样	-6840
可能发生	-6841
司令长官	-6842
各国人民	-6843
各根据地	-6844
同农民的	-6845
和殖民地	-6846
因为它是	-6847
国家政权	-6848
在战争的	-6849
在自己的	-6850
坚决执行	-6851
密切联系	-6852
对于人民	-6853
对外贸易	-6854
就是这个	-6855
已经开始	-6856
建立政权	-6857
彻底消灭	-6858
必须懂得	-6859
怎么办呢	-6860
怎么样呢	-6861
我们主张	-6862
我们就会	-6863
战争时间	-6864
把他们的	-6865
投机分子	-6866
政府方面	-6867
整军运动	-6868
是存在的	-6869
是蒋介石	-6870
最主要的	-6871
最低纲领	-6872
有广大的	-6873
有生力量	-6874
有的同志	-6875
极端民主	-6876
民族利益	-6877
民族敌人	-6878
民生主义	-6879
游击主义	-6880
生活资料	-6881
留下来的	-6882
的东西了	-6883
统筹兼顾	-6884
继续进行	-6885
自己动手	-6886
自然科学	-6887
自由权利	-6888
蒋介石和	-6889
解放日报	-6890
还是没有	-6891
这个军队	-6892
这个宣言	-6893
这个纲领	-6894
这些材料	-6895
这些阶级	-6896
这是什么	-6897
集中指挥	-6898
革命理论	-6899
领导同志	-6900
黄河以北	-6901
一个伟大的	-6902
中央政治局	-6903
丰富的经验	-6904
主义的错误	-6905
主观主义和	-6906
他们自己的	-6907
但是我们的	-6908
共产党人的	-6909
共产党领导	-6910
半无产阶级	-6911
反共反人民	-6912
反对蒋介石	-6913
取得了胜利	-6914
合作化运动	-6915
在共产国际	-6916
富裕中农的	-6917
对于革命的	-6918
少数人闹事	-6919
少数民族的	-6920
工作的同志	-6921
建设新中国	-6922
教条主义和	-6923
有许多同志	-6924
机会主义者	-6925
极其重要的	-6926
正确地处理	-6927
武装斗争的	-6928
的政治工作	-6929
的革命力量	-6930
的领导之下	-6931
真三民主义	-6932
红军第四军	-6933
脱离群众的	-6934
解决的问题	-6935
记者的谈话	-6936
还没有完全	-6937
集体所有制	-6938
一九二七年至	-6939
人民民主国家	-6940
会议上的讲话	-6941
农业发展纲要	-6942
反共反人民的	-6943
发展农业生产	-6944
发展进步势力	-6945
和中国革命的	-6946
孙中山先生的	-6947
实行减租减息	-6948
实行土地改革	-6949
少数民族地区	-6950
抗日战争爆发	-6951
没收地主土地	-6952
第一次大革命	-6953
见本书第三卷	-6954
贫农和下中农	-6955
镇压反革命的	-6956
参见本书第一卷	-6957
在国民党统治区	-6958
帝国主义的走狗	-6959
晋冀鲁豫野战军	-6960
一九三九年十二月	-6961
国民党十一中全会	-6962
土地革命战争时期	-6963
城市小资产阶级和	-6964
形势和我们的任务	-6965
战胜日本帝国主义	-6966
新民主主义的文化	-6967
新的政治协商会议	-6968
大地主大资产阶级的	-6969
中国社会各阶级的分析	-6970
▁这是毛泽东为中共中央	-6971
土地改革工作和整党工作	-6972
资本主义工商业的社会主义改造	-6973
▁论	-6974
一处	-6975
一心	-6976
一线	-6977
下层	-6978
不堪	-6979
不惜	-6980
不想	-6981
不成	-6982
不算	-6983
东欧	-6984
两千	-6985
两级	-6986
严正	-6987
丰收	-6988
举动	-6989
之路	-6990
了去	-6991
交代	-6992
享受	-6993
以待	-6994
以期	-6995
众多	-6996
但不	-6997
作怪	-6998
你不	-6999
使党	-7000
使它	-7001
保甲	-7002
偶然	-7003
公平	-7004
冲昏	-7005
冲破	-7006
出入	-7007
刘峙	-7008
利的	-7009
前一	-7010
前期	-7011
副业	-7012
劝告	-7013
劳德	-7014
北宁	-7015
北线	-7016
协力	-7017
南口	-7018
历次	-7019
原理	-7020
参见	-7021
友党	-7022
反水	-7023
发明	-7024
受降	-7025
变到	-7026
变换	-7027
古人	-7028
叫作	-7029
台风	-7030
司法	-7031
吃了	-7032
吃亏	-7033
合于	-7034
合并	-7035
吓人	-7036
和他	-7037
四省	-7038
围绕	-7039
国大	-7040
土籍	-7041
土耳	-7042
在今	-7043
在各	-7044
塘沽	-7045
增援	-7046
壮年	-7047
大同	-7048
好坏	-7049
如能	-7050
委任	-7051
委托	-7052
孔子	-7053
学问	-7054
官员	-7055
宜川	-7056
实地	-7057
对华	-7058
将士	-7059
小学	-7060
居然	-7061
布匹	-7062
平山	-7063
开封	-7064
开赴	-7065
引诱	-7066
归根	-7067
当面	-7068
征兵	-7069
忽略	-7070
思索	-7071
恰恰	-7072
惟有	-7073
想到	-7074
我劝	-7075
战祸	-7076
投资	-7077
拿起	-7078
挨户	-7079
推选	-7080
揭发	-7081
搞得	-7082
摇摆	-7083
撤职	-7084
擅自	-7085
收起	-7086
攻占	-7087
政变	-7088
数十	-7089
方才	-7090
无情	-7091
时常	-7092
春秋	-7093
是把	-7094
更是	-7095
有几	-7096
有无	-7097
有理	-7098
未必	-7099
本领	-7100
条例	-7101
松懈	-7102
架子	-7103
格尔	-7104
桥梁	-7105
梦想	-7106
横直	-7107
欺负	-7108
气的	-7109
水口	-7110
游民	-7111
热心	-7112
照旧	-7113
特性	-7114
王国	-7115
理想	-7116
电台	-7117
略有	-7118
疯狂	-7119
白军	-7120
的旧	-7121
盛顿	-7122
相继	-7123
真的	-7124
睡觉	-7125
秋季	-7126
站到	-7127
第九	-7128
等候	-7129
等县	-7130
繁荣	-7131
纵容	-7132
纵横	-7133
绍禹	-7134
编为	-7135
缴获	-7136
缺少	-7137
罪行	-7138
而从	-7139
而将	-7140
而有	-7141
而言	-7142
膨胀	-7143
自有	-7144
致力	-7145
节制	-7146
藐视	-7147
虚伪	-7148
血战	-7149
被敌	-7150
要紧	-7151
警觉	-7152
讥笑	-7153
训政	-7154
讲究	-7155
论的	-7156
论语	-7157
设计	-7158
词句	-7159
请愿	-7160
课本	-7161
调解	-7162
豫北	-7163
贫民	-7164
赞扬	-7165
赣南	-7166
起码	-7167
轻敌	-7168
边境	-7169
达赖	-7170
连篇	-7171
送给	-7172
遵化	-7173
部下	-7174
错觉	-7175
附和	-7176
随之	-7177
高明	-7178
黄巢	-7179
);(	-7180
”——	-7181
”。“	-7182
▁一个	-7183
▁全国	-7184
▁因此	-7185
▁至于	-7186
一年内	-7187
一年的	-7188
一样地	-7189
七个旅	-7190
三个旅	-7191
三年内	-7192
不但有	-7193
不允许	-7194
不尊重	-7195
不是要	-7196
不正确	-7197
不能有	-7198
两省的	-7199
两面性	-7200
为目标	-7201
主力在	-7202
主动地	-7203
也同样	-7204
也就会	-7205
于中国	-7206
人类的	-7207
从去年	-7208
他们所	-7209
会不会	-7210
会议的	-7211
保存了	-7212
做得好	-7213
六个旅	-7214
其中有	-7215
再一次	-7216
军事家	-7217
军军长	-7218
农业国	-7219
决定于	-7220
削弱了	-7221
力量和	-7222
北伐军	-7223
半老区	-7224
原文是	-7225
参政员	-7226
参谋总	-7227
反共的	-7228
只了解	-7229
只看见	-7230
可以用	-7231
后来的	-7232
向群众	-7233
和对于	-7234
和政府	-7235
和正在	-7236
和研究	-7237
四个师	-7238
国防部	-7239
土耳其	-7240
在上述	-7241
在国际	-7242
在我党	-7243
在某些	-7244
在美国	-7245
多万人	-7246
大问题	-7247
妥当的	-7248
学校的	-7249
它们是	-7250
宝贵的	-7251
小生产	-7252
小部分	-7253
就知道	-7254
工业国	-7255
并建立	-7256
应有的	-7257
座谈会	-7258
建立和	-7259
形势下	-7260
必然的	-7261
总是不	-7262
总起来	-7263
或者说	-7264
战役中	-7265
所迷惑	-7266
所采取	-7267
才能有	-7268
找不到	-7269
把一个	-7270
改编为	-7271
施仁政	-7272
无产者	-7273
是一件	-7274
是经常	-7275
最后的	-7276
有几个	-7277
有力的	-7278
有办法	-7279
有某些	-7280
有比较	-7281
正当的	-7282
死硬派	-7283
民主派	-7284
河南省	-7285
派代表	-7286
湘鄂赣	-7287
热烈的	-7288
现在又	-7289
理论上	-7290
由政府	-7291
白劳德	-7292
的人员	-7293
的人性	-7294
的人数	-7295
的余地	-7296
的剥削	-7297
的区域	-7298
的建设	-7299
的手段	-7300
的指导	-7301
的材料	-7302
的破坏	-7303
的策略	-7304
的缘故	-7305
的规定	-7306
直接地	-7307
看到了	-7308
看起来	-7309
真正地	-7310
知道的	-7311
确实性	-7312
第六次	-7313
组成了	-7314
组织力	-7315
而写的	-7316
至九月	-7317
良好的	-7318
苏联和	-7319
行不通	-7320
被选为	-7321
讲一点	-7322
讲的是	-7323
起义军	-7324
转入了	-7325
较好的	-7326
过一次	-7327
还是不	-7328
这一回	-7329
这个人	-7330
这叫做	-7331
进攻时	-7332
避免的	-7333
那些人	-7334
陈绍禹	-7335
高利贷	-7336
黑格尔	-7337
一个时期	-7338
一切事物	-7339
一切努力	-7340
一小部分	-7341
一百多年	-7342
上的报告	-7343
不能达到	-7344
两个阶段	-7345
两方面的	-7346
中国境内	-7347
中国文化	-7348
中国方面	-7349
中心工作	-7350
中所说的	-7351
为此目的	-7352
主要方面	-7353
主要矛盾	-7354
也有许多	-7355
争取民主	-7356
事物发展	-7357
交通要道	-7358
人民负担	-7359
人的意见	-7360
从此以后	-7361
他们没有	-7362
他们都是	-7363
估计不足	-7364
使用兵力	-7365
依然存在	-7366
克服这种	-7367
党八股的	-7368
八月一日	-7369
公私兼顾	-7370
六中全会	-7371
共产党是	-7372
军总司令	-7373
准备对付	-7374
十九世纪	-7375
半自耕农	-7376
反对内战	-7377
反对民族	-7378
取得经验	-7379
右派分子	-7380
困难问题	-7381
国民党员	-7382
国民文化	-7383
在党内的	-7384
在合作化	-7385
在战争中	-7386
地主权力	-7387
基本上是	-7388
基本方针	-7389
学生运动	-7390
实现这个	-7391
实行宪政	-7392
对日作战	-7393
就有可能	-7394
已经取得	-7395
平均主义	-7396
平等条约	-7397
当然不是	-7398
当着我们	-7399
性的认识	-7400
情况之下	-7401
愿意接受	-7402
我们不能	-7403
我们中国	-7404
我们党在	-7405
我们正在	-7406
战胜日寇	-7407
才能解决	-7408
抗战到底	-7409
提出来了	-7410
提高一步	-7411
改造世界	-7412
政治制度	-7413
敌人方面	-7414
敌强我弱	-7415
整风运动	-7416
新解放区	-7417
是一定要	-7418
是非常之	-7419
有条件的	-7420
有这样的	-7421
权力机关	-7422
毛泽东的	-7423
民主运动	-7424
消灭封建	-7425
特务机关	-7426
生动活泼	-7427
百分之五	-7428
的政策是	-7429
的速决战	-7430
红军第四	-7431
组织上的	-7432
组织工作	-7433
经济政策	-7434
绝对优势	-7435
群众工作	-7436
群众斗争	-7437
自由职业	-7438
艰难困苦	-7439
获得解放	-7440
虽然如此	-7441
豪绅阶级	-7442
达成协议	-7443
这两方面	-7444
这个指示	-7445
这个错误	-7446
这些意见	-7447
这样一来	-7448
这样做了	-7449
这种错误	-7450
进行谈判	-7451
迷信武力	-7452
重要问题	-7453
错误的人	-7454
队伍中的	-7455
革命人民	-7456
革命形势	-7457
领导干部	-7458
一个阶级的	-7459
一九一八年	-7460
一九五八年	-7461
中国的革命	-7462
中间阶级的	-7463
也是不对的	-7464
人民为前提	-7465
人民的军队	-7466
全世界人民	-7467
全国人民所	-7468
共产主义和	-7469
决定的作用	-7470
到群众中去	-7471
到达和接收	-7472
反共高潮的	-7473
和人民政府	-7474
和国民党的	-7475
因为他们是	-7476
地主的土地	-7477
声明的声明	-7478
对于他们的	-7479
性质的革命	-7480
我们这些人	-7481
投降主义的	-7482
正规战争的	-7483
毫无疑义的	-7484
民主革命的	-7485
百分之六十	-7486
的人民民主	-7487
的大规模的	-7488
的情况之下	-7489
真正的民主	-7490
社会的性质	-7491
私营工商业	-7492
纠正的方法	-7493
统一战线中	-7494
蒋介石发动	-7495
被压迫民族	-7496
资产阶级所	-7497
过渡时期的	-7498
都是错误的	-7499
错误的同志	-7500
问题的决议	-7501
▁中国革命的	-7502
一切民主党派	-7503
争取中间势力	-7504
党的领导机关	-7505
全中国人民的	-7506
单纯军事观点	-7507
受歼灭性打击	-7508
各级领导机关	-7509
和陕甘宁边区	-7510
国民党的进攻	-7511
在一个时期内	-7512
在一定条件下	-7513
在这种情况下	-7514
布尔什维克化	-7515
放手发动群众	-7516
日本侵略者和	-7517
是完全错误的	-7518
歼灭国民党军	-7519
民主共和国的	-7520
被压迫民族的	-7521
解放区的军队	-7522
这个统一战线	-7523
▁我们共产党人	-7524
一九四九年二月	-7525
学习马克思主义	-7526
抗日游击战争的	-7527
资产阶级的矛盾	-7528
▁参见本书第一卷	-7529
一九三六年十二月	-7530
国内革命战争时期	-7531
帝国主义及其走狗	-7532
蒋介石声明的声明	-7533
限制异党活动办法	-7534
马克思恩格斯选集	-7535
农民和城市小资产阶级	-7536
目前形势和我们的任务	-7537
第一次全国代表大会宣言	-7538
资产阶级民主主义的革命	-7539
马克思列宁主义的理论和	-7540
)“	-7541
,(	-7542
?“	-7543
?》	-7544
▁祝	-7545
一六	-7546
一向	-7547
七八	-7548
三光	-7549
三四	-7550
三级	-7551
上卷	-7552
上天	-7553
不切	-7554
不挠	-7555
不清	-7556
不说	-7557
与之	-7558
两样	-7559
个性	-7560
中学	-7561
为辅	-7562
主流	-7563
义战	-7564
之势	-7565
之所	-7566
也能	-7567
事后	-7568
五卅	-7569
产值	-7570
亲身	-7571
人去	-7572
仅有	-7573
优秀	-7574
传达	-7575
伤兵	-7576
佩孚	-7577
促退	-7578
俘获	-7579
倒了	-7580
入了	-7581
全心	-7582
全线	-7583
八大	-7584
公告	-7585
公敌	-7586
公里	-7587
内阁	-7588
冯玉	-7589
凭借	-7590
出租	-7591
切断	-7592
刘邓	-7593
创刊	-7594
创建	-7595
制订	-7596
办得	-7597
动了	-7598
势必	-7599
十余	-7600
千里	-7601
升级	-7602
单单	-7603
单干	-7604
卫团	-7605
即以	-7606
压服	-7607
只知	-7608
可作	-7609
可怕	-7610
各样	-7611
名的	-7612
向下	-7613
向南	-7614
君子	-7615
和老	-7616
四平	-7617
回头	-7618
国人	-7619
地权	-7620
处处	-7621
多久	-7622
大乱	-7623
大半	-7624
大意	-7625
奸细	-7626
子文	-7627
存亡	-7628
学术	-7629
学的	-7630
学良	-7631
宁都	-7632
害的	-7633
家里	-7634
寄托	-7635
对了	-7636
对他	-7637
小国	-7638
少地	-7639
就像	-7640
就更	-7641
就闹	-7642
屈服	-7643
山海	-7644
差异	-7645
已由	-7646
带头	-7647
带领	-7648
常委	-7649
并未	-7650
应使	-7651
应请	-7652
开到	-7653
引为	-7654
引出	-7655
引向	-7656
当做	-7657
很高	-7658
德军	-7659
德勤	-7660
必胜	-7661
快些	-7662
怠工	-7663
总体	-7664
总数	-7665
成万	-7666
战于	-7667
所著	-7668
打胜	-7669
打过	-7670
扶植	-7671
批驳	-7672
抱着	-7673
抹杀	-7674
抽出	-7675
拿了	-7676
捷克	-7677
排除	-7678
接济	-7679
提纲	-7680
摊贩	-7681
摧毁	-7682
收回	-7683
收缩	-7684
放火	-7685
教会	-7686
整套	-7687
整整	-7688
整训	-7689
文教	-7690
文盲	-7691
斥责	-7692
新旧	-7693
无分	-7694
智慧	-7695
更高	-7696
最为	-7697
有钱	-7698
来打	-7699
标语	-7700
梭镖	-7701
比重	-7702
水浒	-7703
泰山	-7704
流域	-7705
消费	-7706
深重	-7707
源泉	-7708
满腔	-7709
特征	-7710
狂妄	-7711
现已	-7712
生物	-7713
生的	-7714
留守	-7715
的信	-7716
的或	-7717
省份	-7718
看花	-7719
确是	-7720
稍为	-7721
突出	-7722
等国	-7723
答应	-7724
结局	-7725
缴械	-7726
罚款	-7727
而私	-7728
胶济	-7729
苛捐	-7730
蔬菜	-7731
衣服	-7732
设备	-7733
谁也	-7734
调集	-7735
谭震	-7736
赋税	-7737
起着	-7738
越多	-7739
轻重	-7740
过于	-7741
过剩	-7742
这叫	-7743
这后	-7744
进化	-7745
迫近	-7746
配置	-7747
钻进	-7748
间谍	-7749
附录	-7750
陈诚	-7751
随即	-7752
预计	-7753
颇为	-7754
题为	-7755
风潮	-7756
首要	-7757
马尔	-7758
马日	-7759
驻华	-7760
驻防	-7761
鸡毛	-7762
黄埔	-7763
,——	-7764
▁不是	-7765
▁为着	-7766
▁二十	-7767
▁今天	-7768
▁我国	-7769
▁美国	-7770
▁这一	-7771
▁那末	-7772
一两个	-7773
一个地	-7774
一八六	-7775
一百万	-7776
上说来	-7777
下命令	-7778
不但不	-7779
不对呢	-7780
不注重	-7781
不要把	-7782
不解决	-7783
专门家	-7784
两重性	-7785
严格的	-7786
中关于	-7787
中国为	-7788
中央军	-7789
临时的	-7790
为书记	-7791
为了使	-7792
为目的	-7793
也不怕	-7794
也有了	-7795
也需要	-7796
书记和	-7797
了它的	-7798
事情就	-7799
二百四	-7800
于八月	-7801
五个月	-7802
五十万	-7803
五十年	-7804
仅仅是	-7805
他们想	-7806
代表会	-7807
伪宪法	-7808
伪政权	-7809
但不是	-7810
但同时	-7811
作战中	-7812
你们在	-7813
使我党	-7814
俘虏兵	-7815
做宣传	-7816
充满着	-7817
先进的	-7818
党团员	-7819
全心全	-7820
共歼敌	-7821
冯玉祥	-7822
准备的	-7823
几万人	-7824
到延安	-7825
到来的	-7826
前途的	-7827
剥削者	-7828
勉强地	-7829
原有的	-7830
去完成	-7831
参谋长	-7832
及地方	-7833
发展得	-7834
只限于	-7835
合法的	-7836
同中国	-7837
同盟会	-7838
同群众	-7839
向中央	-7840
向全国	-7841
吴佩孚	-7842
和农业	-7843
和可能	-7844
和技术	-7845
和现在	-7846
和训练	-7847
和贫农	-7848
国务院	-7849
在乡村	-7850
在他的	-7851
在任何	-7852
在你们	-7853
在全体	-7854
在内的	-7855
在南方	-7856
在广州	-7857
在敌后	-7858
在欧洲	-7859
在红军	-7860
在这时	-7861
在这篇	-7862
地执行	-7863
地研究	-7864
坚定的	-7865
基础的	-7866
大买办	-7867
大批地	-7868
大银行	-7869
失败后	-7870
头上的	-7871
实行者	-7872
寇汉奸	-7873
就可能	-7874
就已经	-7875
就能够	-7876
平民所	-7877
开始时	-7878
弄清楚	-7879
张学良	-7880
当然要	-7881
往往是	-7882
德意日	-7883
必需品	-7884
必须从	-7885
必须将	-7886
必须由	-7887
想办法	-7888
愿为其	-7889
或大部	-7890
打内战	-7891
扩大到	-7892
批评了	-7893
投降和	-7894
抗日本	-7895
拥军优	-7896
指导者	-7897
挨户团	-7898
提高到	-7899
搞清楚	-7900
改变的	-7901
政策上	-7902
教育和	-7903
文化上	-7904
新保安	-7905
方针的	-7906
无益的	-7907
日本和	-7908
时期是	-7909
明显地	-7910
明确的	-7911
星期内	-7912
是根本	-7913
更多地	-7914
有三个	-7915
有区别	-7916
有秩序	-7917
有组织	-7918
期间内	-7919
来解决	-7920
此应请	-7921
武器和	-7922
比较好	-7923
水浒传	-7924
没有的	-7925
深刻地	-7926
湖南省	-7927
热烈地	-7928
片面的	-7929
现代化	-7930
现在也	-7931
生动的	-7932
生活中	-7933
用得着	-7934
的一些	-7935
的一套	-7936
的事实	-7937
的共同	-7938
的制度	-7939
的压迫	-7940
的反对	-7941
的大国	-7942
的实际	-7943
的意思	-7944
的机关	-7945
的步骤	-7946
的纲领	-7947
的能力	-7948
的艺术	-7949
的起义	-7950
的进步	-7951
相当地	-7952
相适应	-7953
省市委	-7954
知识的	-7955
破产了	-7956
祖国的	-7957
离不开	-7958
称之为	-7959
第二章	-7960
第四个	-7961
组织和	-7962
经济力	-7963
维持其	-7964
老八股	-7965
老老实	-7966
而一切	-7967
而且有	-7968
而且还	-7969
而只是	-7970
背叛了	-7971
自由的	-7972
苏联是	-7973
薄弱的	-7974
表现其	-7975
要准备	-7976
计划或	-7977
设想的	-7978
译文是	-7979
调查会	-7980
谨慎地	-7981
谭震林	-7982
转到了	-7983
过去是	-7984
还必须	-7985
这两条	-7986
这些话	-7987
这即是	-7988
这方面	-7989
这样地	-7990
进步和	-7991
遭受了	-7992
那一次	-7993
那么多	-7994
那就不	-7995
那就要	-7996
都证明	-7997
长冈乡	-7998
革命派	-7999
韩德勤	-8000
领导人	-8001
高帽子	-8002
▁在我们	-8003
▁我们党	-8004
一件大事	-8005
一切工作	-8006
一切问题	-8007
一切革命	-8008
一月一日	-8009
万人左右	-8010
下级干部	-8011
不相同的	-8012
不相符合	-8013
不能解决	-8014
不要很久	-8015
不适当的	-8016
为中心的	-8017
主观指导	-8018
也是不能	-8019
买办性的	-8020
二月一日	-8021
互相斗争	-8022
五中全会	-8023
人民军队	-8024
人民革命	-8025
他们中的	-8026
他们也不	-8027
他们反对	-8028
任何外国	-8029
保守思想	-8030
党的工作	-8031
党的纪律	-8032
共产党内	-8033
共产党在	-8034
关系问题	-8035
军的命令	-8036
准备投降	-8037
判处死刑	-8038
制止内战	-8039
剥削阶级	-8040
加强领导	-8041
十月十日	-8042
卖国政府	-8043
历史阶段	-8044
参加革命	-8045
参谋总长	-8046
反动集团	-8047
发展经济	-8048
变中国为	-8049
和根据地	-8050
和经济力	-8051
因为只有	-8052
国内国际	-8053
国防会议	-8054
国际援助	-8055
在报纸上	-8056
在数量上	-8057
坚持下去	-8058
基本任务	-8059
外来干部	-8060
孤立起来	-8061
富农经济	-8062
对于这个	-8063
对于革命	-8064
就不得不	-8065
就产生了	-8066
工业化的	-8067
工业生产	-8068
工人运动	-8069
工作能力	-8070
差不多了	-8071
希望你们	-8072
帮助群众	-8073
平分土地	-8074
得到解放	-8075
思想体系	-8076
思想改造	-8077
恶霸分子	-8078
我们不要	-8079
我们也要	-8080
所得而私	-8081
手工业和	-8082
抗日阵线	-8083
提出所谓	-8084
政治思想	-8085
敌人汉奸	-8086
敌我双方	-8087
敌我矛盾	-8088
方法解决	-8089
是可能的	-8090
是毛泽东	-8091
是重要的	-8092
有些人说	-8093
有更大的	-8094
歼灭敌军	-8095
民主势力	-8096
民主同盟	-8097
民主阶级	-8098
民族战争	-8099
民族问题	-8100
民族革命	-8101
没有疑义	-8102
没有经验	-8103
活动分子	-8104
清朝政府	-8105
爱好和平	-8106
猖狂进攻	-8107
理性认识	-8108
理论水平	-8109
瓦解敌军	-8110
百分之一	-8111
的原则下	-8112
的蒋介石	-8113
的过程中	-8114
的领导权	-8115
第三次反	-8116
第二十九	-8117
策略问题	-8118
组织形式	-8119
统一起来	-8120
统治地位	-8121
统治时期	-8122
缺点错误	-8123
群众团体	-8124
而是因为	-8125
胜利之后	-8126
艾奇逊说	-8127
若干历史	-8128
要有一个	-8129
路线问题	-8130
还存在着	-8131
这个决议	-8132
这个斗争	-8133
这个时候	-8134
这是中国	-8135
这是我们	-8136
这次战争	-8137
这种地区	-8138
这种形势	-8139
退却终点	-8140
都是为着	-8141
野战军的	-8142
针锋相对	-8143
长时期内	-8144
长期合作	-8145
集中全力	-8146
集体领导	-8147
顽固势力	-8148
领导群众	-8149
马日事变	-8150
一天一天地	-8151
一定的条件	-8152
一月十七日	-8153
一月十四日	-8154
一般地说来	-8155
不可避免的	-8156
个体所有制	-8157
中原野战军	-8158
为达此目的	-8159
之间的斗争	-8160
也是错误的	-8161
事物的内部	-8162
人们的思想	-8163
人民内部的	-8164
人民的力量	-8165
今日之必需	-8166
他们的政治	-8167
内外反动派	-8168
农村人口的	-8169
农民群众的	-8170
劳动生产率	-8171
半殖民地的	-8172
占全国人口	-8173
压迫人民的	-8174
压迫和剥削	-8175
原来是一个	-8176
受帝国主义	-8177
和人民大众	-8178
和社会主义	-8179
唯物辩证法	-8180
在中国人民	-8181
在我们党内	-8182
在民主革命	-8183
密切地联系	-8184
对于中国的	-8185
干部和党员	-8186
形式主义的	-8187
必须坚决地	-8188
总有一天要	-8189
我们民族的	-8190
我们的事业	-8191
我们的革命	-8192
我们自己的	-8193
战争的规律	-8194
战略防御和	-8195
抗日的人民	-8196
无政府状态	-8197
正确的方针	-8198
此应请采纳	-8199
民主主义的	-8200
理论和实际	-8201
的代表人物	-8202
的共产党员	-8203
的国民党人	-8204
的帝国主义	-8205
的政治基础	-8206
的民主革命	-8207
群众斗争的	-8208
联合政府的	-8209
蒋介石匪帮	-8210
西北野战军	-8211
还有许多人	-8212
这是一方面	-8213
这是很好的	-8214
释放政治犯	-8215
错误的东西	-8216
领导和群众	-8217
中等资产阶级	-8218
作坚决的斗争	-8219
俄国十月革命	-8220
全国代表会议	-8221
军力和经济力	-8222
各党各派各界	-8223
国民党的军队	-8224
土地改革工作	-8225
实行三民主义	-8226
建立外交关系	-8227
建设社会主义	-8228
战线上的胜利	-8229
无产阶级政党	-8230
毛泽东同志在	-8231
民族资本主义	-8232
生产力的发展	-8233
的革命根据地	-8234
被人民解放军	-8235
资本主义道路	-8236
达到这个目的	-8237
进攻解放区的	-8238
进行和平谈判	-8239
集团军总司令	-8240
一九三一年九月	-8241
一九四六年六月	-8242
中国革命的特点	-8243
反对帝国主义和	-8244
少数人所得而私	-8245
帝国主义和中国	-8246
彻底实现而奋斗	-8247
民族资产阶级和	-8248
社会主义的革命	-8249
和其他小资产阶级	-8250
团结一切抗日力量	-8251
在第二次世界大战	-8252
我们的文艺工作者	-8253
此应请采纳实行者	-8254
游击战争的根据地	-8255
游击战争的领导者	-8256
▁这是毛泽东为延安	-8257
中国人民解放军总部	-8258
农业的社会主义改造	-8259
国民政府军事委员会	-8260
关于蒋介石声明的声明	-8261
愿为其彻底实现而奋斗	-8262
▁这是毛泽东同志为中共中央起草	-8263
CC	-8264
▁和	-8265
一亿	-8266
一家	-8267
一开	-8268
七个	-8269
七九	-8270
七大	-8271
七届	-8272
三三	-8273
三天	-8274
上下	-8275
上党	-8276
不下	-8277
不予	-8278
不做	-8279
不战	-8280
不把	-8281
不明	-8282
不止	-8283
不看	-8284
两师	-8285
中占	-8286
中和	-8287
中旬	-8288
中途	-8289
中部	-8290
临汾	-8291
之力	-8292
之线	-8293
乐观	-8294
九江	-8295
也只	-8296
乡下	-8297
乱杀	-8298
乱说	-8299
事做	-8300
事前	-8301
事务	-8302
事的	-8303
于一	-8304
于民	-8305
交界	-8306
亦须	-8307
亲爱	-8308
人多	-8309
仍是	-8310
仓卒	-8311
价值	-8312
佃农	-8313
低落	-8314
何况	-8315
依附	-8316
倒是	-8317
假定	-8318
假的	-8319
做过	-8320
傀儡	-8321
先念	-8322
克里	-8323
全县	-8324
公署	-8325
兰州	-8326
关联	-8327
写在	-8328
冬天	-8329
凡此	-8330
出枪	-8331
分会	-8332
分工	-8333
利润	-8334
别山	-8335
割断	-8336
功劳	-8337
助于	-8338
包办	-8339
半岛	-8340
卫立	-8341
即可	-8342
原始	-8343
又以	-8344
又叫	-8345
又把	-8346
又须	-8347
及至	-8348
变了	-8349
变法	-8350
叛乱	-8351
古今	-8352
只手	-8353
叫苦	-8354
史中	-8355
右的	-8356
各业	-8357
各区	-8358
名字	-8359
向东	-8360
向导	-8361
呼应	-8362
和中	-8363
和伪	-8364
和它	-8365
和工	-8366
哪些	-8367
商讨	-8368
四项	-8369
国事	-8370
国计	-8371
在他	-8372
均有	-8373
坚实	-8374
埋怨	-8375
增多	-8376
声势	-8377
复辟	-8378
多么	-8379
多半	-8380
大肆	-8381
大都	-8382
太大	-8383
失望	-8384
头皮	-8385
奋战	-8386
奋起	-8387
好心	-8388
存的	-8389
孙子	-8390
孙行	-8391
学了	-8392
学得	-8393
学派	-8394
安东	-8395
安心	-8396
完毕	-8397
定出	-8398
家属	-8399
家的	-8400
容忍	-8401
宽大	-8402
富于	-8403
寡助	-8404
对我	-8405
小了	-8406
尚无	-8407
就可	-8408
就应	-8409
尽的	-8410
局长	-8411
居于	-8412
居住	-8413
年头	-8414
并于	-8415
建党	-8416
开来	-8417
强奸	-8418
强敌	-8419
当此	-8420
待于	-8421
心里	-8422
志士	-8423
忠诚	-8424
快地	-8425
忽然	-8426
性是	-8427
总计	-8428
成本	-8429
我要	-8430
或是	-8431
或有	-8432
房屋	-8433
所占	-8434
所趋	-8435
扫地	-8436
承德	-8437
投入	-8438
拳头	-8439
指明	-8440
捉住	-8441
推迟	-8442
提供	-8443
搞到	-8444
摆脱	-8445
收支	-8446
故意	-8447
敌是	-8448
教程	-8449
数学	-8450
整社	-8451
文仪	-8452
文武	-8453
断定	-8454
旁观	-8455
日常	-8456
日程	-8457
春夏	-8458
是可	-8459
是旧	-8460
晓夫	-8461
暴力	-8462
曾在	-8463
有制	-8464
有用	-8465
未曾	-8466
本位	-8467
李弥	-8468
检验	-8469
歪曲	-8470
歪风	-8471
歼击	-8472
殷勤	-8473
每月	-8474
气了	-8475
江南	-8476
沿线	-8477
波浪	-8478
洗脸	-8479
浙赣	-8480
浮财	-8481
淳化	-8482
清泉	-8483
游泳	-8484
潼关	-8485
灵魂	-8486
照此	-8487
爱惜	-8488
犹豫	-8489
率部	-8490
现行	-8491
瑞金	-8492
生息	-8493
的中	-8494
的那	-8495
监狱	-8496
短处	-8497
石英	-8498
砍掉	-8499
碉堡	-8500
私利	-8501
秋冬	-8502
称赞	-8503
移到	-8504
空虚	-8505
章伯	-8506
竭力	-8507
简称	-8508
算作	-8509
管辖	-8510
类似	-8511
红旗	-8512
约占	-8513
约有	-8514
维护	-8515
绿江	-8516
缺粮	-8517
罗隆	-8518
罗霄	-8519
美英	-8520
者外	-8521
而战	-8522
而来	-8523
耕种	-8524
职权	-8525
背后	-8526
自尊	-8527
致使	-8528
良好	-8529
菏泽	-8530
营业	-8531
落在	-8532
薪水	-8533
藏军	-8534
被俘	-8535
被捕	-8536
被服	-8537
被杀	-8538
要作	-8539
要做	-8540
要到	-8541
要和	-8542
解剖	-8543
警戒	-8544
记住	-8545
记载	-8546
讲得	-8547
识字	-8548
说它	-8549
请求	-8550
诸点	-8551
谅解	-8552
责成	-8553
赫鲁	-8554
走的	-8555
较好	-8556
过低	-8557
过早	-8558
近来	-8559
这块	-8560
这对	-8561
进度	-8562
逆流	-8563
途径	-8564
逝世	-8565
都将	-8566
都说	-8567
鄂东	-8568
鉴别	-8569
间隙	-8570
隐藏	-8571
隔离	-8572
项英	-8573
预料	-8574
领域	-8575
首脑	-8576
骨气	-8577
高山	-8578
鼓吹	-8579
齐心	-8580
▁上面	-8581
▁列宁	-8582
▁双方	-8583
▁因为	-8584
▁红军	-8585
▁这样	-8586
一回事	-8587
七十五	-8588
七年内	-8589
三十年	-8590
下来的	-8591
不利的	-8592
不可缺	-8593
不完全	-8594
不是从	-8595
不是的	-8596
不看见	-8597
不能够	-8598
不能用	-8599
东三省	-8600
严重性	-8601
中一切	-8602
中农的	-8603
中国本	-8604
中已经	-8605
为一般	-8606
为原则	-8607
为国家	-8608
为实现	-8609
主动的	-8610
主观上	-8611
义和团	-8612
九十万	-8613
也是有	-8614
也正是	-8615
了我们	-8616
了敌人	-8617
争取的	-8618
二十九	-8619
于一月	-8620
五月间	-8621
从事于	-8622
他们从	-8623
他们和	-8624
他们有	-8625
代表了	-8626
以为了	-8627
会议是	-8628
估计和	-8629
但这是	-8630
你们也	-8631
例如说	-8632
依情况	-8633
侵略军	-8634
保守或	-8635
做一个	-8636
党内外	-8637
党支部	-8638
写的一	-8639
农会的	-8640
农民众	-8641
农经济	-8642
准备以	-8643
几年来	-8644
出现的	-8645
出路的	-8646
分别地	-8647
分析和	-8648
则必须	-8649
到之处	-8650
到那里	-8651
副主席	-8652
十九万	-8653
千万吨	-8654
单纯地	-8655
卫立煌	-8656
却没有	-8657
原则下	-8658
原则性	-8659
去工作	-8660
去指导	-8661
又团结	-8662
及其所	-8663
发出的	-8664
各部门	-8665
同敌人	-8666
名之曰	-8667
向你们	-8668
和争取	-8669
和保护	-8670
和全体	-8671
和压迫	-8672
和战役	-8673
和拥护	-8674
和敌后	-8675
和浪费	-8676
因为他	-8677
固定性	-8678
国外长	-8679
在反对	-8680
在各地	-8681
在地方	-8682
在最近	-8683
在生产	-8684
在第一	-8685
在经济	-8686
地球上	-8687
坚固的	-8688
大别山	-8689
宋子文	-8690
将继续	-8691
将自己	-8692
小册子	-8693
小团体	-8694
尤其要	-8695
就发生	-8696
就是把	-8697
就行了	-8698
届二次	-8699
工商界	-8700
已有了	-8701
引起的	-8702
形成的	-8703
得到的	-8704
必须和	-8705
悲观的	-8706
成年人	-8707
成绩的	-8708
我们又	-8709
我们应	-8710
我对于	-8711
或战斗	-8712
或被动	-8713
战争或	-8714
才可以	-8715
批判地	-8716
承认的	-8717
技术和	-8718
把工作	-8719
掌握了	-8720
掠夺的	-8721
支持的	-8722
政权是	-8723
敌人以	-8724
敌对的	-8725
文艺界	-8726
新事物	-8727
新制度	-8728
新政治	-8729
方面和	-8730
无把握	-8731
无纪律	-8732
时期和	-8733
明白的	-8734
是愿意	-8735
是战争	-8736
曲折的	-8737
有些则	-8738
有力量	-8739
有益于	-8740
有这样	-8741
未有的	-8742
本地人	-8743
李先念	-8744
来决定	-8745
来对付	-8746
来得及	-8747
构成了	-8748
武训传	-8749
牵涉到	-8750
特点是	-8751
独裁和	-8752
理解的	-8753
用民主	-8754
由防御	-8755
的一部	-8756
的三个	-8757
的例子	-8758
的关键	-8759
的几个	-8760
的前夜	-8761
的劳动	-8762
的打击	-8763
的政权	-8764
的数目	-8765
的数量	-8766
的新式	-8767
的朋友	-8768
的水平	-8769
的理由	-8770
的电报	-8771
的规律	-8772
的道理	-8773
的阴谋	-8774
看作是	-8775
看样子	-8776
看见了	-8777
真心实	-8778
石英号	-8779
破坏和	-8780
第一年	-8781
第三是	-8782
第十八	-8783
简单地	-8784
简直是	-8785
经验中	-8786
给中国	-8787
统一体	-8788
统帅部	-8789
罗隆基	-8790
考虑到	-8791
而反对	-8792
而应当	-8793
至七月	-8794
英勇地	-8795
英勇的	-8796
英法苏	-8797
英雄们	-8798
行政区	-8799
被人民	-8800
要善于	-8801
要我们	-8802
讨论和	-8803
训练班	-8804
说一顿	-8805
走过的	-8806
辅助的	-8807
边区的	-8808
还只有	-8809
还是在	-8810
这一种	-8811
这封信	-8812
这许多	-8813
这部分	-8814
这里有	-8815
进攻战	-8816
违反了	-8817
选举了	-8818
邓文仪	-8819
邱清泉	-8820
都已经	-8821
长时期	-8822
障碍物	-8823
集中营	-8824
青年和	-8825
靠不住	-8826
革命论	-8827
高兴的	-8828
鲁西南	-8829
鸭绿江	-8830
▁在这个	-8831
一个新的	-8832
一个问题	-8833
一年一年	-8834
一百七十	-8835
万万人民	-8836
三月一日	-8837
上的错误	-8838
不是什么	-8839
不这样做	-8840
两个前途	-8841
两条战线	-8842
两面政策	-8843
个人利益	-8844
中国内战	-8845
中国红军	-8846
中央分局	-8847
中日两国	-8848
中的一个	-8849
也有缺点	-8850
了蒋介石	-8851
了这一点	-8852
二十四年	-8853
互相联系	-8854
五四指示	-8855
人力物力	-8856
人民利益	-8857
人民反对	-8858
人民日报	-8859
什么问题	-8860
从事生产	-8861
他们已经	-8862
他们虽然	-8863
以毛泽东	-8864
伟大事业	-8865
但是还有	-8866
作风不纯	-8867
使国民党	-8868
依靠群众	-8869
保守主义	-8870
值得注意	-8871
停止进攻	-8872
先进分子	-8873
党的干部	-8874
全国胜利	-8875
八项注意	-8876
共同奋斗	-8877
关于时局	-8878
关于目前	-8879
其中包括	-8880
具体纲领	-8881
农业经济	-8882
分散主义	-8883
割据地区	-8884
力量对比	-8885
动员人民	-8886
动员起来	-8887
努力学习	-8888
势力范围	-8889
厉行节约	-8890
去年十月	-8891
参见列宁	-8892
又是一个	-8893
双十协定	-8894
反共政策	-8895
反击右派	-8896
叛变革命	-8897
古今中外	-8898
各种矛盾	-8899
同年九月	-8900
同年八月	-8901
同年六月	-8902
同时存在	-8903
向运动战	-8904
周年纪念	-8905
和合作社	-8906
和平条件	-8907
和运动战	-8908
唯心主义	-8909
唯心论和	-8910
四亿七千	-8911
四分之一	-8912
国计民生	-8913
在他们的	-8914
在每一个	-8915
在组织上	-8916
在经济上	-8917
在莫斯科	-8918
在这点上	-8919
增加工资	-8920
如果你们	-8921
妥协退让	-8922
官兵一致	-8923
客观条件	-8924
对于他们	-8925
对国民党	-8926
封建压迫	-8927
将是一个	-8928
就不会有	-8929
帮助农民	-8930
平江惨案	-8931
广播电台	-8932
应当指出	-8933
必须充分	-8934
必须提高	-8935
性的东西	-8936
总起来说	-8937
感性认识	-8938
成分不纯	-8939
我们历来	-8940
我们如果	-8941
我们就是	-8942
我们方面	-8943
我们的人	-8944
我们都要	-8945
我们面前	-8946
战线方面	-8947
战胜日本	-8948
所发生的	-8949
才能达到	-8950
打了败仗	-8951
抗日联军	-8952
抗日运动	-8953
拖延时间	-8954
拥军优抗	-8955
放下武器	-8956
政治动员	-8957
政治纲领	-8958
政治解决	-8959
敌寇汉奸	-8960
敌我形势	-8961
敌我界限	-8962
教育群众	-8963
整个形势	-8964
文化运动	-8965
斗争形式	-8966
新华日报	-8967
新四军的	-8968
日本侵华	-8969
日本军阀	-8970
日本政府	-8971
日本进攻	-8972
是不可能	-8973
是人民的	-8974
最后挣扎	-8975
有一些人	-8976
有利于我	-8977
朝鲜人民	-8978
检查工作	-8979
正确路线	-8980
正规部队	-8981
民主分子	-8982
民主生活	-8983
沙皇俄国	-8984
没有调查	-8985
流寇主义	-8986
海外华侨	-8987
游击兵团	-8988
百分之百	-8989
的代表者	-8990
的党组织	-8991
的思想和	-8992
相当大的	-8993
相持阶段	-8994
短时期内	-8995
破坏团结	-8996
社会实践	-8997
社会民主	-8998
积极因素	-8999
第一次反	-9000
简明教程	-9001
紫石英号	-9002
给了我们	-9003
罗霄山脉	-9004
群众性的	-9005
而发生的	-9006
艾奇逊们	-9007
表现形式	-9008
要求我们	-9009
解放事业	-9010
解放出来	-9011
言论行动	-9012
赫鲁晓夫	-9013
起来反对	-9014
转入反攻	-9015
轻视敌人	-9016
运动中的	-9017
这一阶段	-9018
这个东西	-9019
这个地方	-9020
这个工作	-9021
这个电报	-9022
这些工作	-9023
这些要求	-9024
这种说法	-9025
这里说的	-9026
迫切要求	-9027
遭到失败	-9028
那些地方	-9029
配合起来	-9030
采取消极	-9031
长期存在	-9032
闹独立性	-9033
阶级成分	-9034
难道还不	-9035
领土主权	-9036
领袖人物	-9037
骄傲起来	-9038
黄河以南	-9039
▁我们现在	-9040
▁这里是指	-9041
一万年以后	-9042
一九〇五年	-9043
一九一六年	-9044
一九二〇年	-9045
一九二三年	-9046
一切可能的	-9047
一切合作社	-9048
三大政策的	-9049
东方慕尼黑	-9050
中国反动派	-9051
中国现阶段	-9052
九月十六日	-9053
以工农联盟	-9054
但是在同时	-9055
保守或夺取	-9056
倾冒险主义	-9057
全国范围的	-9058
农村根据地	-9059
减租和生产	-9060
制度的改革	-9061
制裁反动派	-9062
反革命政变	-9063
变成了一个	-9064
团结的力量	-9065
国内战争的	-9066
土豪劣绅的	-9067
在中国革命	-9068
在什么地方	-9069
在这种时候	-9070
在革命战争	-9071
对立统一的	-9072
巩固和扩大	-9073
已经过去了	-9074
帮助蒋介石	-9075
平民所共有	-9076
延安的青年	-9077
很大的困难	-9078
成立民主的	-9079
我们就不能	-9080
打倒蒋介石	-9081
扩大和巩固	-9082
敌人的力量	-9083
敌人的战略	-9084
新的译文是	-9085
是不是可以	-9086
最后的胜利	-9087
朱德总司令	-9088
湘赣边界的	-9089
灭亡中国的	-9090
理论和实践	-9091
的合法地位	-9092
的运动形式	-9093
的错误观点	-9094
的领导地位	-9095
约占百分之	-9096
胜利而斗争	-9097
苏联的援助	-9098
解放区军民	-9099
这就是我们	-9100
这就是所谓	-9101
那是不行的	-9102
革命的理论	-9103
革命运动的	-9104
七次代表大会	-9105
关于若干历史	-9106
军阀主义倾向	-9107
农业和手工业	-9108
减轻人民痛苦	-9109
列宁和斯大林	-9110
到一九二七年	-9111
原来是一个省	-9112
反社会主义的	-9113
发展游击战争	-9114
各抗日根据地	-9115
各界民主人士	-9116
和历史唯物论	-9117
和政治组织力	-9118
成立联合政府	-9119
战役和战斗的	-9120
打倒帝国主义	-9121
每个共产党员	-9122
相结合的方法	-9123
经济建设工作	-9124
缩短战争时间	-9125
至一九四八年	-9126
苏维埃共和国	-9127
英美帝国主义	-9128
资产阶级专政	-9129
。......	-9130
一九三一年一月	-9131
一九三七年八月	-9132
一九四八年九月	-9133
南京国民党政府	-9134
反对日本侵略者	-9135
国民党统治区域	-9136
无产阶级专政的	-9137
百分之九十以上	-9138
的政治协商会议	-9139
第二个五年计划	-9140
走社会主义道路	-9141
世界革命的一部分	-9142
为一般平民所共有	-9143
以拯救人民为前提	-9144
原辖地区划归河北	-9145
届二次国民参政会	-9146
帝国主义世界大战	-9147
第七届中央委员会	-9148
帝国主义和封建势力	-9149
政治协商会议的决议	-9150
社会主义和共产主义	-9151
经济力和政治组织力	-9152
▁这是毛泽东为新华社	-9153
一九三一年九一八事变	-9154
动员一切力量争取抗战	-9155
统一战线中的独立自主	-9156
马克思列宁主义的理论	-9157
关于若干历史问题的决议	-9158
辩证唯物论和历史唯物论	-9159
封建主义和官僚资本主义的	-9160
本党愿为其彻底实现而奋斗	-9161
中国国民党第一次全国代表大会宣言	-9162
”)	-9163
▁再	-9164
一体	-9165
一刻	-9166
一把	-9167
一环	-9168
一阵	-9169
七分	-9170
万安	-9171
万里	-9172
三路	-9173
三项	-9174
上一	-9175
上帝	-9176
上街	-9177
上马	-9178
下述	-9179
不上	-9180
不外	-9181
不搞	-9182
不朽	-9183
不走	-9184
丑恶	-9185
两区	-9186
两月	-9187
两路	-9188
中南	-9189
中层	-9190
中断	-9191
举国	-9192
举起	-9193
之争	-9194
之事	-9195
之心	-9196
之流	-9197
之用	-9198
之道	-9199
乔治	-9200
也都	-9201
二〇	-9202
五亿	-9203
五次	-9204
仇视	-9205
今冬	-9206
仍应	-9207
仍须	-9208
他对	-9209
以免	-9210
任命	-9211
仿照	-9212
休战	-9213
伙食	-9214
会剿	-9215
会员	-9216
何地	-9217
佛教	-9218
作势	-9219
使他	-9220
供销	-9221
依其	-9222
依托	-9223
促使	-9224
倘若	-9225
假使	-9226
做起	-9227
元良	-9228
党无	-9229
党章	-9230
全无	-9231
全盘	-9232
八千	-9233
公主	-9234
公安	-9235
公粮	-9236
公约	-9237
关内	-9238
关的	-9239
兵役	-9240
再三	-9241
再打	-9242
写得	-9243
农作	-9244
农军	-9245
减产	-9246
凡有	-9247
凶恶	-9248
出一	-9249
出动	-9250
出马	-9251
分得	-9252
分田	-9253
分解	-9254
切记	-9255
列入	-9256
剿总	-9257
功绩	-9258
助长	-9259
势将	-9260
北段	-9261
半月	-9262
南斯	-9263
占据	-9264
占着	-9265
危亡	-9266
原谅	-9267
参与	-9268
又从	-9269
又会	-9270
反之	-9271
发行	-9272
发财	-9273
受着	-9274
变得	-9275
史上	-9276
各得	-9277
同他	-9278
向上	-9279
向后	-9280
吓唬	-9281
君劢	-9282
命脉	-9283
和旧	-9284
唐生	-9285
四县	-9286
四围	-9287
四国	-9288
四大	-9289
四害	-9290
四纵	-9291
固守	-9292
土崩	-9293
在它	-9294
在我	-9295
在敌	-9296
地向	-9297
均已	-9298
型关	-9299
墙铁	-9300
够了	-9301
大块	-9302
大型	-9303
大海	-9304
大炮	-9305
大社	-9306
好汉	-9307
子上	-9308
子里	-9309
孙悟	-9310
孟子	-9311
季米	-9312
学家	-9313
宁夏	-9314
它有	-9315
它要	-9316
定息	-9317
家族	-9318
富县	-9319
富田	-9320
寸土	-9321
小惠	-9322
尔后	-9323
就业	-9324
就叫	-9325
就愈	-9326
山头	-9327
工事	-9328
市民	-9329
师团	-9330
帝国	-9331
帮凶	-9332
平方	-9333
幼年	-9334
庆贺	-9335
应予	-9336
应战	-9337
开办	-9338
开罗	-9339
弄得	-9340
弄清	-9341
强渡	-9342
强硬	-9343
形容	-9344
很弱	-9345
德波	-9346
必亡	-9347
必经	-9348
怀抱	-9349
性急	-9350
情势	-9351
惨杀	-9352
想象	-9353
愚蠢	-9354
戊戌	-9355
戏剧	-9356
成份	-9357
成果	-9358
我方	-9359
或兼	-9360
战员	-9361
戡乱	-9362
才好	-9363
打人	-9364
打扫	-9365
打的	-9366
投诚	-9367
抛到	-9368
报上	-9369
拉丁	-9370
拉夫	-9371
振奋	-9372
推销	-9373
提了	-9374
提拔	-9375
揭破	-9376
摘要	-9377
撤出	-9378
支出	-9379
攻打	-9380
放矢	-9381
整齐	-9382
文告	-9383
文风	-9384
新学	-9385
新生	-9386
方便	-9387
无物	-9388
无用	-9389
无的	-9390
无睹	-9391
早上	-9392
明春	-9393
昨天	-9394
是会	-9395
是其	-9396
是对	-9397
是新	-9398
晋军	-9399
普选	-9400
更能	-9401
曾被	-9402
曾说	-9403
有余	-9404
有功	-9405
有权	-9406
未有	-9407
本府	-9408
杀伤	-9409
李自	-9410
来信	-9411
来讲	-9412
极权	-9413
枪毙	-9414
校长	-9415
桃子	-9416
此事	-9417
段落	-9418
比喻	-9419
治罪	-9420
洛川	-9421
活的	-9422
浪潮	-9423
深知	-9424
混战	-9425
清洗	-9426
渤海	-9427
游水	-9428
火力	-9429
灭掉	-9430
炮弹	-9431
烈烈	-9432
热潮	-9433
燎原	-9434
牵制	-9435
特区	-9436
特种	-9437
生育	-9438
生计	-9439
电子	-9440
畏惧	-9441
痞子	-9442
白话	-9443
百年	-9444
的前	-9445
的心	-9446
监禁	-9447
监视	-9448
直属	-9449
省长	-9450
看做	-9451
看看	-9452
真诚	-9453
眼光	-9454
破除	-9455
硬着	-9456
确有	-9457
私自	-9458
称号	-9459
稍微	-9460
空的	-9461
立夫	-9462
竞争	-9463
等在	-9464
等职	-9465
粟裕	-9466
精简	-9467
精锐	-9468
纠纷	-9469
纯粹	-9470
细致	-9471
给我	-9472
统购	-9473
老幼	-9474
老社	-9475
而代	-9476
而去	-9477
而外	-9478
而应	-9479
耕牛	-9480
耕田	-9481
聂荣	-9482
聚集	-9483
肆意	-9484
胜败	-9485
能否	-9486
能干	-9487
脱出	-9488
蒙蔽	-9489
装腔	-9490
要搞	-9491
要说	-9492
见面	-9493
规矩	-9494
记得	-9495
论理	-9496
讽刺	-9497
语汇	-9498
谁人	-9499
谈到	-9500
谈谈	-9501
财力	-9502
财物	-9503
责备	-9504
购买	-9505
起点	-9506
超越	-9507
越大	-9508
跟他	-9509
路易	-9510
轰炸	-9511
轰轰	-9512
过时	-9513
过问	-9514
还政	-9515
还未	-9516
这五	-9517
这回	-9518
远了	-9519
远见	-9520
连队	-9521
通常	-9522
通货	-9523
造就	-9524
遗产	-9525
都须	-9526
里说	-9527
铁扇	-9528
锄掉	-9529
长久	-9530
长城	-9531
闽粤	-9532
阎王	-9533
院长	-9534
除去	-9535
除开	-9536
除非	-9537
集结	-9538
韩复	-9539
须待	-9540
顾问	-9541
预防	-9542
领事	-9543
风浪	-9544
马德	-9545
驻在	-9546
高饶	-9547
鲁南	-9548
鲁莽	-9549
黄维	-9550
黎川	-9551
”),	-9552
▁三十	-9553
▁上述	-9554
▁其次	-9555
▁所以	-9556
▁根据	-9557
▁第九	-9558
▁第八	-9559
一个团	-9560
一书中	-9561
一时的	-9562
一类的	-9563
万个社	-9564
三三制	-9565
三十万	-9566
三十二	-9567
三百万	-9568
上海的	-9569
下来了	-9570
不一定	-9571
不发生	-9572
不可怕	-9573
不得已	-9574
不是讲	-9575
不能在	-9576
不足以	-9577
两件事	-9578
为一个	-9579
之统一	-9580
也不好	-9581
也反对	-9582
了一下	-9583
了一大	-9584
了自己	-9585
事情的	-9586
二十一	-9587
二者的	-9588
人们所	-9589
人们说	-9590
人口中	-9591
什么都	-9592
他们把	-9593
他们都	-9594
他就是	-9595
代替了	-9596
以建立	-9597
以至于	-9598
企业中	-9599
会议和	-9600
伪总统	-9601
似乎是	-9602
余万人	-9603
作战时	-9604
使敌人	-9605
使用于	-9606
使群众	-9607
俄国人	-9608
保安队	-9609
倾错误	-9610
做朋友	-9611
做演说	-9612
党代表	-9613
党无派	-9614
党派和	-9615
八十五	-9616
八股文	-9617
公里的	-9618
关系的	-9619
再加上	-9620
农业税	-9621
冲突的	-9622
切不可	-9623
划分为	-9624
到农村	-9625
到自己	-9626
前所未	-9627
加强了	-9628
劣势和	-9629
十七年	-9630
华盛顿	-9631
占领区	-9632
危险性	-9633
原则和	-9634
原则是	-9635
原子核	-9636
去观察	-9637
又一次	-9638
又斗争	-9639
又没有	-9640
反右倾	-9641
反对派	-9642
反映到	-9643
反过来	-9644
发生过	-9645
叫他们	-9646
召集了	-9647
可以的	-9648
各有其	-9649
各省市	-9650
各部分	-9651
合理地	-9652
同一个	-9653
同其他	-9654
同意的	-9655
同样地	-9656
同红军	-9657
同蒲路	-9658
否认了	-9659
和互相	-9660
和党的	-9661
和农村	-9662
和地主	-9663
和封建	-9664
和形势	-9665
和扩大	-9666
和抗日	-9667
和没有	-9668
和艺术	-9669
和西北	-9670
和财产	-9671
和防御	-9672
唐生智	-9673
因而使	-9674
在东方	-9675
在两个	-9676
在全党	-9677
在发展	-9678
在抗战	-9679
在整风	-9680
在没有	-9681
在贵州	-9682
地区和	-9683
基本地	-9684
基马尔	-9685
墙铁壁	-9686
增加到	-9687
增长了	-9688
多的人	-9689
大变动	-9690
大团结	-9691
失去了	-9692
失败和	-9693
奠定了	-9694
好办法	-9695
孙元良	-9696
孙悟空	-9697
孤立地	-9698
守法户	-9699
完结了	-9700
容易被	-9701
容许的	-9702
对任何	-9703
将他们	-9704
将成为	-9705
尖锐地	-9706
就等于	-9707
尾巴翘	-9708
工业的	-9709
工作做	-9710
已到了	-9711
带来了	-9712
平型关	-9713
并且还	-9714
并准备	-9715
应当在	-9716
应用于	-9717
建立过	-9718
建设的	-9719
开谈判	-9720
张君劢	-9721
归根结	-9722
当地的	-9723
当权的	-9724
很危险	-9725
得不对	-9726
德波林	-9727
必不可	-9728
必然是	-9729
忽视或	-9730
恰当的	-9731
感觉到	-9732
成立的	-9733
我们了	-9734
我们只	-9735
我们已	-9736
或其他	-9737
战斗中	-9738
战胜的	-9739
所写的	-9740
所在地	-9741
所有的	-9742
打击面	-9743
把一切	-9744
把它们	-9745
把敌人	-9746
抵抗力	-9747
持久的	-9748
指战员	-9749
推动了	-9750
改变到	-9751
政府中	-9752
教育界	-9753
斗争性	-9754
新形势	-9755
新经济	-9756
方向去	-9757
日用品	-9758
时局的	-9759
是人民	-9760
是决定	-9761
是否有	-9762
是好人	-9763
是整个	-9764
是永远	-9765
是直接	-9766
是经过	-9767
暗藏的	-9768
最后是	-9769
有一半	-9770
有一条	-9771
有任何	-9772
有力地	-9773
有好处	-9774
有必要	-9775
有效的	-9776
有经验	-9777
机关枪	-9778
机械论	-9779
权力的	-9780
条件不	-9781
来源于	-9782
某一个	-9783
正式的	-9784
正规性	-9785
残酷性	-9786
每一次	-9787
每个人	-9788
比如说	-9789
汽车路	-9790
泼冷水	-9791
清楚地	-9792
湖北省	-9793
灭亡的	-9794
特洛夫	-9795
狭隘的	-9796
现有的	-9797
甚至是	-9798
用全力	-9799
用这个	-9800
留守处	-9801
的中央	-9802
的人物	-9803
的人都	-9804
的党员	-9805
的关于	-9806
的反帝	-9807
的反映	-9808
的城市	-9809
的学生	-9810
的工业	-9811
的损失	-9812
的故事	-9813
的敌军	-9814
的文件	-9815
的方式	-9816
的日军	-9817
的民众	-9818
的讨论	-9819
的阵地	-9820
相配合	-9821
着重于	-9822
矛盾是	-9823
社会中	-9824
社会里	-9825
稳定的	-9826
章伯钧	-9827
第一章	-9828
第三节	-9829
第十一	-9830
等率领	-9831
筹备会	-9832
红四军	-9833
组织部	-9834
结束后	-9835
给农民	-9836
继续了	-9837
罗斯福	-9838
罪状是	-9839
而失败	-9840
而避免	-9841
聂荣臻	-9842
联合国	-9843
聪明的	-9844
自由和	-9845
艰苦的	-9846
英美法	-9847
被推翻	-9848
要改造	-9849
规定的	-9850
计划和	-9851
讲清楚	-9852
说一遍	-9853
谈判中	-9854
走上了	-9855
路线和	-9856
软弱性	-9857
还会有	-9858
还只是	-9859
还有些	-9860
这一项	-9861
这三种	-9862
这两类	-9863
这将是	-9864
违背了	-9865
那是很	-9866
那样地	-9867
都曾经	-9868
都要有	-9869
里头去	-9870
里头的	-9871
重点是	-9872
针对着	-9873
间接地	-9874
防御和	-9875
陈立夫	-9876
青年党	-9877
颁布了	-9878
▁毛泽东	-9879
▁第三点	-9880
▁第二点	-9881
一个阶级	-9882
一书摘要	-9883
一些错误	-9884
一切军事	-9885
一切可以	-9886
一切这些	-9887
一定可以	-9888
一点东西	-9889
一百九十	-9890
不能实现	-9891
不能采取	-9892
不负责任	-9893
专制主义	-9894
东三省的	-9895
两个纵队	-9896
两党合作	-9897
两条道路	-9898
中国人的	-9899
中国内政	-9900
中国工人	-9901
中国现时	-9902
中存在着	-9903
中的某些	-9904
中美两国	-9905
中间分子	-9906
临时中央	-9907
为了实现	-9908
主要危险	-9909
主要形式	-9910
主要的和	-9911
主观力量	-9912
九月七日	-9913
也是一种	-9914
书本上的	-9915
事实证明	-9916
二十八年	-9917
二十年来	-9918
二月七日	-9919
五卅运动	-9920
人们对于	-9921
什么人的	-9922
从旧社会	-9923
他们也是	-9924
他们可以	-9925
他们就会	-9926
他们总是	-9927
他们的人	-9928
代表机关	-9929
作斗争的	-9930
值得我们	-9931
党和革命	-9932
党的历史	-9933
党的支部	-9934
全国一切	-9935
全部实行	-9936
共同敌人	-9937
其他一切	-9938
其他许多	-9939
内战危险	-9940
写的社论	-9941
军事工业	-9942
军民一致	-9943
军民关系	-9944
出了一个	-9945
到了那时	-9946
功利主义	-9947
加以改造	-9948
务委员会	-9949
勤俭办社	-9950
半封建的	-9951
卖国条约	-9952
南斯拉夫	-9953
占领地区	-9954
危害国家	-9955
历史经验	-9956
反动思想	-9957
反对所谓	-9958
反对浪费	-9959
发动战争	-9960
发展下去	-9961
取消一切	-9962
可以而且	-9963
各种不同	-9964
各级地方	-9965
各项政策	-9966
同盟国的	-9967
同蒋介石	-9968
和我们的	-9969
四方面军	-9970
因为没有	-9971
因为这样	-9972
团结抗日	-9973
国家机关	-9974
国家经营	-9975
国营农场	-9976
国际会议	-9977
国际环境	-9978
土崩瓦解	-9979
在根据地	-9980
在这以前	-9981
地委书记	-9982
地方主义	-9983
城市政策	-9984
基本条件	-9985
基本特点	-9986
基本群众	-9987
基本问题	-9988
基础之上	-9989
处理问题	-9990
多数人的	-9991
大势所趋	-9992
大银行家	-9993
大革命的	-9994
如何而定	-9995
它是一个	-9996
完全没有	-9997
实行这种	-9998
客观情况	-9999
对不对呢	-10000
对他们的	-10001
对待富农	-10002
少数人的	-10003
就可以使	-10004
就是没有	-10005
山西两省	-10006
工作任务	-10007
工作的人	-10008
工作经验	-10009
工农大众	-10010
已经发动	-10011
已经建立	-10012
干部会议	-10013
干部政策	-10014
应当注意	-10015
建国纲领	-10016
异党问题	-10017
必须坚决	-10018
必须建立	-10019
态度问题	-10020
思想问题	-10021
总路线和	-10022
恢复和平	-10023
情形之下	-10024
成千成万	-10025
我们国家	-10026
我们并不	-10027
或者正在	-10028
所提出的	-10029
所进行的	-10030
投降派的	-10031
抗日救亡	-10032
抗日武装	-10033
拥护我们	-10034
指导规律	-10035
政府工作	-10036
政治标准	-10037
政治经济	-10038
教育人民	-10039
教育他们	-10040
斗争中去	-10041
斗争中的	-10042
新四军和	-10043
是否正确	-10044
是没有的	-10045
是辅助的	-10046
最大多数	-10047
有些什么	-10048
有些矛盾	-10049
有所改善	-10050
根本没有	-10051
武装干涉	-10052
每天都在	-10053
没有解决	-10054
游行示威	-10055
爱国同胞	-10056
爱国民主	-10057
物质条件	-10058
现在正在	-10059
现在这样	-10060
由于这些	-10061
由国民党	-10062
的反人民	-10063
的大地主	-10064
的大部分	-10065
的工作中	-10066
的广大的	-10067
的方法是	-10068
的百分之	-10069
的解放区	-10070
的领导下	-10071
看出来的	-10072
着重指出	-10073
破坏活动	-10074
硬着头皮	-10075
社会科学	-10076
积极性的	-10077
积蓄力量	-10078
程度上的	-10079
空话连篇	-10080
第四次反	-10081
等的跑到	-10082
粮食问题	-10083
经济上的	-10084
经济斗争	-10085
给我们的	-10086
统治势力	-10087
群众中的	-10088
群众组织	-10089
群众运动	-10090
而产生的	-10091
胡风分子	-10092
自以为了	-10093
自由平等	-10094
行动起来	-10095
被国民党	-10096
被统治者	-10097
装腔作势	-10098
观念形态	-10099
观点出发	-10100
解决困难	-10101
解决矛盾	-10102
解放斗争	-10103
言论自由	-10104
许多国家	-10105
论持久战	-10106
贵党政府	-10107
赞成抗日	-10108
起了一个	-10109
路线错误	-10110
转入进攻	-10111
轰轰烈烈	-10112
边界各县	-10113
过去我们	-10114
还有一些	-10115
还要继续	-10116
这一斗争	-10117
这不但是	-10118
这个原则	-10119
这个变化	-10120
这个新的	-10121
这个方向	-10122
这个特点	-10123
这个规律	-10124
这个阶级	-10125
这些国家	-10126
这些步骤	-10127
这样做的	-10128
这种东西	-10129
这种革命	-10130
这项工作	-10131
配合作用	-10132
重新逮捕	-10133
铁扇公主	-10134
铜墙铁壁	-10135
错误意见	-10136
长期性和	-10137
阵地攻击	-10138
阶段中的	-10139
非正义的	-10140
非正规军	-10141
领导下的	-10142
领导作用	-10143
领导农民	-10144
领导者的	-10145
领导责任	-10146
首先胜利	-10147
高度文化	-10148
鲁迅全集	-10149
▁我们认为	-10150
▁资产阶级	-10151
一个一个地	-10152
一致抗日的	-10153
不平等条约	-10154
个人主义的	-10155
中央和地方	-10156
为什么能够	-10157
主动或被动	-10158
事物发展的	-10159
事物的矛盾	-10160
二十五个旅	-10161
人民的生活	-10162
他们的思想	-10163
优势和主动	-10164
伟大的革命	-10165
例如五台山	-10166
侵略中国的	-10167
侵略战争的	-10168
全中国人民	-10169
全心全意地	-10170
冒险主义的	-10171
农民的生活	-10172
动员和统一	-10173
十月革命的	-10174
千百万群众	-10175
南京行政院	-10176
历史意义的	-10177
原任国民党	-10178
参加革命的	-10179
反人民集团	-10180
反法西斯的	-10181
各国反动派	-10182
各少数民族	-10183
各民主阶级	-10184
合作社经济	-10185
向前发展的	-10186
唯物主义和	-10187
团结和进步	-10188
国家工业化	-10189
国民党区域	-10190
在全国人民	-10191
在许多地方	-10192
在这一点上	-10193
在这个地方	-10194
地主和富农	-10195
地方实力派	-10196
如果我们的	-10197
存在和发展	-10198
季米特洛夫	-10199
学习和时局	-10200
完全必要的	-10201
官僚主义和	-10202
对于这些人	-10203
少数民族和	-10204
工作的干部	-10205
巩固和发展	-10206
帮助国民党	-10207
形而上学的	-10208
很大的成绩	-10209
很大的气力	-10210
我们的文艺	-10211
我们的经验	-10212
我们解放区	-10213
战争的目的	-10214
手工业工人	-10215
打败侵略者	-10216
据点和城市	-10217
放在第一位	-10218
旧三民主义	-10219
晋察冀边区	-10220
有决定意义	-10221
本质的东西	-10222
机械唯物论	-10223
正义的战争	-10224
正确的东西	-10225
残酷的战争	-10226
没有人民的	-10227
特殊的本质	-10228
特殊的矛盾	-10229
的关系问题	-10230
的准备工作	-10231
的半殖民地	-10232
的国民党军	-10233
的工作方法	-10234
的民主主义	-10235
的民主运动	-10236
的革命斗争	-10237
矛盾的斗争	-10238
第二方面军	-10239
经济和文化	-10240
给以坚决的	-10241
联系群众的	-10242
联系起来看	-10243
自由职业者	-10244
蒋介石及其	-10245
表现出来了	-10246
解放区人民	-10247
解放区军队	-10248
论联合政府	-10249
辩证法问题	-10250
过去三个月	-10251
这一点出发	-10252
这一部分人	-10253
这个合作社	-10254
这样的政府	-10255
革命的战争	-10256
▁游击战争的	-10257
▁纠正的方法	-10258
争取时局好转	-10259
克服投降危险	-10260
共产党和红军	-10261
十一月十二日	-10262
向运动战发展	-10263
吸收知识分子	-10264
和人民解放军	-10265
和全国人民的	-10266
在一九四九年	-10267
在中国的统治	-10268
在这个时期内	-10269
坚持游击战争	-10270
坚持统一战线	-10271
处于被动地位	-10272
对于这个问题	-10273
对立面的统一	-10274
帝国主义制度	-10275
建设成为一个	-10276
当时任国民党	-10277
我们的任务是	-10278
才能达到目的	-10279
新民主主义论	-10280
无产阶级及其	-10281
是中国人民的	-10282
是中国共产党	-10283
是完全正确的	-10284
民主个人主义	-10285
法西斯主义的	-10286
消灭封建制度	-10287
社会主义高潮	-10288
解决土地问题	-10289
这就是我们的	-10290
进行经济建设	-10291
革命知识分子	-10292
一九三六年七月	-10293
一九三四年一月	-10294
一九四五年七月	-10295
一九四五年四月	-10296
一九四八年二月	-10297
一九四六年一月	-10298
上层小资产阶级	-10299
中国共产党中央	-10300
中国土地法大纲	-10301
之间的相互关系	-10302
关于时局的声明	-10303
压迫和封建压迫	-10304
反对社会主义的	-10305
反马克思主义的	-10306
发动全国规模的	-10307
右倾机会主义的	-10308
外国帝国主义和	-10309
工人阶级领导的	-10310
必须制裁反动派	-10311
恢复和发展生产	-10312
战争和战略问题	-10313
抗日民主根据地	-10314
的人民民主专政	-10315
社会主义革命和	-10316
第三个五年计划	-10317
第二次反共高潮	-10318
群众的觉悟程度	-10319
陕甘宁边区政府	-10320
一九三五年十二月	-10321
一九四八年十一月	-10322
中国民族资产阶级	-10323
为中国今日之必需	-10324
以工农联盟为基础	-10325
半殖民地和半封建	-10326
无产阶级和共产党	-10327
无产阶级社会主义	-10328
▁这是毛泽东在延安	-10329
一九二七年革命失败	-10330
买办性的大资产阶级	-10331
农业发展纲要四十条	-10332
农村的社会主义高潮	-10333
废止国民党一党专政	-10334
抗日统一战线政权的	-10335
第八次全国代表大会	-10336
中国共产党和中国人民	-10337
和中国革命的具体实践	-10338
一九三八年十月武汉失守	-10339
中国人民革命军事委员会	-10340
中国共产党第六届中央委员会	-10341
马克思列宁主义的理论和中国革命的	-10342
**	-10343
,《	-10344
AB	-10345
▁自	-10346
▁评	-10347
一举	-10348
一人	-10349
一声	-10350
一模	-10351
一班	-10352
一章	-10353
一路	-10354
一遇	-10355
一顿	-10356
七人	-10357
三亿	-10358
三查	-10359
三者	-10360
上台	-10361
上山	-10362
下乡	-10363
下台	-10364
不倒	-10365
不免	-10366
不入	-10367
不吃	-10368
不失	-10369
不法	-10370
不爱	-10371
不理	-10372
不败	-10373
不靠	-10374
与其	-10375
丘吉	-10376
东汉	-10377
丢了	-10378
两件	-10379
两处	-10380
两头	-10381
两部	-10382
个团	-10383
中级	-10384
临沂	-10385
为数	-10386
主体	-10387
之交	-10388
之仗	-10389
之大	-10390
之权	-10391
之火	-10392
也可	-10393
书面	-10394
乱打	-10395
了它	-10396
事项	-10397
云逸	-10398
五裂	-10399
交租	-10400
亦应	-10401
亦有	-10402
亩产	-10403
人工	-10404
代的	-10405
令人	-10406
以内	-10407
会谈	-10408
伴随	-10409
但若	-10410
何人	-10411
你和	-10412
你是	-10413
使其	-10414
侦探	-10415
便宜	-10416
俄比	-10417
修理	-10418
借鉴	-10419
假象	-10420
先决	-10421
光鼐	-10422
免疫	-10423
党务	-10424
党史	-10425
党同	-10426
党性	-10427
党报	-10428
全村	-10429
全靠	-10430
八万	-10431
公款	-10432
公社	-10433
关中	-10434
关节	-10435
兴起	-10436
其反	-10437
养猪	-10438
内行	-10439
再向	-10440
写过	-10441
军校	-10442
军用	-10443
冬春	-10444
决死	-10445
减杀	-10446
几倍	-10447
几句	-10448
出党	-10449
击退	-10450
刀子	-10451
分属	-10452
分布	-10453
分进	-10454
切地	-10455
划为	-10456
列席	-10457
刘邦	-10458
力和	-10459
力戒	-10460
办公	-10461
办到	-10462
加拿	-10463
动态	-10464
势盛	-10465
北满	-10466
医院	-10467
半途	-10468
南进	-10469
印象	-10470
压抑	-10471
县级	-10472
又分	-10473
又可	-10474
发号	-10475
取胜	-10476
叛国	-10477
叛徒	-10478
口岸	-10479
只得	-10480
叫嚣	-10481
叫它	-10482
可爱	-10483
可笑	-10484
可行	-10485
号称	-10486
各方	-10487
名副	-10488
后勤	-10489
吞吞	-10490
听见	-10491
吸取	-10492
呆板	-10493
味道	-10494
呼声	-10495
和为	-10496
和约	-10497
四人	-10498
四条	-10499
四种	-10500
回旋	-10501
团的	-10502
国体	-10503
在地	-10504
在西	-10505
地大	-10506
地将	-10507
场所	-10508
坏蛋	-10509
块钱	-10510
坡村	-10511
埃及	-10512
埃塞	-10513
城里	-10514
增至	-10515
处分	-10516
多助	-10517
够的	-10518
大叶	-10519
大喝	-10520
大敌	-10521
大略	-10522
大致	-10523
奉化	-10524
好办	-10525
子孙	-10526
子恢	-10527
学院	-10528
宁可	-10529
它又	-10530
安平	-10531
安源	-10532
完满	-10533
定律	-10534
定期	-10535
宝贝	-10536
实据	-10537
容纳	-10538
对其	-10539
对它	-10540
对手	-10541
小米	-10542
就由	-10543
就说	-10544
就象	-10545
就非	-10546
尽了	-10547
尽力	-10548
州市	-10549
已到	-10550
已将	-10551
平地	-10552
平绥	-10553
年龄	-10554
应从	-10555
廉洁	-10556
开的	-10557
开进	-10558
异己	-10559
式辉	-10560
张杨	-10561
弯路	-10562
弱国	-10563
归公	-10564
往后	-10565
征求	-10566
待命	-10567
待机	-10568
很小	-10569
德礼	-10570
必以	-10571
必得	-10572
忍耐	-10573
快了	-10574
快的	-10575
思考	-10576
总比	-10577
总队	-10578
惟独	-10579
愤怒	-10580
愿与	-10581
慈善	-10582
成都	-10583
成长	-10584
我所	-10585
或半	-10586
战事	-10587
战局	-10588
所犯	-10589
打开	-10590
打翻	-10591
打进	-10592
扫盲	-10593
批人	-10594
投敌	-10595
报道	-10596
挑动	-10597
振作	-10598
提早	-10599
搬起	-10600
摆在	-10601
撤离	-10602
收到	-10603
收拾	-10604
收效	-10605
放到	-10606
敌国	-10607
教养	-10608
教导	-10609
教师	-10610
数省	-10611
数路	-10612
整体	-10613
整师	-10614
整改	-10615
新编	-10616
施令	-10617
无故	-10618
无知	-10619
既要	-10620
时宜	-10621
明明	-10622
明朝	-10623
明证	-10624
星星	-10625
显示	-10626
曲线	-10627
更要	-10628
最多	-10629
月内	-10630
本性	-10631
杂牌	-10632
杂税	-10633
村庄	-10634
来个	-10635
极点	-10636
林冲	-10637
查田	-10638
树勋	-10639
桂系	-10640
楼梦	-10641
模糊	-10642
武昌	-10643
每战	-10644
每时	-10645
毒素	-10646
气味	-10647
气概	-10648
气象	-10649
永垂	-10650
江北	-10651
沮丧	-10652
油盐	-10653
治好	-10654
沾染	-10655
泛滥	-10656
注视	-10657
洪峰	-10658
派人	-10659
派兵	-10660
济棠	-10661
浩劫	-10662
涉及	-10663
淝水	-10664
淮北	-10665
淮南	-10666
混为	-10667
混同	-10668
渐渐	-10669
渡过	-10670
滑稽	-10671
滔天	-10672
满意	-10673
演出	-10674
演员	-10675
灾民	-10676
炸弹	-10677
烟幕	-10678
照样	-10679
照着	-10680
犯我	-10681
狂热	-10682
猖獗	-10683
班长	-10684
甚大	-10685
生俘	-10686
用钱	-10687
电告	-10688
疲倦	-10689
疲惫	-10690
百韬	-10691
的两	-10692
的确	-10693
相应	-10694
看他	-10695
看轻	-10696
看重	-10697
着了	-10698
督促	-10699
督军	-10700
硬搬	-10701
确山	-10702
确认	-10703
碰壁	-10704
祝贺	-10705
神气	-10706
祠堂	-10707
种子	-10708
税制	-10709
空中	-10710
等事	-10711
简要	-10712
米亚	-10713
米脂	-10714
粗暴	-10715
粗枝	-10716
粮税	-10717
约法	-10718
纪要	-10719
线上	-10720
终日	-10721
终究	-10722
绝了	-10723
绝无	-10724
绝种	-10725
统销	-10726
绿化	-10727
编制	-10728
编者	-10729
缩编	-10730
缺口	-10731
罗荣	-10732
美元	-10733
翻身	-10734
老年	-10735
而后	-10736
而废	-10737
而易	-10738
而用	-10739
职工	-10740
联席	-10741
腐蚀	-10742
自足	-10743
至多	-10744
致命	-10745
良的	-10746
色彩	-10747
苏共	-10748
苦功	-10749
草率	-10750
莱芜	-10751
萍乡	-10752
蒋桂	-10753
虽则	-10754
虽强	-10755
血债	-10756
衰落	-10757
袖手	-10758
西柏	-10759
要待	-10760
覆辙	-10761
见之	-10762
观望	-10763
规格	-10764
解脱	-10765
警备	-10766
讨汪	-10767
让出	-10768
议事	-10769
议和	-10770
记录	-10771
讲明	-10772
说成	-10773
说理	-10774
诸敌	-10775
读书	-10776
贤达	-10777
贯串	-10778
走过	-10779
走马	-10780
趋于	-10781
路程	-10782
较高	-10783
输了	-10784
输入	-10785
边缘	-10786
迅即	-10787
迎接	-10788
还说	-10789
这也	-10790
这位	-10791
这段	-10792
这要	-10793
这部	-10794
进取	-10795
违抗	-10796
追求	-10797
退佃	-10798
逃到	-10799
选出	-10800
造反	-10801
遭遇	-10802
那次	-10803
那班	-10804
邯郸	-10805
都会	-10806
都对	-10807
都已	-10808
重重	-10809
鉴戒	-10810
锦西	-10811
长远	-10812
门户	-10813
陆海	-10814
陕南	-10815
除此	-10816
震动	-10817
静止	-10818
非法	-10819
顽强	-10820
预先	-10821
领会	-10822
风雨	-10823
首相	-10824
首都	-10825
高压	-10826
鬼子	-10827
黄浦	-10828
▁人民	-10829
▁你们	-10830
▁军事	-10831
▁各位	-10832
▁当然	-10833
▁苏联	-10834
▁除了	-10835
一个军	-10836
一个县	-10837
一九七	-10838
一年半	-10839
一文的	-10840
一点小	-10841
一百一	-10842
一起来	-10843
七月间	-10844
三年多	-10845
三部分	-10846
上下级	-10847
上建立	-10848
不了的	-10849
不参加	-10850
不善于	-10851
不定的	-10852
不小的	-10853
不少的	-10854
不服从	-10855
不流血	-10856
不熟悉	-10857
不破坏	-10858
不能是	-10859
不那么	-10860
丘吉尔	-10861
东北军	-10862
东北的	-10863
两个师	-10864
两兵团	-10865
中央区	-10866
为之一	-10867
为适宜	-10868
主力的	-10869
之一部	-10870
之下的	-10871
九个旅	-10872
也只能	-10873
也就不	-10874
乡政府	-10875
了大批	-10876
了当时	-10877
了解了	-10878
争取了	-10879
事情是	-10880
二十万	-10881
于一切	-10882
于战争	-10883
五十五	-10884
五年半	-10885
些什么	-10886
亡国的	-10887
今年的	-10888
仍然有	-10889
他们会	-10890
他们改	-10891
他们既	-10892
他就不	-10893
以整顿	-10894
以达到	-10895
任务和	-10896
但我们	-10897
但是要	-10898
作战上	-10899
作报告	-10900
作长期	-10901
你们就	-10902
你那个	-10903
使一切	-10904
使全国	-10905
使它们	-10906
便不能	-10907
俄比亚	-10908
倒退的	-10909
倾向的	-10910
做到了	-10911
做文章	-10912
健全的	-10913
充满了	-10914
光荣的	-10915
入党的	-10916
八小时	-10917
公有制	-10918
六个月	-10919
六十四	-10920
六千万	-10921
其中最	-10922
其主要	-10923
具备着	-10924
再一个	-10925
军分区	-10926
军队是	-10927
准备好	-10928
几万万	-10929
分不开	-10930
分五裂	-10931
分土地	-10932
切实地	-10933
则是在	-10934
创造出	-10935
制定了	-10936
剩下的	-10937
办不好	-10938
加入了	-10939
加重了	-10940
动员了	-10941
十万人	-10942
十年至	-10943
千万万	-10944
华中的	-10945
单干户	-10946
占领的	-10947
原因是	-10948
去克服	-10949
去反对	-10950
去处理	-10951
去研究	-10952
县政府	-10953
又由于	-10954
及其在	-10955
反右派	-10956
反复地	-10957
反对把	-10958
反抗的	-10959
发布了	-10960
发现了	-10961
口号是	-10962
另方面	-10963
只注意	-10964
只看到	-10965
只要你	-10966
只要有	-10967
叫我们	-10968
召开了	-10969
可以和	-10970
各地的	-10971
同志和	-10972
同时并	-10973
同样是	-10974
同胞们	-10975
同苏联	-10976
后一个	-10977
向农民	-10978
向苏联	-10979
否定了	-10980
告一段	-10981
和一定	-10982
和一般	-10983
和个人	-10984
和党外	-10985
和各种	-10986
和外国	-10987
和妥协	-10988
和学习	-10989
和广大	-10990
和整个	-10991
和普及	-10992
和红军	-10993
和自己	-10994
和解决	-10995
哪一天	-10996
哪一种	-10997
唯一的	-10998
四一二	-10999
四个旅	-11000
围绕着	-11001
在世界	-11002
在人类	-11003
在什么	-11004
在八年	-11005
在内线	-11006
在国外	-11007
在国家	-11008
在土地	-11009
在外国	-11010
在此种	-11011
在武汉	-11012
在民主	-11013
在波兰	-11014
在白区	-11015
在自己	-11016
地下军	-11017
地区内	-11018
多少年	-11019
多得很	-11020
大发展	-11021
大道理	-11022
太多了	-11023
失掉了	-11024
好得很	-11025
如果在	-11026
如果有	-11027
存在过	-11028
孙行者	-11029
学来的	-11030
学生的	-11031
它不是	-11032
宗教界	-11033
实在是	-11034
实行之	-11035
富裕的	-11036
对一切	-11037
对于我	-11038
对自己	-11039
尖锐的	-11040
就不但	-11041
就变成	-11042
就开始	-11043
就要犯	-11044
就需要	-11045
屈不挠	-11046
山东省	-11047
山海关	-11048
山西的	-11049
山西省	-11050
岂不是	-11051
工作组	-11052
已处在	-11053
帮助的	-11054
常有的	-11055
并且要	-11056
并实行	-11057
延安的	-11058
建国的	-11059
张云逸	-11060
强调了	-11061
当然是	-11062
形势与	-11063
往湘南	-11064
很重要	-11065
得一个	-11066
忽视了	-11067
态度的	-11068
怎么能	-11069
怪议论	-11070
总书记	-11071
总前委	-11072
恰当地	-11073
我们却	-11074
我们把	-11075
我们讲	-11076
我军对	-11077
我可以	-11078
我就不	-11079
我建议	-11080
我现在	-11081
或错误	-11082
战术上	-11083
所不能	-11084
所做的	-11085
所必须	-11086
所有权	-11087
才溪乡	-11088
打主意	-11089
打土豪	-11090
扫荡报	-11091
把这种	-11092
抗日军	-11093
抛弃了	-11094
据我看	-11095
接受者	-11096
控制了	-11097
提意见	-11098
支持下	-11099
政治部	-11100
数目字	-11101
整编师	-11102
斗争是	-11103
新式的	-11104
新社会	-11105
无论是	-11106
既不是	-11107
既反对	-11108
日本军	-11109
旧制度	-11110
明白了	-11111
是一定	-11112
是互相	-11113
是全国	-11114
是加以	-11115
是地主	-11116
是目前	-11117
暴动队	-11118
最前线	-11119
有分析	-11120
有它的	-11121
有密切	-11122
有时候	-11123
有的人	-11124
有良心	-11125
本国的	-11126
机关里	-11127
李自成	-11128
来反对	-11129
来说明	-11130
来进行	-11131
极坏的	-11132
欢迎的	-11133
比去年	-11134
比现在	-11135
民主是	-11136
民族自	-11137
汀州市	-11138
法国的	-11139
注意和	-11140
深刻的	-11141
满意的	-11142
激起了	-11143
然后才	-11144
熊式辉	-11145
独立国	-11146
现在起	-11147
理论的	-11148
生产者	-11149
生活和	-11150
用不着	-11151
用什么	-11152
用和平	-11153
由日本	-11154
疲劳和	-11155
的不良	-11156
的中心	-11157
的任何	-11158
的侵略	-11159
的决战	-11160
的压力	-11161
的反面	-11162
的好处	-11163
的开始	-11164
的提高	-11165
的整个	-11166
的文艺	-11167
的根本	-11168
的残余	-11169
的演说	-11170
的爆发	-11171
的界限	-11172
的破产	-11173
的立场	-11174
的说法	-11175
的谈判	-11176
的需要	-11177
的面貌	-11178
盲目的	-11179
直接的	-11180
相矛盾	-11181
相符合	-11182
看不到	-11183
真理的	-11184
矛盾论	-11185
确定的	-11186
科学地	-11187
第一仗	-11188
第四条	-11189
等人的	-11190
等县的	-11191
等条件	-11192
策略的	-11193
签订了	-11194
系统地	-11195
紧紧地	-11196
紧要的	-11197
红楼梦	-11198
经历了	-11199
经验论	-11200
结合的	-11201
结果是	-11202
结论是	-11203
统一了	-11204
绥靖区	-11205
缘故呢	-11206
罗荣桓	-11207
而加以	-11208
而达到	-11209
而这些	-11210
胜利之	-11211
能得到	-11212
自然地	-11213
自私自	-11214
艾德礼	-11215
英三国	-11216
营垒中	-11217
蒋光鼐	-11218
被人们	-11219
被我军	-11220
被撤职	-11221
要坚持	-11222
要学习	-11223
要的是	-11224
要达到	-11225
要采取	-11226
觉悟的	-11227
警卫团	-11228
警惕性	-11229
认识论	-11230
让它们	-11231
训练和	-11232
论政策	-11233
说过的	-11234
请大家	-11235
贵党和	-11236
身上的	-11237
边地区	-11238
边界的	-11239
运输队	-11240
还存在	-11241
还应该	-11242
还是很	-11243
还是有	-11244
这一关	-11245
这是在	-11246
这是指	-11247
这本书	-11248
这难道	-11249
进步派	-11250
进行反	-11251
遵化县	-11252
邓子恢	-11253
那时的	-11254
部队在	-11255
采用了	-11256
采用的	-11257
问题就	-11258
闹事的	-11259
阶级性	-11260
附属于	-11261
陇海路	-11262
陈济棠	-11263
限制的	-11264
除四害	-11265
难免的	-11266
集中在	-11267
集体化	-11268
青年节	-11269
革命中	-11270
韩复榘	-11271
高树勋	-11272
黄百韬	-11273
▁第一个	-11274
▁第一节	-11275
▁第二个	-11276
▁第二节	-11277
▁第四点	-11278
▁红军的	-11279
▁革命的	-11280
一个时候	-11281
一个相当	-11282
一定要把	-11283
一方面军	-11284
一点也不	-11285
一种形式	-11286
一篇文章	-11287
一道工作	-11288
一部分是	-11289
一面又在	-11290
七月一日	-11291
三个条件	-11292
三十万人	-11293
不但不能	-11294
不但要有	-11295
不利于敌	-11296
不犯错误	-11297
不管他们	-11298
不能离开	-11299
不能速胜	-11300
不要因为	-11301
东北四省	-11302
两个方面	-11303
两个革命	-11304
中产阶级	-11305
中国内部	-11306
中央会议	-11307
中小地主	-11308
为了达到	-11309
为什么人	-11310
主力红军	-11311
主力部队	-11312
主要是指	-11313
也只有在	-11314
也就不能	-11315
也就是说	-11316
也得到了	-11317
也没有了	-11318
也还没有	-11319
乡村工作	-11320
争取江西	-11321
二十二年	-11322
互相帮助	-11323
五个纵队	-11324
五千余人	-11325
五月一日	-11326
产业工人	-11327
亲日派的	-11328
人民公敌	-11329
人民力量	-11330
人民文学	-11331
今冬明春	-11332
今年二月	-11333
从政治上	-11334
他们以为	-11335
他们可能	-11336
他们是有	-11337
他自己的	-11338
以北地区	-11339
以及一切	-11340
以后还要	-11341
以平等待	-11342
休养生息	-11343
会议期间	-11344
伟大胜利	-11345
但是同时	-11346
但还不是	-11347
作为一个	-11348
作出决定	-11349
你和你的	-11350
使他们在	-11351
使同志们	-11352
使用机器	-11353
依靠贫农	-11354
保障供给	-11355
先决条件	-11356
克里米亚	-11357
党中央的	-11358
党委书记	-11359
党政机关	-11360
党的作风	-11361
全军全民	-11362
全面和平	-11363
全面抗战	-11364
八七会议	-11365
其他地方	-11366
具体政策	-11367
内容如下	-11368
内战罪犯	-11369
内战阴谋	-11370
再也不敢	-11371
再来一个	-11372
军事原则	-11373
军事基地	-11374
军事学校	-11375
军事工作	-11376
军事的和	-11377
军令政令	-11378
军的进攻	-11379
农业方面	-11380
农作物的	-11381
决不容许	-11382
决定一切	-11383
几年之内	-11384
出来过问	-11385
分为两个	-11386
分散兵力	-11387
前进一步	-11388
加以研究	-11389
北京大学	-11390
千千万万	-11391
历史以来	-11392
历史时代	-11393
原因之一	-11394
参加生产	-11395
参看本卷	-11396
及其帮凶	-11397
反共分子	-11398
反攻阶段	-11399
发号施令	-11400
发表意见	-11401
只要他们	-11402
可以看出	-11403
可以避免	-11404
可宝贵的	-11405
各个歼敌	-11406
各得其所	-11407
各级政府	-11408
合作化了	-11409
合作社和	-11410
同时也是	-11411
名副其实	-11412
后的中央	-11413
向蒋介石	-11414
和对农业	-11415
和平统一	-11416
唯物主义	-11417
四大自由	-11418
因为现在	-11419
团结全国	-11420
困难地位	-11421
国家利益	-11422
国民会议	-11423
国民党之	-11424
国营经济	-11425
国际主义	-11426
国际和平	-11427
在七年内	-11428
在党中央	-11429
在全中国	-11430
在形式上	-11431
在第一次	-11432
地方性的	-11433
基本政策	-11434
基本要求	-11435
基础上的	-11436
外交政策	-11437
多打胜仗	-11438
大学教授	-11439
好的东西	-11440
如果不能	-11441
如果有人	-11442
完全不是	-11443
官兵关系	-11444
实质上是	-11445
实际问题	-11446
家庭出身	-11447
富裕农民	-11448
对中国的	-11449
对于争取	-11450
对于这种	-11451
对我们的	-11452
对日抗战	-11453
封建剥削	-11454
封建统治	-11455
将来还要	-11456
少犯错误	-11457
就不应该	-11458
就变成了	-11459
就是指的	-11460
尾巴主义	-11461
工人生活	-11462
工农干部	-11463
工农武装	-11464
工农红军	-11465
希望寄托	-11466
平均地权	-11467
平津战役	-11468
广大乡村	-11469
应当继续	-11470
应该承认	-11471
建立独立	-11472
建立贫农	-11473
开始实行	-11474
开调查会	-11475
归于失败	-11476
当亡国奴	-11477
形式主义	-11478
形成一个	-11479
彻底胜利	-11480
很多地方	-11481
必然结果	-11482
必要条件	-11483
必须加以	-11484
必须十分	-11485
必须明白	-11486
必须经过	-11487
必须认识	-11488
必须这样	-11489
急躁冒进	-11490
性质不同	-11491
总理遗嘱	-11492
悲观情绪	-11493
愿意参加	-11494
愿望出发	-11495
我们不但	-11496
我们要把	-11497
我们采取	-11498
我们需要	-11499
我国人民	-11500
或者只有	-11501
战争责任	-11502
战略任务	-11503
戴高帽子	-11504
所规定的	-11505
打击地主	-11506
打击敌人	-11507
把我们的	-11508
抗战以来	-11509
拉丁美洲	-11510
指派代表	-11511
提出问题	-11512
操纵国民	-11513
支配地位	-11514
改造他们	-11515
改造自己	-11516
改革政治	-11517
政治原则	-11518
政治教育	-11519
政治觉悟	-11520
文化思想	-11521
新的情况	-11522
无情打击	-11523
无论什么	-11524
日本军队	-11525
旧式富农	-11526
星星之火	-11527
是伟大的	-11528
是暂时的	-11529
是有害的	-11530
暂时还不	-11531
暴露出来	-11532
曾经有过	-11533
本文作者	-11534
极端困难	-11535
武装反抗	-11536
武装起来	-11537
残酷斗争	-11538
殖民地和	-11539
民主权利	-11540
民族压迫	-11541
民族团结	-11542
民族工业	-11543
民族独立	-11544
永垂不朽	-11545
没有别的	-11546
消极防御	-11547
深入国土	-11548
混为一谈	-11549
爱国人士	-11550
爱国志士	-11551
现代化的	-11552
现代工业	-11553
现在不是	-11554
现在还是	-11555
现实主义	-11556
生产力和	-11557
由此可见	-11558
白色政权	-11559
的东西都	-11560
的大规模	-11561
的情况是	-11562
的政策和	-11563
的正确性	-11564
的民主的	-11565
的积极性	-11566
的问题是	-11567
直到现在	-11568
直接经验	-11569
研究工作	-11570
破坏纪律	-11571
社会性质	-11572
私人经济	-11573
秋收起义	-11574
积极准备	-11575
积极领导	-11576
稳步前进	-11577
立于不败	-11578
第五纵队	-11579
第八路军	-11580
第六军团	-11581
粗枝大叶	-11582
精神准备	-11583
紧急会议	-11584
纠正错误	-11585
组成部分	-11586
经济危机	-11587
经过长期	-11588
经验证明	-11589
绝对劣势	-11590
继续抗战	-11591
而不利于	-11592
而我们的	-11593
而是为了	-11594
联合一切	-11595
联席会议	-11596
肃反工作	-11597
腐败现象	-11598
至今没有	-11599
节制资本	-11600
苛捐杂税	-11601
落后分子	-11602
行政命令	-11603
袖手旁观	-11604
被我歼灭	-11605
西柏坡村	-11606
解放以后	-11607
解放运动	-11608
议事日程	-11609
许多困难	-11610
谈判基础	-11611
财政问题	-11612
贫农阶级	-11613
贫苦农民	-11614
资本家的	-11615
转移兵力	-11616
边区政府	-11617
辽宁两省	-11618
这两件事	-11619
这个制度	-11620
这个办法	-11621
这个报告	-11622
这个时期	-11623
这个条约	-11624
这个责任	-11625
这个阶段	-11626
这些困难	-11627
这些地方	-11628
这些干部	-11629
这些情况	-11630
这件事情	-11631
这样就会	-11632
这样的事	-11633
这种制度	-11634
这种办法	-11635
这种时候	-11636
进行到底	-11637
都失败了	-11638
都是由于	-11639
重庆谈判	-11640
重要任务	-11641
野战兵团	-11642
长期支持	-11643
长江以北	-11644
防御地位	-11645
陈独秀的	-11646
集中力量	-11647
集中起来	-11648
革命党人	-11649
革命政权	-11650
革命精神	-11651
革命阵营	-11652
▁另一方面	-11653
▁所有这些	-11654
▁抗美援朝	-11655
▁祝我们在	-11656
一个统一体	-11657
一九一一年	-11658
一九一五年	-11659
一九一四年	-11660
一切反动派	-11661
一部分人的	-11662
一部分土地	-11663
不能分离的	-11664
世界人民的	-11665
个人主义者	-11666
中国的进步	-11667
中国革命是	-11668
为什么没有	-11669
为什么还要	-11670
主要地依靠	-11671
主观和客观	-11672
也不能离开	-11673
也没有什么	-11674
乡农民协会	-11675
事业和文化	-11676
五四运动的	-11677
人民的敌人	-11678
从鸦片战争	-11679
他们的利益	-11680
他们的生活	-11681
以外的一切	-11682
任务的完成	-11683
伟大的斗争	-11684
但是还没有	-11685
使中国人民	-11686
全世界一切	-11687
全民所有制	-11688
六月三十日	-11689
共产党员在	-11690
兵团司令官	-11691
具体的分析	-11692
军政委员会	-11693
军的百分之	-11694
军队的进攻	-11695
农村工作部	-11696
农民的生产	-11697
分裂和战争	-11698
刘少奇同志	-11699
前所未有的	-11700
去年这一年	-11701
发展和巩固	-11702
可能发生的	-11703
各中央局和	-11704
各界人民的	-11705
各阶层人民	-11706
合理的统一	-11707
向我们进攻	-11708
和蒋介石的	-11709
四亿五千万	-11710
国民党内的	-11711
国民经济的	-11712
国际主义的	-11713
土地改革和	-11714
土地革命和	-11715
在人民内部	-11716
在我们面前	-11717
在这个时候	-11718
在这次会议	-11719
在阶级社会	-11720
坚决地执行	-11721
埃塞俄比亚	-11722
城市工作和	-11723
多余的土地	-11724
如果我们在	-11725
宗派主义和	-11726
实际工作中	-11727
实际情况的	-11728
宪政促进会	-11729
对于我们是	-11730
对国民党的	-11731
对立的统一	-11732
封建阶级的	-11733
小手工业者	-11734
就不能胜利	-11735
工人和农民	-11736
工农兵群众	-11737
工农革命军	-11738
并没有什么	-11739
张国焘路线	-11740
很长的时间	-11741
必须认真地	-11742
我们就可以	-11743
我们的宪法	-11744
我们的战争	-11745
我们的战略	-11746
我们的目的	-11747
我们的答复	-11748
我们还没有	-11749
战争与和平	-11750
战争的性质	-11751
战役或战斗	-11752
提出了一个	-11753
斗争的发展	-11754
日本法西斯	-11755
旧民主主义	-11756
是怎样的呢	-11757
是有理由的	-11758
晋绥解放区	-11759
有什么好处	-11760
极大的努力	-11761
极端民主化	-11762
某种程度的	-11763
根本的变化	-11764
模范工作者	-11765
正确的意见	-11766
正确的领导	-11767
歼敌正规军	-11768
民族工商业	-11769
清醒的头脑	-11770
独立自主地	-11771
生产关系和	-11772
百分之十的	-11773
百分之百的	-11774
的一切组织	-11775
的人民大众	-11776
的反动分子	-11777
的土地革命	-11778
的态度对待	-11779
的民主制度	-11780
的民主改革	-11781
的民族革命	-11782
的认识运动	-11783
的资产阶级	-11784
的领导骨干	-11785
省政府主席	-11786
第二条战线	-11787
第四方面军	-11788
系统的周密	-11789
红一方面军	-11790
红色政权的	-11791
经济和财政	-11792
绝大的错误	-11793
缺点和错误	-11794
群众的关系	-11795
群众的觉悟	-11796
联合世界上	-11797
自己的利益	-11798
自由主义的	-11799
行政委员会	-11800
被敌人分割	-11801
运动的方向	-11802
这些国家的	-11803
这是错误的	-11804
这样广大的	-11805
这样的军队	-11806
进攻八路军	-11807
部队和机关	-11808
配合战争的	-11809
青年的特点	-11810
革命的失败	-11811
革命的对象	-11812
革命的性质	-11813
▁这里所说的	-11814
一切爱国党派	-11815
上所作的结论	-11816
中共方面提出	-11817
为资产阶级所	-11818
为首的国民党	-11819
买办资产阶级	-11820
交通警察部队	-11821
人民民主革命	-11822
人民解放军在	-11823
你和你的政府	-11824
倾机会主义的	-11825
全国革命高潮	-11826
全民族的抗战	-11827
全部实行协定	-11828
准备武装起义	-11829
几个革命阶级	-11830
划清敌我界限	-11831
十二月十五日	-11832
十年至十五年	-11833
发展的不平衡	-11834
召开国民大会	-11835
和中国人民的	-11836
和建设新中国	-11837
固定的作战线	-11838
国民政府主席	-11839
在一九三五年	-11840
在一九四一年	-11841
在党内的反映	-11842
在这个基础上	-11843
实行社会主义	-11844
封建地主阶级	-11845
工作的同志们	-11846
工农民主专政	-11847
巩固的根据地	-11848
帝国主义战线	-11849
广大群众性的	-11850
建成社会主义	-11851
建立统一战线	-11852
思想上政治上	-11853
我们有些同志	-11854
我们的方针是	-11855
战略的持久战	-11856
抗日战争初期	-11857
抗日根据地内	-11858
抗日民主政权	-11859
政府和军队的	-11860
是中国革命的	-11861
晋察冀解放区	-11862
毛泽东在这个	-11863
毛泽东的这个	-11864
的反帝反封建	-11865
相对的固定性	-11866
红军第四军的	-11867
统一战线工作	-11868
统一战线政策	-11869
统一战线问题	-11870
自觉的能动性	-11871
至一九三七年	-11872
至一九四七年	-11873
艾奇逊所说的	-11874
蒋介石国民党	-11875
被国民党政府	-11876
解放战争时期	-11877
财政经济政策	-11878
一九三八年一月	-11879
一九五四年撤销	-11880
一九四九年三月	-11881
中国革命的性质	-11882
为什么能够存在	-11883
人民文学出版社	-11884
人民民主专政的	-11885
倾路线的代表者	-11886
前面已经说过了	-11887
反对反共顽固派	-11888
各人民民主国家	-11889
各资本主义国家	-11890
和内蒙古自治区	-11891
四亿七千五百万	-11892
国共两党的合作	-11893
国民党三中全会	-11894
土地制度的改革	-11895
宗派主义的倾向	-11896
帝国主义的压迫	-11897
广大人民群众的	-11898
抗日战争爆发后	-11899
新政治协商会议	-11900
社会主义的改造	-11901
社会主义的苏联	-11902
第二次全体会议	-11903
解决了土地问题	-11904
谈谈辩证法问题	-11905
贵党和贵党政府	-11906
资本主义社会的	-11907
上层小资产阶级和	-11908
中华民族的新文化	-11909
全国人民代表大会	-11910
到达和接收的地区	-11911
半社会主义性质的	-11912
国民党的反动统治	-11913
工人阶级和共产党	-11914
抗日民族革命战争	-11915
新民主主义革命的	-11916
无产阶级领导之下	-11917
的一切组织和斗争	-11918
非少数人所得而私	-11919
领导和群众相结合	-11920
▁南京国民政府所属	-11921
中共中央毛泽东主席	-11922
中国共产党所领导的	-11923
中国的民族资产阶级	-11924
中央人民政府委员会	-11925
伟大的社会主义国家	-11926
全面的全民族的抗战	-11927
少数民族和海外华侨	-11928
无产阶级和资产阶级	-11929
殖民地半殖民地国家	-11930
社会主义和资本主义	-11931
马克思列宁主义思想	-11932
中国共产党中央委员会	-11933
和三届二次国民参政会	-11934
建立抗日民族统一战线	-11935
抗日民族统一战线政策	-11936
一九三一年至一九三四年	-11937
中国农村的社会主义高潮	-11938
中国资产阶级民主革命的	-11939
红色政权为什么能够存在	-11940
资本主义国家的无产阶级	-11941
▁这是毛泽东在中国共产党	-11942
原辖地区划归内蒙古自治区	-11943
中国人民政治协商会议第一届	-11944
社会主义革命和社会主义建设	-11945
以工农联盟为基础的人民民主专政	-11946
中共中央毛泽东主席关于时局的声明	-11947
,‘	-11948
▁以	-11949
▁让	-11950
▁驳	-11951
一仗	-11952
一伙	-11953
一出	-11954
一县	-11955
一口	-11956
一名	-11957
一国	-11958
一座	-11959
一意	-11960
一手	-11961
一本	-11962
一查	-11963
一毫	-11964
一滴	-11965
一遍	-11966
三七	-11967
三倍	-11968
三分	-11969
三户	-11970
三整	-11971
三条	-11972
上也	-11973
上次	-11974
下午	-11975
下游	-11976
不从	-11977
不值	-11978
不前	-11979
不很	-11980
不拿	-11981
不料	-11982
不求	-11983
不至	-11984
不进	-11985
专区	-11986
丙丁	-11987
两侧	-11988
两利	-11989
两只	-11990
两派	-11991
两线	-11992
严惩	-11993
中东	-11994
中还	-11995
临终	-11996
主战	-11997
主持	-11998
举出	-11999
义勇	-12000
之列	-12001
之名	-12002
之母	-12003
九千	-12004
九天	-12005
也难	-12006
也须	-12007
习气	-12008
书籍	-12009
乱动	-12010
争得	-12011
争权	-12012
二个	-12013
二人	-12014
二则	-12015
二是	-12016
于今	-12017
于此	-12018
交付	-12019
交流	-12020
享有	-12021
亲眼	-12022
人才	-12023
人群	-12024
人说	-12025
介绍	-12026
仍将	-12027
仍有	-12028
从严	-12029
从古	-12030
从容	-12031
从宽	-12032
仓库	-12033
仔细	-12034
付出	-12035
代谢	-12036
以十	-12037
以往	-12038
们所	-12039
任凭	-12040
任用	-12041
优于	-12042
伙伴	-12043
会场	-12044
会师	-12045
伪装	-12046
似的	-12047
但到	-12048
作好	-12049
作祟	-12050
作霖	-12051
使我	-12052
使敌	-12053
依存	-12054
侥幸	-12055
便有	-12056
借此	-12057
倾听	-12058
停滞	-12059
像个	-12060
充任	-12061
先是	-12062
党禁	-12063
全文	-12064
全然	-12065
全省	-12066
八国	-12067
公共	-12068
公务	-12069
公教	-12070
六七	-12071
共性	-12072
兵多	-12073
兵教	-12074
其不	-12075
其妙	-12076
其谈	-12077
其间	-12078
兼任	-12079
冀南	-12080
再四	-12081
再度	-12082
再战	-12083
再行	-12084
再讲	-12085
决权	-12086
减了	-12087
凡在	-12088
出国	-12089
出外	-12090
出生	-12091
击毙	-12092
击败	-12093
则由	-12094
初到	-12095
初战	-12096
初稿	-12097
剩余	-12098
力地	-12099
勃勃	-12100
勤务	-12101
北面	-12102
匪首	-12103
医治	-12104
十几	-12105
半旅	-12106
协调	-12107
单有	-12108
南满	-12109
印发	-12110
即只	-12111
却不	-12112
却有	-12113
原地	-12114
去办	-12115
去打	-12116
县和	-12117
又名	-12118
又用	-12119
反驳	-12120
受人	-12121
受过	-12122
变的	-12123
古典	-12124
另册	-12125
只说	-12126
可怜	-12127
右了	-12128
叶公	-12129
各族	-12130
各类	-12131
各路	-12132
同甘	-12133
同等	-12134
同类	-12135
名声	-12136
名誉	-12137
后红	-12138
吐吐	-12139
向他	-12140
听候	-12141
吴国	-12142
吾人	-12143
和前	-12144
和气	-12145
和注	-12146
哥穆	-12147
唾弃	-12148
商约	-12149
因之	-12150
国军	-12151
在反	-12152
在外	-12153
在对	-12154
在小	-12155
在打	-12156
在有	-12157
地势	-12158
地由	-12159
坐山	-12160
埋伏	-12161
培德	-12162
堕落	-12163
塌台	-12164
塘坝	-12165
增高	-12166
墨索	-12167
声言	-12168
处死	-12169
复活	-12170
外因	-12171
外生	-12172
外界	-12173
多些	-12174
多兵	-12175
多大	-12176
多方	-12177
大公	-12178
大而	-12179
大踏	-12180
大道	-12181
天起	-12182
太阳	-12183
头的	-12184
夸夸	-12185
夹击	-12186
夹攻	-12187
夹紧	-12188
夺回	-12189
奉命	-12190
奋勇	-12191
奸党	-12192
奸军	-12193
奸区	-12194
奸淫	-12195
好话	-12196
妥善	-12197
娱乐	-12198
孙良	-12199
宋襄	-12200
官长	-12201
定义	-12202
实业	-12203
审讯	-12204
害于	-12205
害处	-12206
家伙	-12207
将大	-12208
将有	-12209
尊敬	-12210
小放	-12211
尔卡	-12212
就想	-12213
就给	-12214
展览	-12215
岂不	-12216
川陕	-12217
已为	-12218
巴黎	-12219
带上	-12220
平时	-12221
并由	-12222
并须	-12223
广阔	-12224
序幕	-12225
应加	-12226
应即	-12227
应取	-12228
底下	-12229
建交	-12230
建军	-12231
建宁	-12232
开创	-12233
开动	-12234
开发	-12235
开设	-12236
张涤	-12237
张荫	-12238
弱者	-12239
强国	-12240
强烈	-12241
形象	-12242
彭德	-12243
影片	-12244
徒刑	-12245
得住	-12246
循环	-12247
德黑	-12248
心的	-12249
必争	-12250
志气	-12251
忠心	-12252
怜惜	-12253
恐慌	-12254
恰好	-12255
恶不	-12256
恶人	-12257
悬殊	-12258
惩治	-12259
惩罚	-12260
想的	-12261
愉快	-12262
意料	-12263
我不	-12264
我处	-12265
戒律	-12266
或团	-12267
或多	-12268
或大	-12269
战则	-12270
战队	-12271
所要	-12272
手足	-12273
扩张	-12274
扫帚	-12275
把人	-12276
报社	-12277
抬头	-12278
抵触	-12279
担子	-12280
拉第	-12281
拿来	-12282
指摘	-12283
指责	-12284
挑衅	-12285
挫败	-12286
捉拿	-12287
损伤	-12288
换得	-12289
接壤	-12290
掩盖	-12291
提前	-12292
搜集	-12293
搞掉	-12294
搞的	-12295
摊派	-12296
撤换	-12297
收买	-12298
改取	-12299
改换	-12300
攻入	-12301
放得	-12302
政客	-12303
敌视	-12304
敌退	-12305
救药	-12306
散漫	-12307
数的	-12308
文的	-12309
斗志	-12310
新兵	-12311
新社	-12312
施政	-12313
无人	-12314
无关	-12315
既有	-12316
日伪	-12317
日货	-12318
旧军	-12319
早晨	-12320
时时	-12321
易于	-12322
是向	-12323
是好	-12324
暴乱	-12325
更长	-12326
曹操	-12327
最短	-12328
有着	-12329
望厦	-12330
末尾	-12331
末期	-12332
本处	-12333
机密	-12334
杂志	-12335
杂草	-12336
松劲	-12337
果能	-12338
某个	-12339
桂东	-12340
概括	-12341
正太	-12342
此后	-12343
此文	-12344
死党	-12345
比价	-12346
民力	-12347
民盟	-12348
汪记	-12349
沙面	-12350
河湖	-12351
法院	-12352
洪教	-12353
淮阴	-12354
混进	-12355
清党	-12356
清规	-12357
渔人	-12358
港汊	-12359
渴望	-12360
游乡	-12361
游移	-12362
湘东	-12363
满了	-12364
滥用	-12365
漏税	-12366
烟台	-12367
煽动	-12368
熟视	-12369
牙交	-12370
牛痘	-12371
物博	-12372
牲口	-12373
玄学	-12374
王莽	-12375
生死	-12376
甲乙	-12377
甲午	-12378
电文	-12379
电话	-12380
男子	-12381
百计	-12382
的伪	-12383
皆有	-12384
皖北	-12385
盗匪	-12386
相差	-12387
盼望	-12388
看过	-12389
真凭	-12390
真想	-12391
眼泪	-12392
睡眠	-12393
知彼	-12394
矫枉	-12395
短促	-12396
离间	-12397
称霸	-12398
移动	-12399
移山	-12400
立足	-12401
站稳	-12402
章罗	-12403
等部	-12404
筹划	-12405
篡夺	-12406
粗心	-12407
粗糙	-12408
精干	-12409
细心	-12410
终结	-12411
经手	-12412
经由	-12413
绝不	-12414
绝境	-12415
统辖	-12416
缓期	-12417
缺陷	-12418
罪名	-12419
老话	-12420
者其	-12421
而由	-12422
职务	-12423
肉刑	-12424
胶东	-12425
能使	-12426
能造	-12427
脸上	-12428
自身	-12429
航空	-12430
船舶	-12431
苏州	-12432
苏皖	-12433
药材	-12434
获胜	-12435
萌芽	-12436
落空	-12437
葫芦	-12438
蒋管	-12439
蒋鼎	-12440
虎斗	-12441
虽已	-12442
行将	-12443
裁判	-12444
西康	-12445
西欧	-12446
西进	-12447
西风	-12448
要办	-12449
要讲	-12450
要跟	-12451
覆灭	-12452
见得	-12453
训令	-12454
议决	-12455
议题	-12456
论和	-12457
设法	-12458
诉苦	-12459
试问	-12460
诚心	-12461
诚恳	-12462
诡计	-12463
请看	-12464
读本	-12465
谁个	-12466
谁就	-12467
调处	-12468
象征	-12469
豫鄂	-12470
负起	-12471
货币	-12472
资财	-12473
赔款	-12474
赶到	-12475
起劲	-12476
起而	-12477
跑掉	-12478
路之	-12479
轻微	-12480
较小	-12481
较差	-12482
辈子	-12483
辛苦	-12484
边疆	-12485
达其	-12486
过活	-12487
过火	-12488
过细	-12489
近世	-12490
近的	-12491
近视	-12492
这同	-12493
这边	-12494
进展	-12495
进程	-12496
追悼	-12497
送往	-12498
适得	-12499
逃亡	-12500
逃避	-12501
途中	-12502
通俗	-12503
通告	-12504
通报	-12505
逼得	-12506
遍于	-12507
避开	-12508
邀请	-12509
那边	-12510
酸菜	-12511
里尼	-12512
重犯	-12513
量的	-12514
针对	-12515
铁道	-12516
锄奸	-12517
镇反	-12518
闭幕	-12519
间断	-12520
闹出	-12521
阻击	-12522
陆续	-12523
降到	-12524
随意	-12525
隐瞒	-12526
隔断	-12527
雄厚	-12528
集宁	-12529
非洲	-12530
靠拢	-12531
面临	-12532
顶点	-12533
项羽	-12534
须得	-12535
顾及	-12536
预想	-12537
预见	-12538
频繁	-12539
颠倒	-12540
食盐	-12541
食粮	-12542
饥寒	-12543
饥饿	-12544
饿死	-12545
魏军	-12546
黄陂	-12547
龙冈	-12548
)、《	-12549
▁党的	-12550
▁军队	-12551
▁十一	-12552
▁十二	-12553
▁应当	-12554
▁战争	-12555
▁按照	-12556
▁既然	-12557
▁最近	-12558
▁有些	-12559
▁此外	-12560
▁第十	-12561
▁纪念	-12562
▁自从	-12563
▁还有	-12564
▁首先	-12565
一万人	-12566
一个党	-12567
一个字	-12568
一事物	-12569
一棍子	-12570
一章中	-12571
一致性	-12572
一般不	-12573
一面又	-12574
七个月	-12575
上前线	-12576
下不得	-12577
下去的	-12578
下面的	-12579
不仅是	-12580
不动手	-12581
不包括	-12582
不可不	-12583
不够的	-12584
不明了	-12585
不正常	-12586
不疲倦	-12587
不至于	-12588
不行了	-12589
不要求	-12590
不进去	-12591
与红军	-12592
世纪初	-12593
东南局	-12594
两个人	-12595
两年半	-12596
严肃的	-12597
个师团	-12598
中华民	-12599
中国和	-12600
中国要	-12601
中有数	-12602
为标准	-12603
为自己	-12604
主任的	-12605
之一切	-12606
之上的	-12607
之工具	-12608
之经验	-12609
之自由	-12610
之行为	-12611
九十五	-12612
九月间	-12613
也即是	-12614
也只是	-12615
也开始	-12616
也是在	-12617
也正在	-12618
也能够	-12619
也要作	-12620
了一点	-12621
了头脑	-12622
了很多	-12623
事物和	-12624
二十四	-12625
二者必	-12626
于一个	-12627
于一定	-12628
于北京	-12629
于我们	-12630
于是在	-12631
交朋友	-12632
人员中	-12633
人家属	-12634
亿人口	-12635
从今年	-12636
从来的	-12637
从这里	-12638
以斗争	-12639
以解决	-12640
任守备	-12641
会发生	-12642
传下去	-12643
但是他	-12644
但是这	-12645
何处去	-12646
作一次	-12647
作宣传	-12648
你就得	-12649
使用的	-12650
使那些	-12651
俄罗斯	-12652
倾思想	-12653
充足的	-12654
克服着	-12655
免疫力	-12656
全县的	-12657
全国总	-12658
全战役	-12659
全面性	-12660
六个师	-12661
六十万	-12662
六届七	-12663
兴国县	-12664
兵力的	-12665
其进攻	-12666
内容和	-12667
内部和	-12668
军阀的	-12669
军队要	-12670
决议的	-12671
准备和	-12672
减轻了	-12673
几百个	-12674
列宁说	-12675
创造力	-12676
到今天	-12677
到全国	-12678
到明年	-12679
到达于	-12680
制定的	-12681
前进了	-12682
前途是	-12683
副军长	-12684
加拿大	-12685
加步枪	-12686
努力而	-12687
勇敢而	-12688
包办的	-12689
包围了	-12690
包围和	-12691
十七条	-12692
十九个	-12693
十二条	-12694
十四个	-12695
十年的	-12696
华北和	-12697
南方各	-12698
却可以	-12699
去对付	-12700
去讨论	-12701
去领导	-12702
县一级	-12703
又一个	-12704
又不是	-12705
又互相	-12706
又反对	-12707
双方的	-12708
反对它	-12709
发出了	-12710
发展而	-12711
发挥其	-12712
发明了	-12713
发明的	-12714
发生于	-12715
发达的	-12716
变更的	-12717
只有一	-12718
只知道	-12719
只能用	-12720
可能是	-12721
各军的	-12722
各省委	-12723
同人民	-12724
同志是	-12725
向敌人	-12726
吴国桢	-12727
和前途	-12728
和去年	-12729
和地委	-12730
和处理	-12731
和它的	-12732
和实行	-12733
和将来	-12734
和工人	-12735
和工农	-12736
和所谓	-12737
和这个	-12738
和这种	-12739
和领土	-12740
和黑暗	-12741
善意的	-12742
四五十	-12743
因为你	-12744
因我之	-12745
团结了	-12746
国家里	-12747
在下面	-12748
在八月	-12749
在四围	-12750
在城市	-12751
在广东	-12752
在组织	-12753
在若干	-12754
在西北	-12755
在讨论	-12756
地理和	-12757
坏东西	-12758
坐山观	-12759
坐江山	-12760
坚持地	-12761
境内的	-12762
士兵和	-12763
处理好	-12764
外生枝	-12765
多亿斤	-12766
大中小	-12767
大乱子	-12768
大会上	-12769
大学生	-12770
大总统	-12771
大方向	-12772
大约有	-12773
大踏步	-12774
大错误	-12775
大陆上	-12776
如果只	-12777
如果照	-12778
妥协性	-12779
孙良诚	-12780
学生和	-12781
它对于	-12782
宋襄公	-12783
客观上	-12784
宣传家	-12785
对国际	-12786
对敌人	-12787
对时局	-12788
对革命	-12789
将中国	-12790
将更加	-12791
将达到	-12792
少一点	-12793
就全国	-12794
就容易	-12795
就整个	-12796
就无从	-12797
就无法	-12798
就是了	-12799
就更加	-12800
就立即	-12801
工人党	-12802
工作上	-12803
工作制	-12804
工作是	-12805
工程师	-12806
已处于	-12807
希望了	-12808
希望于	-12809
干部会	-12810
平山县	-12811
平民愤	-12812
并使之	-12813
并经过	-12814
幼稚病	-12815
应负责	-12816
建立起	-12817
开始向	-12818
开幕词	-12819
张作霖	-12820
张涤非	-12821
张荫梧	-12822
当红军	-12823
形式和	-12824
彭德怀	-12825
影响下	-12826
影响了	-12827
待俘虏	-12828
得人心	-12829
得多的	-12830
德黑兰	-12831
必然会	-12832
必须向	-12833
必须对	-12834
忠实于	-12835
忠实的	-12836
怎样办	-12837
总是在	-12838
总是有	-12839
意思呢	-12840
感到了	-12841
愿意和	-12842
成问题	-12843
我们一	-12844
我曾经	-12845
我觉得	-12846
或正在	-12847
或民主	-12848
战争之	-12849
战区副	-12850
战场的	-12851
战役上	-12852
战斗队	-12853
战术的	-12854
所以要	-12855
所以说	-12856
所作的	-12857
所反对	-12858
所吓倒	-12859
所提出	-12860
所没有	-12861
打日本	-12862
打江山	-12863
扫掉了	-12864
批评的	-12865
把人民	-12866
把农民	-12867
把红军	-12868
把问题	-12869
抗日派	-12870
报纸和	-12871
担负起	-12872
拥护的	-12873
拿着刀	-12874
持久性	-12875
指南针	-12876
指导下	-12877
指挥官	-12878
提出来	-12879
提出过	-12880
援助的	-12881
支持了	-12882
收复了	-12883
改善了	-12884
放弃了	-12885
政府为	-12886
敌人在	-12887
敌后的	-12888
教育的	-12889
文化人	-12890
新问题	-12891
新闻界	-12892
方向和	-12893
方法的	-12894
方面都	-12895
无准备	-12896
无原则	-12897
无敌于	-12898
无穷的	-12899
既然是	-12900
日寇和	-12901
旧文化	-12902
是代表	-12903
是值得	-12904
是决不	-12905
是按照	-12906
是有益	-12907
是美国	-12908
更不待	-12909
更大地	-12910
曾经在	-12911
曾经是	-12912
最困难	-12913
最坏的	-12914
有三种	-12915
有准备	-12916
有如下	-12917
有害于	-12918
有少数	-12919
有所谓	-12920
有斗争	-12921
有的是	-12922
有联系	-12923
有能力	-12924
有这个	-12925
朱培德	-12926
机关中	-12927
机械地	-12928
杂牌军	-12929
极端的	-12930
标志着	-12931
欲达到	-12932
正规化	-12933
此以后	-12934
此割据	-12935
每一种	-12936
民意的	-12937
没有讲	-12938
没有说	-12939
活下去	-12940
活动和	-12941
浓厚的	-12942
海陆丰	-12943
清朝的	-12944
激烈的	-12945
然而在	-12946
物质的	-12947
牺牲了	-12948
犬牙交	-12949
现在则	-12950
理由是	-12951
理解了	-12952
生长了	-12953
用战争	-12954
由我们	-12955
的一条	-12956
的一次	-12957
的个别	-12958
的中间	-12959
的借口	-12960
的关头	-12961
的其他	-12962
的出版	-12963
的前途	-12964
的区别	-12965
的反日	-12966
的各种	-12967
的多数	-12968
的委员	-12969
的实行	-12970
的客观	-12971
的对外	-12972
的对日	-12973
的将军	-12974
的序言	-12975
的情绪	-12976
的想法	-12977
的战术	-12978
的攻击	-12979
的是由	-12980
的最大	-12981
的杂文	-12982
的比例	-12983
的汉奸	-12984
的活动	-12985
的真理	-12986
的知识	-12987
的继续	-12988
的缺点	-12989
的英勇	-12990
的范围	-12991
的规划	-12992
的诺言	-12993
的通知	-12994
的那些	-12995
盲目性	-12996
相对地	-12997
相对立	-12998
看得见	-12999
着不动	-13000
矛盾和	-13001
短期内	-13002
石头打	-13003
确定地	-13004
确实是	-13005
社会党	-13006
神圣的	-13007
秘密的	-13008
移到了	-13009
空前地	-13010
立场的	-13011
第一师	-13012
等方面	-13013
管理费	-13014
类型的	-13015
粉碎了	-13016
精神的	-13017
糟得很	-13018
紧张的	-13019
纪律性	-13020
纸上的	-13021
组织性	-13022
组织法	-13023
经不起	-13024
经历过	-13025
结合了	-13026
编辑部	-13027
缩小了	-13028
老资格	-13029
而对于	-13030
耕田队	-13031
联盟的	-13032
肃清了	-13033
肯定了	-13034
脱离了	-13035
腐朽的	-13036
自动地	-13037
自己也	-13038
至十月	-13039
英国人	-13040
蒋总统	-13041
蒋鼎文	-13042
行动中	-13043
被改造	-13044
被歼灭	-13045
被迫着	-13046
西北局	-13047
西北部	-13048
西方的	-13049
要完成	-13050
要按照	-13051
要提倡	-13052
要求和	-13053
见之于	-13054
规律的	-13055
言不及	-13056
警觉性	-13057
认识了	-13058
讲道理	-13059
说得好	-13060
说来是	-13061
请中央	-13062
谈一谈	-13063
豫皖苏	-13064
责任心	-13065
路线的	-13066
较少的	-13067
达到的	-13068
达拉第	-13069
还不算	-13070
这一场	-13071
这一手	-13072
这不好	-13073
这两点	-13074
这两者	-13075
这些是	-13076
这些都	-13077
这几天	-13078
这时候	-13079
这是和	-13080
这样去	-13081
这样来	-13082
选出的	-13083
逻辑学	-13084
遇到了	-13085
那一年	-13086
那也是	-13087
那就会	-13088
部队中	-13089
都属于	-13090
都是由	-13091
酝酿着	-13092
野蛮性	-13093
附近的	-13094
陆战队	-13095
集中了	-13096
集中到	-13097
集中和	-13098
靠我们	-13099
革命到	-13100
首先要	-13101
马德里	-13102
驻中国	-13103
高明的	-13104
▁什么是	-13105
▁梁漱溟	-13106
▁现在的	-13107
▁第一点	-13108
▁第三节	-13109
▁艾奇逊	-13110
▁青年团	-13111
一万余人	-13112
一个主义	-13113
一些什么	-13114
一些地方	-13115
一些时间	-13116
一切反对	-13117
一切经过	-13118
一定不要	-13119
一定要有	-13120
一开始就	-13121
一点错误	-13122
一致抗日	-13123
一般纲领	-13124
三十五军	-13125
上的演说	-13126
上的问题	-13127
上级机关	-13128
上述种种	-13129
上述这些	-13130
下不得台	-13131
不准人家	-13132
不去注意	-13133
不可忽视	-13134
不彻底性	-13135
不是一个	-13136
不管怎样	-13137
不良现象	-13138
不过是一	-13139
东北人民	-13140
丝毫也不	-13141
两件大事	-13142
严重打击	-13143
个别的人	-13144
个合作社	-13145
中国政治	-13146
中国本部	-13147
中国现在	-13148
中国经济	-13149
中国领土	-13150
中央关于	-13151
中央认为	-13152
中的许多	-13153
中等城市	-13154
中间派是	-13155
为主要的	-13156
为了反对	-13157
为出发点	-13158
为国民党	-13159
为工农兵	-13160
为蒋介石	-13161
主力兵团	-13162
主要地位	-13163
主要敌人	-13164
举行起义	-13165
也不是说	-13166
也发生了	-13167
也可以用	-13168
也就没有	-13169
也是一个	-13170
也是没有	-13171
也是由于	-13172
书本知识	-13173
乱说乱动	-13174
了国民党	-13175
争取多数	-13176
争取时间	-13177
争取胜利	-13178
二万余人	-13179
二百万人	-13180
二百二十	-13181
互助条约	-13182
互相勾结	-13183
互相配合	-13184
五年左右	-13185
亲日分子	-13186
人力资源	-13187
人口众多	-13188
人民方面	-13189
人类社会	-13190
什么事情	-13191
今年三月	-13192
今年六月	-13193
从思想上	-13194
从斗争中	-13195
他们不但	-13196
他们不能	-13197
他们就不	-13198
他们是不	-13199
他们知道	-13200
他们赞成	-13201
他们还要	-13202
代表农民	-13203
以及由此	-13204
任何党派	-13205
任何地方	-13206
任何时候	-13207
但是一切	-13208
但是不能	-13209
但是到了	-13210
作了一些	-13211
你梁漱溟	-13212
使我们在	-13213
侵入中国	-13214
保存军力	-13215
保安部队	-13216
先行停战	-13217
先进经验	-13218
光明日报	-13219
党和人民	-13220
党和军队	-13221
党和政府	-13222
党政军民	-13223
党政组织	-13224
全世界的	-13225
全体同胞	-13226
全党全军	-13227
全党都要	-13228
全国民主	-13229
全部歼灭	-13230
公营经济	-13231
六千余人	-13232
共同工作	-13233
共同抗日	-13234
具体地说	-13235
内战前途	-13236
内战时期	-13237
再三再四	-13238
军事路线	-13239
军民兼顾	-13240
军队干部	-13241
农会的人	-13242
农民组织	-13243
农民自己	-13244
农民革命	-13245
决定性的	-13246
决然不能	-13247
准备好了	-13248
准备工作	-13249
几个月来	-13250
几千年来	-13251
凡四十年	-13252
出现一个	-13253
出钱出枪	-13254
分散经营	-13255
到那里去	-13256
加以改正	-13257
劳动模范	-13258
劳动群众	-13259
势盛地方	-13260
包围迂回	-13261
包括一切	-13262
区和省市	-13263
十一个师	-13264
十九个旅	-13265
十分困难	-13266
半途而废	-13267
卖国协定	-13268
南昌起义	-13269
占大多数	-13270
占领区域	-13271
历史意义	-13272
历史环境	-13273
压迫剥削	-13274
压迫平民	-13275
原则上的	-13276
原则性的	-13277
县委书记	-13278
及其附近	-13279
友党友军	-13280
反对敌人	-13281
发生变化	-13282
发表声明	-13283
发表谈话	-13284
发言人的	-13285
取消边区	-13286
另外一种	-13287
只占少数	-13288
召开党的	-13289
可以燎原	-13290
,	-13291
的	-13292
。	-13293
是	-13294
一	-13295
国	-13296
不	-13297
民	-13298
在	-13299
中	-13300
人	-13301
和	-13302
这	-13303
有	-13304
们	-13305
主	-13306
了	-13307
▁	-13308
、	-13309
地	-13310
战	-13311
个	-13312
我	-13313
要	-13314
党	-13315
义	-13316
大	-13317
军	-13318
就	-13319
以	-13320
为	-13321
政	-13322
产	-13323
会	-13324
对	-13325
作	-13326
年	-13327
争	-13328
于	-13329
反	-13330
日	-13331
他	-13332
上	-13333
命	-13334
动	-13335
时	-13336
革	-13337
方	-13338
分	-13339
“	-13340
”	-13341
)	-13342
(	-13343
来	-13344
阶	-13345
工	-13346
能	-13347
同	-13348
十	-13349
之	-13350
本	-13351
农	-13352
级	-13353
全	-13354
而	-13355
三	-13356
也	-13357
经	-13358
共	-13359
部	-13360
九	-13361
发	-13362
到	-13363
-	-13364
力	-13365
二	-13366
种	-13367
第	-13368
行	-13369
所	-13370
些	-13371
可	-13372
事	-13373
进	-13374
社	-13375
多	-13376
生	-13377
内	-13378
后	-13379
面	-13380
实	-13381
现	-13382
四	-13383
成	-13384
过	-13385
说	-13386
得	-13387
自	-13388
解	-13389
出	-13390
月	-13391
还	-13392
问	-13393
敌	-13394
其	-13395
区	-13396
当	-13397
利	-13398
抗	-13399
但	-13400
资	-13401
题	-13402
五	-13403
没	-13404
法	-13405
合	-13406
各	-13407
都	-13408
决	-13409
者	-13410
去	-13411
必	-13412
应	-13413
下	-13414
起	-13415
那	-13416
样	-13417
治	-13418
如	-13419
因	-13420
正	-13421
领	-13422
斗	-13423
定	-13424
立	-13425
东	-13426
队	-13427
建	-13428
家	-13429
无	-13430
新	-13431
性	-13432
放	-13433
统	-13434
子	-13435
意	-13436
前	-13437
结	-13438
派	-13439
众	-13440
论	-13441
点	-13442
;	-13443
切	-13444
两	-13445
好	-13446
团	-13447
只	-13448
用	-13449
关	-13450
?	-13451
八	-13452
西	-13453
线	-13454
业	-13455
学	-13456
使	-13457
帝	-13458
然	-13459
展	-13460
改	-13461
员	-13462
由	-13463
打	-13464
取	-13465
须	-13466
化	-13467
变	-13468
重	-13469
开	-13470
次	-13471
从	-13472
〔	-13473
〕	-13474
导	-13475
条	-13476
任	-13477
此	-13478
府	-13479
间	-13480
文	-13481
思	-13482
1	-13483
群	-13484
加	-13485
它	-13486
已	-13487
情	-13488
向	-13489
么	-13490
期	-13491
:	-13492
则	-13493
将	-13494
并	-13495
或	-13496
着	-13497
很	-13498
相	-13499
七	-13500
《	-13501
》	-13502
又	-13503
平	-13504
等	-13505
路	-13506
表	-13507
联	-13508
看	-13509
策	-13510
击	-13511
攻	-13512
想	-13513
北	-13514
外	-13515
胜	-13516
族	-13517
制	-13518
理	-13519
六	-13520
略	-13521
把	-13522
里	-13523
指	-13524
量	-13525
果	-13526
许	-13527
长	-13528
件	-13529
见	-13530
运	-13531
志	-13532
错	-13533
明	-13534
界	-13535
根	-13536
议	-13537
势	-13538
南	-13539
己	-13540
据	-13541
度	-13542
小	-13543
百	-13544
组	-13545
认	-13546
济	-13547
形	-13548
做	-13549
代	-13550
什	-13551
数	-13552
你	-13553
集	-13554
干	-13555
机	-13556
原	-13557
最	-13558
完	-13559
误	-13560
被	-13561
土	-13562
蒋	-13563
提	-13564
万	-13565
基	-13566
体	-13567
兵	-13568
总	-13569
至	-13570
及	-13571
克	-13572
步	-13573
少	-13574
央	-13575
务	-13576
美	-13577
目	-13578
石	-13579
高	-13580
权	-13581
注	-13582
知	-13583
即	-13584
确	-13585
特	-13586
几	-13587
矛	-13588
盾	-13589
办	-13590
识	-13591
教	-13592
整	-13593
别	-13594
世	-13595
极	-13596
观	-13597
织	-13598
比	-13599
天	-13600
处	-13601
#	-13602
系	-13603
介	-13604
广	-13605
规	-13606
心	-13607
先	-13608
委	-13609
给	-13610
红	-13611
道	-13612
才	-13613
且	-13614
段	-13615
山	-13616
2	-13617
造	-13618
计	-13619
强	-13620
物	-13621
况	-13622
呢	-13623
何	-13624
助	-13625
失	-13626
际	-13627
坚	-13628
马	-13629
灭	-13630
备	-13631
游	-13632
宁	-13633
保	-13634
活	-13635
持	-13636
围	-13637
准	-13638
今	-13639
消	-13640
该	-13641
求	-13642
武	-13643
苏	-13644
批	-13645
难	-13646
固	-13647
更	-13648
省	-13649
局	-13650
—	-13651
封	-13652
城	-13653
真	-13654
存	-13655
市	-13656
入	-13657
破	-13658
3	-13659
口	-13660
参	-13661
历	-13662
村	-13663
报	-13664
华	-13665
受	-13666
占	-13667
服	-13668
半	-13669
史	-13670
讲	-13671
划	-13672
败	-13673
公	-13674
犯	-13675
毛	-13676
针	-13677
迫	-13678
候	-13679
程	-13680
协	-13681
式	-13682
谓	-13683
验	-13684
较	-13685
采	-13686
位	-13687
接	-13688
县	-13689
张	-13690
宣	-13691
够	-13692
安	-13693
头	-13694
侵	-13695
卷	-13696
坏	-13697
右	-13698
列	-13699
言	-13700
书	-13701
质	-13702
手	-13703
设	-13704
话	-13705
泽	-13706
压	-13707
4	-13708
具	-13709
商	-13710
令	-13711
再	-13712
包	-13713
清	-13714
风	-13715
需	-13716
互	-13717
老	-13718
愿	-13719
转	-13720
收	-13721
斯	-13722
止	-13723
英	-13724
达	-13725
富	-13726
边	-13727
左	-13728
降	-13729
究	-13730
通	-13731
态	-13732
谈	-13733
常	-13734
非	-13735
始	-13736
益	-13737
装	-13738
信	-13739
复	-13740
依	-13741
倾	-13742
官	-13743
积	-13744
投	-13745
走	-13746
防	-13747
除	-13748
乡	-13749
证	-13750
每	-13751
劳	-13752
底	-13753
严	-13754
调	-13755
千	-13756
7	-13757
困	-13758
项	-13759
示	-13760
独	-13761
评	-13762
举	-13763
绝	-13764
退	-13765
江	-13766
传	-13767
9	-13768
照	-13769
例	-13770
却	-13771
告	-13772
育	-13773
士	-13774
5	-13775
与	-13776
继	-13777
专	-13778
推	-13779
判	-13780
增	-13781
象	-13782
精	-13783
适	-13784
术	-13785
容	-13786
役	-13787
曾	-13788
续	-13789
律	-13790
觉	-13791
否	-13792
海	-13793
布	-13794
靠	-13795
师	-13796
汉	-13797
叫	-13798
援	-13799
础	-13800
习	-13801
首	-13802
约	-13803
场	-13804
望	-13805
白	-13806
虽	-13807
直	-13808
便	-13809
倒	-13810
版	-13811
歼	-13812
卫	-13813
杀	-13814
号	-13815
德	-13816
研	-13817
离	-13818
旧	-13819
危	-13820
巩	-13821
京	-13822
剿	-13823
吗	-13824
致	-13825
交	-13826
类	-13827
缺	-13828
选	-13829
逐	-13830
速	-13831
久	-13832
记	-13833
某	-13834
6	-13835
写	-13836
护	-13837
余	-13838
死	-13839
待	-13840
查	-13841
负	-13842
减	-13843
支	-13844
青	-13845
爱	-13846
充	-13847
盟	-13848
希	-13849
怕	-13850
孙	-13851
帮	-13852
艺	-13853
优	-13854
承	-13855
气	-13856
责	-13857
害	-13858
伟	-13859
彻	-13860
纲	-13861
单	-13862
回	-13863
空	-13864
弱	-13865
河	-13866
贫	-13867
普	-13868
名	-13869
另	-13870
近	-13871
林	-13872
般	-13873
未	-13874
神	-13875
召	-13876
按	-13877
搞	-13878
营	-13879
限	-13880
让	-13881
执	-13882
努	-13883
殖	-13884
释	-13885
水	-13886
财	-13887
章	-13888
属	-13889
仅	-13890
停	-13891
足	-13892
怎	-13893
扩	-13894
挥	-13895
往	-13896
旅	-13897
模	-13898
范	-13899
!	-13900
守	-13901
引	-13902
流	-13903
8	-13904
亡	-13905
带	-13906
懂	-13907
苦	-13908
险	-13909
科	-13910
善	-13911
称	-13912
延	-13913
救	-13914
配	-13915
管	-13916
算	-13917
纪	-13918
响	-13919
太	-13920
仍	-13921
影	-13922
御	-13923
易	-13924
括	-13925
料	-13926
断	-13927
视	-13928
乱	-13929
阵	-13930
宗	-13931
深	-13932
陕	-13933
末	-13934
节	-13935
门	-13936
迅	-13937
唯	-13938
州	-13939
远	-13940
察	-13941
讨	-13942
字	-13943
散	-13944
践	-13945
遍	-13946
域	-13947
粮	-13948
免	-13949
奸	-13950
轻	-13951
仗	-13952
身	-13953
〇	-13954
赞	-13955
宪	-13956
顾	-13957
获	-13958
尽	-13959
草	-13960
拿	-13961
跟	-13962
均	-13963
若	-13964
落	-13965
奋	-13966
状	-13967
谁	-13968
辩	-13969
企	-13970
境	-13971
感	-13972
声	-13973
训	-13974
削	-13975
满	-13976
吃	-13977
甚	-13978
紧	-13979
编	-13980
私	-13981
请	-13982
0	-13983
层	-13984
格	-13985
片	-13986
快	-13987
湖	-13988
顽	-13989
僚	-13990
拥	-13991
暂	-13992
朝	-13993
尔	-13994
校	-13995
劣	-13996
罪	-13997
述	-13998
台	-13999
司	-14000
绅	-14001
食	-14002
图	-14003
密	-14004
估	-14005
剥	-14006
客	-14007
随	-14008
掉	-14009
甘	-14010
兴	-14011
担	-14012
析	-14013
功	-14014
标	-14015
越	-14016
伪	-14017
凡	-14018
谋	-14019
篇	-14020
束	-14021
残	-14022
光	-14023
敢	-14024
尚	-14025
潮	-14026
>	-14027
听	-14028
品	-14029
连	-14030
摇	-14031
早	-14032
裂	-14033
友	-14034
永	-14035
野	-14036
器	-14037
夺	-14038
乎	-14039
妥	-14040
像	-14041
孤	-14042
既	-14043
语	-14044
途	-14045
毫	-14046
违	-14047
阀	-14048
电	-14049
良	-14050
镇	-14051
付	-14052
湘	-14053
租	-14054
翻	-14055
陈	-14056
俄	-14057
创	-14058
疑	-14059
恢	-14060
热	-14061
案	-14062
脱	-14063
色	-14064
初	-14065
晋	-14066
素	-14067
弃	-14068
维	-14069
股	-14070
王	-14071
环	-14072
效	-14073
避	-14074
纸	-14075
急	-14076
恶	-14077
威	-14078
殊	-14079
绩	-14080
悟	-14081
损	-14082
李	-14083
双	-14084
找	-14085
终	-14086
施	-14087
突	-14088
站	-14089
鲁	-14090
住	-14091
卖	-14092
阳	-14093
.	-14094
闹	-14095
阴	-14096
页	-14097
冈	-14098
考	-14099
亦	-14100
奇	-14101
故	-14102
费	-14103
亲	-14104
元	-14105
留	-14106
勇	-14107
差	-14108
息	-14109
背	-14110
纵	-14111
借	-14112
修	-14113
假	-14114
周	-14115
句	-14116
楚	-14117
源	-14118
古	-14119
征	-14120
答	-14121
豪	-14122
欢	-14123
肃	-14124
予	-14125
枪	-14126
抵	-14127
材	-14128
户	-14129
移	-14130
买	-14131
显	-14132
纠	-14133
陷	-14134
渐	-14135
届	-14136
暴	-14137
概	-14138
汪	-14139
低	-14140
简	-14141
归	-14142
置	-14143
病	-14144
禁	-14145
洋	-14146
黄	-14147
订	-14148
演	-14149
裕	-14150
伍	-14151
供	-14152
促	-14153
席	-14154
春	-14155
叛	-14156
废	-14157
洲	-14158
竟	-14159
跑	-14160
黑	-14161
冒	-14162
波	-14163
烈	-14164
艰	-14165
遇	-14166
临	-14167
割	-14168
夫	-14169
福	-14170
季	-14171
技	-14172
乏	-14173
寇	-14174
渡	-14175
绥	-14176
超	-14177
乃	-14178
扫	-14179
附	-14180
丧	-14181
率	-14182
厂	-14183
缩	-14184
套	-14185
念	-14186
职	-14187
刻	-14188
映	-14189
欧	-14190
藏	-14191
诚	-14192
骤	-14193
替	-14194
著	-14195
[	-14196
]	-14197
冀	-14198
衡	-14199
顿	-14200
排	-14201
握	-14202
短	-14203
练	-14204
花	-14205
亿	-14206
皮	-14207
脑	-14208
丰	-14209
尤	-14210
田	-14211
碍	-14212
补	-14213
裁	-14214
警	-14215
恩	-14216
杂	-14217
贵	-14218
钱	-14219
倡	-14220
养	-14221
庆	-14222
撤	-14223
端	-14224
豫	-14225
遭	-14226
稳	-14227
细	-14228
伐	-14229
诸	-14230
齐	-14231
吸	-14232
津	-14233
耕	-14234
赣	-14235
逃	-14236
阻	-14237
露	-14238
预	-14239
川	-14240
拒	-14241
构	-14242
艾	-14243
刘	-14244
眼	-14245
税	-14246
纯	-14247
罗	-14248
罢	-14249
价	-14250
副	-14251
呀	-14252
熟	-14253
逊	-14254
暗	-14255
虑	-14256
饭	-14257
驻	-14258
巴	-14259
混	-14260
偏	-14261
匪	-14262
忽	-14263
狗	-14264
痛	-14265
肯	-14266
鼓	-14267
捕	-14268
检	-14269
毒	-14270
火	-14271
皖	-14272
骂	-14273
女	-14274
弹	-14275
骗	-14276
似	-14277
兼	-14278
冬	-14279
控	-14280
污	-14281
遵	-14282
泛	-14283
哪	-14284
异	-14285
金	-14286
亚	-14287
值	-14288
灵	-14289
折	-14290
换	-14291
盲	-14292
伤	-14293
俘	-14294
抓	-14295
障	-14296
兰	-14297
粉	-14298
欺	-14299
牙	-14300
蒙	-14301
血	-14302
迎	-14303
冲	-14304
勒	-14305
鸣	-14306
庄	-14307
怀	-14308
虎	-14309
拉	-14310
爆	-14311
牲	-14312
龙	-14313
宜	-14314
惩	-14315
秀	-14316
铁	-14317
雄	-14318
掌	-14319
揭	-14320
浪	-14321
胡	-14322
闻	-14323
陆	-14324
仁	-14325
休	-14326
型	-14327
序	-14328
朋	-14329
款	-14330
班	-14331
登	-14332
碎	-14333
送	-14334
骨	-14335
伯	-14336
怪	-14337
涉	-14338
块	-14339
激	-14340
秋	-14341
脚	-14342
院	-14343
井	-14344
含	-14345
忘	-14346
梁	-14347
读	-14348
贯	-14349
酷	-14350
勤	-14351
托	-14352
牺	-14353
鲜	-14354
尾	-14355
淮	-14356
漱	-14357
牛	-14358
吧	-14359
弄	-14360
械	-14361
沙	-14362
炮	-14363
签	-14364
诉	-14365
飞	-14366
允	-14367
皇	-14368
虚	-14369
雇	-14370
倍	-14371
尊	-14372
恰	-14373
符	-14374
顺	-14375
斥	-14376
星	-14377
溃	-14378
绪	-14379
沈	-14380
炼	-14381
硬	-14382
荣	-14383
锻	-14384
‘	-14385
刚	-14386
喜	-14387
摆	-14388
朱	-14389
灾	-14390
辛	-14391
鄂	-14392
锐	-14393
刊	-14394
妨	-14395
徒	-14396
曲	-14397
洛	-14398
耗	-14399
遗	-14400
恐	-14401
监	-14402
词	-14403
驱	-14404
·	-14405
叶	-14406
岁	-14407
穷	-14408
贪	-14409
抽	-14410
旗	-14411
沿	-14412
迷	-14413
松	-14414
秘	-14415
输	-14416
辽	-14417
骄	-14418
奴	-14419
宝	-14420
焘	-14421
翼	-14422
傲	-14423
剩	-14424
垒	-14425
欲	-14426
督	-14427
虏	-14428
锋	-14429
锦	-14430
厉	-14431
吓	-14432
姓	-14433
尼	-14434
惯	-14435
抛	-14436
累	-14437
腐	-14438
逮	-14439
销	-14440
尖	-14441
忠	-14442
愈	-14443
慢	-14444
扬	-14445
曰	-14446
祝	-14447
米	-14448
驳	-14449
居	-14450
惨	-14451
横	-14452
’	-14453
岛	-14454
座	-14455
桥	-14456
署	-14457
袭	-14458
追	-14459
乘	-14460
净	-14461
印	-14462
唐	-14463
巨	-14464
沟	-14465
浙	-14466
缘	-14467
药	-14468
袁	-14469
袖	-14470
车	-14471
遣	-14472
儿	-14473
审	-14474
捉	-14475
树	-14476
烧	-14477
诱	-14478
赶	-14479
吴	-14480
挑	-14481
杨	-14482
狂	-14483
秩	-14484
缴	-14485
胞	-14486
陵	-14487
岗	-14488
毁	-14489
薄	-14490
励	-14491
医	-14492
呼	-14493
坐	-14494
氏	-14495
趋	-14496
邓	-14497
雨	-14498
妇	-14499
屠	-14500
徐	-14501
惜	-14502
试	-14503
辖	-14504
鉴	-14505
霸	-14506
饶	-14507
亥	-14508
匈	-14509
坦	-14510
堡	-14511
孔	-14512
悲	-14513
昌	-14514
缓	-14515
胁	-14516
迟	-14517
云	-14518
刀	-14519
唤	-14520
宋	-14521
庭	-14522
慎	-14523
拖	-14524
旬	-14525
汇	-14526
涨	-14527
盛	-14528
辑	-14529
锁	-14530
丝	-14531
债	-14532
劝	-14533
夏	-14534
择	-14535
搬	-14536
疲	-14537
筑	-14538
赖	-14539
哲	-14540
夜	-14541
磨	-14542
纳	-14543
纷	-14544
赤	-14545
辟	-14546
卢	-14547
宽	-14548
戒	-14549
扶	-14550
湾	-14551
遂	-14552
升	-14553
壮	-14554
崩	-14555
店	-14556
惧	-14557
斤	-14558
瓦	-14559
穿	-14560
舆	-14561
衣	-14562
贼	-14563
零	-14564
麻	-14565
健	-14566
刑	-14567
吹	-14568
幼	-14569
皆	-14570
筹	-14571
索	-14572
荒	-14573
触	-14574
辅	-14575
勾	-14576
君	-14577
幸	-14578
彼	-14579
恨	-14580
房	-14581
播	-14582
盘	-14583
阎	-14584
阿	-14585
颇	-14586
香	-14587
吉	-14588
幕	-14589
招	-14590
歌	-14591
甲	-14592
罚	-14593
讯	-14594
丢	-14595
份	-14596
凭	-14597
嘱	-14598
忙	-14599
戏	-14600
授	-14601
笑	-14602
籍	-14603
莫	-14604
角	-14605
诺	-14606
货	-14607
贸	-14608
闽	-14609
乐	-14610
幻	-14611
悉	-14612
挽	-14613
糊	-14614
颁	-14615
伙	-14616
伦	-14617
宇	-14618
措	-14619
智	-14620
沦	-14621
男	-14622
盐	-14623
祖	-14624
秦	-14625
茨	-14626
谨	-14627
典	-14628
晓	-14629
木	-14630
洗	-14631
洞	-14632
狭	-14633
荡	-14634
课	-14635
赫	-14636
距	-14637
迁	-14638
哈	-14639
嘛	-14640
寻	-14641
徽	-14642
忍	-14643
戴	-14644
杜	-14645
桂	-14646
梦	-14647
溟	-14648
睡	-14649
祸	-14650
综	-14651
菜	-14652
吏	-14653
吨	-14654
唱	-14655
埃	-14656
宙	-14657
掠	-14658
擦	-14659
枝	-14660
核	-14661
番	-14662
稍	-14663
耐	-14664
舰	-14665
钻	-14666
韩	-14667
鬼	-14668
册	-14669
凯	-14670
惊	-14671
愤	-14672
拚	-14673
挺	-14674
摧	-14675
肉	-14676
舞	-14677
锄	-14678
仇	-14679
仰	-14680
壁	-14681
夸	-14682
康	-14683
录	-14684
操	-14685
貌	-14686
郑	-14687
鸦	-14688
凶	-14689
勉	-14690
圣	-14691
培	-14692
奉	-14693
摸	-14694
毕	-14695
笔	-14696
谢	-14697
贺	-14698
银	-14699
陇	-14700
亏	-14701
冷	-14702
剧	-14703
塞	-14704
旁	-14705
涂	-14706
粗	-14707
脸	-14708
蔑	-14709
蔽	-14710
详	-14711
趣	-14712
醒	-14713
钦	-14714
键	-14715
隔	-14716
墙	-14717
捣	-14718
泼	-14719
炸	-14720
竭	-14721
软	-14722
逻	-14723
震	-14724
劲	-14725
味	-14726
岂	-14727
崇	-14728
弟	-14729
挫	-14730
毅	-14731
猖	-14732
猛	-14733
碰	-14734
聚	-14735
谣	-14736
贷	-14737
载	-14738
锡	-14739
颂	-14740
鸡	-14741
侧	-14742
俭	-14743
帜	-14744
帽	-14745
微	-14746
扎	-14747
烟	-14748
肥	-14749
脉	-14750
腔	-14751
蛮	-14752
赵	-14753
逼	-14754
钢	-14755
鱼	-14756
厚	-14757
惟	-14758
挨	-14759
疆	-14760
蛇	-14761
购	-14762
跃	-14763
轨	-14764
钳	-14765
隘	-14766
雷	-14767
亩	-14768
享	-14769
俗	-14770
吞	-14771
堂	-14772
奖	-14773
妙	-14774
庞	-14775
惑	-14776
捷	-14777
描	-14778
旦	-14779
架	-14780
歧	-14781
浦	-14782
港	-14783
玉	-14784
礼	-14785
聪	-14786
谭	-14787
隶	-14788
刺	-14789
妄	-14790
振	-14791
捐	-14792
掩	-14793
曹	-14794
歇	-14795
洪	-14796
灰	-14797
牵	-14798
猪	-14799
献	-14800
球	-14801
瑞	-14802
睛	-14803
竞	-14804
繁	-14805
绍	-14806
绕	-14807
网	-14808
肆	-14809
蔡	-14810
谦	-14811
谷	-14812
赴	-14813
丁	-14814
侨	-14815
冯	-14816
帅	-14817
忧	-14818
敬	-14819
昏	-14820
油	-14821
泉	-14822
耳	-14823
舒	-14824
船	-14825
轰	-14826
酃	-14827
隙	-14828
静	-14829
侦	-14830
侮	-14831
偷	-14832
堆	-14833
射	-14834
摘	-14835
泰	-14836
牌	-14837
画	-14838
缚	-14839
茶	-14840
荫	-14841
赛	-14842
逆	-14843
顶	-14844
仓	-14845
佛	-14846
兄	-14847
剂	-14848
垄	-14849
塘	-14850
寄	-14851
寡	-14852
峰	-14853
愚	-14854
拨	-14855
朽	-14856
禧	-14857
航	-14858
账	-14859
辱	-14860
隐	-14861
饿	-14862
乌	-14863
佃	-14864
博	-14865
埋	-14866
抱	-14867
拟	-14868
晚	-14869
杭	-14870
板	-14871
汽	-14872
筋	-14873
莲	-14874
蛋	-14875
街	-14876
谊	-14877
贤	-14878
闭	-14879
黎	-14880
伏	-14881
伴	-14882
伸	-14883
叙	-14884
夹	-14885
岸	-14886
彭	-14887
旨	-14888
畏	-14889
畜	-14890
畴	-14891
矿	-14892
祥	-14893
稚	-14894
绿	-14895
翘	-14896
胆	-14897
腊	-14898
衰	-14899
覆	-14900
贡	-14901
轮	-14902
迹	-14903
醴	-14904
丑	-14905
仲	-14906
孩	-14907
屈	-14908
屋	-14909
庸	-14910
廷	-14911
循	-14912
惕	-14913
慕	-14914
抢	-14915
杆	-14916
榜	-14917
潭	-14918
爷	-14919
耻	-14920
透	-14921
酿	-14922
饥	-14923
乙	-14924
傅	-14925
刮	-14926
塌	-14927
尘	-14928
岳	-14929
币	-14930
忌	-14931
挖	-14932
摊	-14933
沉	-14934
融	-14935
蠢	-14936
辉	-14937
郭	-14938
酝	-14939
雀	-14940
C	-14941
仿	-14942
午	-14943
启	-14944
啊	-14945
姿	-14946
怨	-14947
悔	-14948
截	-14949
景	-14950
毙	-14951
浅	-14952
浩	-14953
漏	-14954
烦	-14955
盖	-14956
盗	-14957
瞎	-14958
粤	-14959
缔	-14960
萨	-14961
蒲	-14962
译	-14963
辈	-14964
邦	-14965
酌	-14966
锴	-14967
雪	-14968
靖	-14969
佣	-14970
勃	-14971
勋	-14972
圈	-14973
峙	-14974
惠	-14975
抬	-14976
拯	-14977
挂	-14978
旋	-14979
歪	-14980
殷	-14981
汤	-14982
溪	-14983
滥	-14984
犹	-14985
眉	-14986
矣	-14987
糟	-14988
耀	-14989
蚀	-14990
谅	-14991
赢	-14992
躁	-14993
逸	-14994
铭	-14995
佩	-14996
吐	-14997
嘴	-14998
垮	-14999
廉	-15000
彪	-15001
怒	-15002
患	-15003
懈	-15004
扣	-15005
扰	-15006
探	-15007
擅	-15008
敷	-15009
植	-15010
榆	-15011
洁	-15012
浮	-15013
潜	-15014
胶	-15015
蓄	-15016
谬	-15017
贴	-15018
赌	-15019
邀	-15020
铜	-15021
额	-15022
魏	-15023
鼎	-15024
亮	-15025
仙	-15026
僵	-15027
孟	-15028
寸	-15029
巢	-15030
弯	-15031
拔	-15032
拢	-15033
柴	-15034
棍	-15035
欣	-15036
烂	-15037
狱	-15038
申	-15039
稿	-15040
臭	-15041
舍	-15042
虫	-15043
衍	-15044
袱	-15045
赋	-15046
赏	-15047
辨	-15048
迂	-15049
阁	-15050
丘	-15051
匹	-15052
卡	-15053
吁	-15054
哥	-15055
垂	-15056
巧	-15057
庐	-15058
忱	-15059
慈	-15060
押	-15061
敲	-15062
泄	-15063
疯	-15064
砍	-15065
苛	-15066
辞	-15067
酒	-15068
钧	-15069
鸭	-15070
龄	-15071
丙	-15072
仑	-15073
伊	-15074
佐	-15075
奥	-15076
寒	-15077
巡	-15078
怖	-15079
怜	-15080
抹	-15081
拳	-15082
挠	-15083
挣	-15084
棋	-15085
毖	-15086
沂	-15087
浏	-15088
淆	-15089
牢	-15090
牧	-15091
疾	-15092
码	-15093
箭	-15094
芦	-15095
莽	-15096
菩	-15097
薪	-15098
贝	-15099
贩	-15100
赔	-15101
辙	-15102
邱	-15103
铺	-15104
陶	-15105
'	-15106
倘	-15107
偶	-15108
偿	-15109
厌	-15110
吾	-15111
售	-15112
圩	-15113
墨	-15114
她	-15115
库	-15116
径	-15117
怠	-15118
搜	-15119
撕	-15120
昭	-15121
柏	-15122
母	-15123
氓	-15124
泪	-15125
浓	-15126
焉	-15127
父	-15128
疫	-15129
矩	-15130
禹	-15131
粟	-15132
络	-15133
聿	-15134
胀	-15135
荷	-15136
讥	-15137
踏	-15138
返	-15139
郊	-15140
钓	-15141
闲	-15142
颠	-15143
〈	-15144
〉	-15145
串	-15146
亟	-15147
仪	-15148
佳	-15149
凤	-15150
刷	-15151
劫	-15152
坛	-15153
堪	-15154
嫡	-15155
宿	-15156
寿	-15157
戡	-15158
扯	-15159
拘	-15160
挡	-15161
插	-15162
朗	-15163
杰	-15164
桃	-15165
棉	-15166
楼	-15167
汾	-15168
沽	-15169
涌	-15170
涤	-15171
漫	-15172
祠	-15173
祺	-15174
糖	-15175
肩	-15176
腰	-15177
茅	-15178
询	-15179
阅	-15180
霄	-15181
音	-15182
饷	-15183
魂	-15184
倦	-15185
卒	-15186
卓	-15187
坑	-15188
埔	-15189
孚	-15190
室	-15191
屯	-15192
廖	-15193
弥	-15194
彩	-15195
悬	-15196
慌	-15197
拍	-15198
捧	-15199
掀	-15200
撑	-15201
旱	-15202
昆	-15203
晨	-15204
枢	-15205
桌	-15206
森	-15207
汀	-15208
泥	-15209
滑	-15210
玩	-15211
矢	-15212
绳	-15213
羊	-15214
耿	-15215
膨	-15216
藐	-15217
谍	-15218
谎	-15219
隆	-15220
雅	-15221
驰	-15222
Q	-15223
删	-15224
卅	-15225
哇	-15226
哉	-15227
喝	-15228
嚣	-15229
壤	-15230
奏	-15231
奠	-15232
嫌	-15233
寨	-15234
屡	-15235
庙	-15236
恳	-15237
慧	-15238
戊	-15239
抄	-15240
抑	-15241
敦	-15242
朴	-15243
梭	-15244
汗	-15245
汝	-15246
浒	-15247
淫	-15248
温	-15249
炭	-15250
炳	-15251
煌	-15252
痞	-15253
稽	-15254
紫	-15255
腹	-15256
芜	-15257
芽	-15258
萍	-15259
董	-15260
蓬	-15261
蔬	-15262
谆	-15263
轿	-15264
逝	-15265
镖	-15266
阔	-15267
陂	-15268
靡	-15269
驴	-15270
骚	-15271
乔	-15272
乞	-15273
俱	-15274
傀	-15275
儡	-15276
兹	-15277
冤	-15278
剖	-15279
厦	-15280
唾	-15281
喊	-15282
喻	-15283
园	-15284
坟	-15285
坡	-15286
埠	-15287
堕	-15288
塔	-15289
姑	-15290
娃	-15291
岭	-15292
恭	-15293
惶	-15294
惹	-15295
懒	-15296
拦	-15297
拾	-15298
携	-15299
敏	-15300
昨	-15301
染	-15302
汹	-15303
沾	-15304
泳	-15305
润	-15306
淳	-15307
渔	-15308
渴	-15309
渺	-15310
溶	-15311
漠	-15312
潼	-15313
焰	-15314
煤	-15315
煽	-15316
犬	-15317
玄	-15318
瘦	-15319
皓	-15320
盼	-15321
碉	-15322
粹	-15323
聂	-15324
聊	-15325
臣	-15326
臻	-15327
菏	-15328
葫	-15329
蒂	-15330
襄	-15331
誉	-15332
讽	-15333
诡	-15334
贾	-15335
跌	-15336
郴	-15337
钉	-15338
钟	-15339
闯	-15340
韬	-15341
饰	-15342
饱	-15343
骑	-15344
黔	-15345
*	-15346
丹	-15347
侯	-15348
兽	-15349
劢	-15350
募	-15351
勿	-15352
卿	-15353
呆	-15354
哩	-15355
唬	-15356
坝	-15357
坪	-15358
奈	-15359
奔	-15360
妻	-15361
宫	-15362
尺	-15363
床	-15364
彰	-15365
愁	-15366
戌	-15367
扇	-15368
抚	-15369
拆	-15370
拜	-15371
柱	-15372
梅	-15373
欠	-15374
沪	-15375
沮	-15376
淡	-15377
渤	-15378
滞	-15379
滦	-15380
炉	-15381
焚	-15382
熊	-15383
熬	-15384
燎	-15385
爽	-15386
犁	-15387
狠	-15388
疏	-15389
睹	-15390
瞒	-15391
穆	-15392
童	-15393
纽	-15394
罐	-15395
羞	-15396
羽	-15397
脂	-15398
芒	-15399
莱	-15400
葬	-15401
衔	-15402
诈	-15403
诗	-15404
诬	-15405
跳	-15406
蹈	-15407
躲	-15408
邻	-15409
鄙	-15410
酬	-15411
镜	-15412
韶	-15413
颓	-15414
鼻	-15415
齿	-15416
A	-15417
B	-15418
仔	-15419
冻	-15420
凑	-15421
凝	-15422
刿	-15423
剑	-15424
匿	-15425
吵	-15426
哗	-15427
喘	-15428
嘉	-15429
宾	-15430
尸	-15431
崖	-15432
弗	-15433
悄	-15434
惫	-15435
愉	-15436
扼	-15437
挤	-15438
掘	-15439
搁	-15440
搭	-15441
斩	-15442
昂	-15443
枉	-15444
桓	-15445
棠	-15446
榘	-15447
涛	-15448
淝	-15449
渭	-15450
滔	-15451
滴	-15452
焦	-15453
燕	-15454
獗	-15455
琴	-15456
琼	-15457
畅	-15458
皋	-15459
盈	-15460
睢	-15461
矫	-15462
碗	-15463
稀	-15464
窑	-15465
腾	-15466
菲	-15467
薛	-15468
藩	-15469
蚌	-15470
蜜	-15471
螺	-15472
贿	-15473
赎	-15474
赐	-15475
赚	-15476
趁	-15477
踞	-15478
辆	-15479
迭	-15480
逞	-15481
遥	-15482
邯	-15483
郸	-15484
霖	-15485
鞋	-15486
馆	-15487
鸟	-15488
鼐	-15489
鼠	-15490
侥	-15491
俊	-15492
僻	-15493
儒	-15494
冰	-15495
凌	-15496
卑	-15497
啦	-15498
喂	-15499
嗅	-15500
坊	-15501
坳	-15502
墓	-15503
夕	-15504
契	-15505
妖	-15506
娘	-15507
娱	-15508
婆	-15509
孝	-15510
宛	-15511
寓	-15512
寺	-15513
屁	-15514
帚	-15515
弊	-15516
弓	-15517
恋	-15518
悼	-15519
扑	-15520
披	-15521
捆	-15522
杞	-15523
枯	-15524
柔	-15525
柳	-15526
桢	-15527
梧	-15528
歉	-15529
汊	-15530
池	-15531
灌	-15532
煞	-15533
煮	-15534
熙	-15535
燃	-15536
爬	-15537
甫	-15538
疗	-15539
痘	-15540
瘪	-15541
眠	-15542
砂	-15543
祟	-15544
祭	-15545
窃	-15546
竹	-15547
篡	-15548
糙	-15549
纱	-15550
绘	-15551
肚	-15552
舶	-15553
芳	-15554
苗	-15555
荐	-15556
萌	-15557
萧	-15558
蜀	-15559
衅	-15560
览	-15561
访	-15562
诵	-15563
逢	-15564
郝	-15565
酸	-15566
钩	-15567
霉	-15568
韵	-15569
频	-15570
魄	-15571
鸿	-15572
%	-15573
丈	-15574
俞	-15575
凉	-15576
剪	-15577
咨	-15578
哭	-15579
嗣	-15580
嘲	-15581
嚷	-15582
囚	-15583
坎	-15584
坤	-15585
堵	-15586
壳	-15587
婚	-15588
宏	-15589
寰	-15590
屎	-15591
履	-15592
岔	-15593
岩	-15594
崞	-15595
崭	-15596
巾	-15597
帆	-15598
弛	-15599
彝	-15600
怙	-15601
悛	-15602
惰	-15603
愧	-15604
撞	-15605
攸	-15606
旺	-15607
昧	-15608
朵	-15609
档	-15610
棒	-15611
樟	-15612
檄	-15613
殃	-15614
浇	-15615
浊	-15616
测	-15617
渠	-15618
灯	-15619
珍	-15620
璋	-15621
瓒	-15622
痒	-15623
瘟	-15624
瘴	-15625
睁	-15626
瞬	-15627
瞿	-15628
硝	-15629
磁	-15630
票	-15631
禅	-15632
禾	-15633
秧	-15634
稼	-15635
笨	-15636
笼	-15637
簧	-15638
绊	-15639
聆	-15640
胎	-15641
脏	-15642
脾	-15643
艘	-15644
芝	-15645
苍	-15646
葛	-15647
藤	-15648
虞	-15649
蝇	-15650
衷	-15651
裹	-15652
讼	-15653
诛	-15654
诞	-15655
跨	-15656
躺	-15657
辜	-15658
逵	-15659
邮	-15660
醉	-15661
钨	-15662
锟	-15663
锣	-15664
靶	-15665
顷	-15666
颗	-15667
颜	-15668
驶	-15669
驾	-15670
魁	-15671
麓	-15672
龟	-15673
丐	-15674
亭	-15675
储	-15676
兑	-15677
冶	-15678
刽	-15679
卦	-15680
叔	-15681
叟	-15682
叹	-15683
呈	-15684
呜	-15685
咸	-15686
哀	-15687
嗟	-15688
圆	-15689
垣	-15690
壕	-15691
夷	-15692
宕	-15693
宦	-15694
宰	-15695
尧	-15696
屹	-15697
峨	-15698
帛	-15699
弦	-15700
弼	-15701
彬	-15702
忆	-15703
怯	-15704
恼	-15705
悠	-15706
慨	-15707
戚	-15708
戮	-15709
捭	-15710
撒	-15711
撮	-15712
斋	-15713
斐	-15714
斟	-15715
曙	-15716
曼	-15717
枣	-15718
株	-15719
桶	-15720
梓	-15721
棚	-15722
棺	-15723
橡	-15724
氢	-15725
汕	-15726
洽	-15727
涧	-15728
液	-15729
淹	-15730
渝	-15731
滋	-15732
滚	-15733
滨	-15734
潍	-15735
澎	-15736
濮	-15737
炯	-15738
熹	-15739
猫	-15740
猾	-15741
玲	-15742
珠	-15743
瓜	-15744
瓢	-15745
甜	-15746
甸	-15747
痕	-15748
痹	-15749
盆	-15750
碑	-15751
礁	-15752
秉	-15753
笠	-15754
粪	-15755
纺	-15756
羿	-15757
耍	-15758
肌	-15759
胃	-15760
胸	-15761
臾	-15762
芬	-15763
苟	-15764
苹	-15765
苻	-15766
葡	-15767
蔓	-15768
蕴	-15769
虐	-15770
蚁	-15771
蚂	-15772
蚊	-15773
蟠	-15774
袋	-15775
袜	-15776
觅	-15777
诀	-15778
谏	-15779
谩	-15780
贻	-15781
跋	-15782
踢	-15783
蹂	-15784
蹲	-15785
躏	-15786
轼	-15787
辕	-15788
逾	-15789
邪	-15790
钝	-15791
钰	-15792
锤	-15793
闷	-15794
阖	-15795
阜	-15796
雁	-15797
雕	-15798
饮	-15799
饲	-15800
骇	-15801
鳏	-15802
w	-15803
丛	-15804
仆	-15805
伎	-15806
侠	-15807
俟	-15808
倚	-15809
兆	-15810
兢	-15811
勺	-15812
匀	-15813
厅	-15814
吭	-15815
咐	-15816
唆	-15817
啼	-15818
喉	-15819
喷	-15820
噶	-15821
嚼	-15822
囤	-15823
垦	-15824
填	-15825
塾	-15826
姻	-15827
娜	-15828
婴	-15829
媚	-15830
媳	-15831
孽	-15832
宠	-15833
屿	-15834
峻	-15835
巫	-15836
帖	-15837
幅	-15838
庇	-15839
庚	-15840
庵	-15841
廓	-15842
恃	-15843
恒	-15844
恕	-15845
恤	-15846
悦	-15847
惮	-15848
懦	-15849
戍	-15850
戟	-15851
扁	-15852
扭	-15853
扮	-15854
拙	-15855
拣	-15856
捅	-15857
捞	-15858
掷	-15859
搓	-15860
擂	-15861
敛	-15862
斑	-15863
昼	-15864
晦	-15865
暇	-15866
暑	-15867
枕	-15868
枫	-15869
柄	-15870
栽	-15871
桐	-15872
榨	-15873
樊	-15874
殆	-15875
殉	-15876
殴	-15877
氧	-15878
沃	-15879
沧	-15880
泾	-15881
洒	-15882
涕	-15883
渗	-15884
溯	-15885
滇	-15886
漆	-15887
澄	-15888
爪	-15889
牍	-15890
牒	-15891
牟	-15892
狐	-15893
狡	-15894
猜	-15895
猴	-15896
瑜	-15897
瑾	-15898
疮	-15899
瘾	-15900
皱	-15901
碌	-15902
碾	-15903
祁	-15904
稻	-15905
窥	-15906
窦	-15907
笋	-15908
粕	-15909
糕	-15910
绑	-15911
缅	-15912
缉	-15913
翁	-15914
翅	-15915
翰	-15916
耒	-15917
聋	-15918
肖	-15919
肠	-15920
脆	-15921
脓	-15922
腥	-15923
膑	-15924
膺	-15925
菌	-15926
萄	-15927
蔗	-15928
蜕	-15929
讳	-15930
诫	-15931
诲	-15932
豢	-15933
踪	-15934
蹶	-15935
辣	-15936
邑	-15937
郎	-15938
鑫	-15939
铲	-15940
闸	-15941
隋	-15942
颖	-15943
颛	-15944
颤	-15945
饬	-15946
饵	-15947
髓	-15948
麦	-15949
默	-15950
a	-15951
d	-15952
p	-15953
y	-15954
丽	-15955
乾	-15956
亘	-15957
伕	-15958
伥	-15959
佯	-15960
俯	-15961
傩	-15962
僖	-15963
兮	-15964
函	-15965
凿	-15966
刃	-15967
券	-15968
剐	-15969
勘	-15970
匠	-15971
匡	-15972
卯	-15973
卸	-15974
厕	-15975
厘	-15976
厝	-15977
叨	-15978
吊	-15979
呶	-15980
咎	-15981
咧	-15982
咳	-15983
哄	-15984
哼	-15985
喇	-15986
喧	-15987
噜	-15988
囿	-15989
圭	-15990
坠	-15991
垢	-15992
堤	-15993
壶	-15994
夭	-15995
奄	-15996
奢	-15997
奶	-15998
妓	-15999
妣	-16000
妹	-16001
姆	-16002
姊	-16003
姐	-16004
娄	-16005
娼	-16006
孀	-16007
孺	-16008
宅	-16009
寂	-16010
寞	-16011
尝	-16012
岌	-16013
幌	-16014
庖	-16015
弋	-16016
弭	-16017
徊	-16018
徘	-16019
徵	-16020
忻	-16021
惭	-16022
慰	-16023
慷	-16024
懋	-16025
懵	-16026
抖	-16027
拈	-16028
拷	-16029
拼	-16030
挈	-16031
挟	-16032
挪	-16033
掺	-16034
揖	-16035
揽	-16036
搅	-16037
搆	-16038
搏	-16039
搪	-16040
撇	-16041
敝	-16042
敞	-16043
晏	-16044
晰	-16045
晶	-16046
暖	-16047
朔	-16048
朕	-16049
杵	-16050
柯	-16051
栗	-16052
桅	-16053
框	-16054
桩	-16055
梨	-16056
梯	-16057
椅	-16058
榴	-16059
檀	-16060
殿	-16061
汁	-16062
沁	-16063
沛	-16064
沣	-16065
沫	-16066
沭	-16067
沸	-16068
沼	-16069
泊	-16070
泣	-16071
洮	-16072
洵	-16073
涯	-16074
涿	-16075
淄	-16076
渊	-16077
溉	-16078
溺	-16079
漳	-16080
潘	-16081
潢	-16082
灶	-16083
灿	-16084
炊	-16085
炎	-16086
烹	-16087
焕	-16088
熄	-16089
燥	-16090
爵	-16091
狞	-16092
狰	-16093
狼	-16094
猰	-16095
琐	-16096
甩	-16097
症	-16098
瘁	-16099
瘠	-16100
眨	-16101
睫	-16102
瞧	-16103
矾	-16104
砥	-16105
磋	-16106
禺	-16107
秆	-16108
穴	-16109
竖	-16110
竣	-16111
笆	-16112
筒	-16113
篱	-16114
绌	-16115
绞	-16116
缕	-16117
缠	-16118
缸	-16119
羁	-16120
耶	-16121
耸	-16122
耽	-16123
聘	-16124
